000003f1
fffff28e
000009b4
00000c29
ffffe6c6
ffffef2a
000001a7
fffffbe9
ffffffc8
fffff4f8
00000b5f
00000a0f
000000db
00000e93
0000060b
fffff4e4
000004c5
fffff39a
00000b5c
ffffff5b
fffffd9c
fffff732
00000fcf
fffffe00
fffffa76
fffffb72
000006e2
000004ba
00000556
00000592
00001bb1
fffffabf
fffff960
fffff57a
000007f7
00000e99
fffffe87
fffff523
fffff557
0000086a
0000099c
00000706
fffff765
00000300
00000182
000002d4
00000b44
000002e4
000008c7
000000e0
000003bd
0000082a
ffffed29
fffffbde
fffff9eb
fffff7bd
fffffc71
00001354
fffff4ce
00000c85
ffffea3e
fffffbac
0000021b
00000794
00000932
00000a42
fffffb7e
fffffa06
00000b18
fffffd87
ffffef81
fffff159
fffff41d
0000066e
000001d7
000008ee
fffffa7a
0000020d
00000817
fffffc00
000005e8
fffff771
fffffb4e
fffffb10
fffff08a
0000064c
fffff9ee
00000029
00000637
000005c6
0000089a
fffffeba
fffffa87
fffffef8
ffffea2f
ffffed4a
ffffeee6
fffff31b
0000052b
fffff44b
fffffb1c
000010cd
fffffb65
00000989
fffff3ee
fffffd58
fffff3b7
fffffb9e
00000add
ffffe9aa
0000059e
00000313
fffff851
ffffed4d
000000ef
fffff927
00000302
00000048
000014b6
fffffce8
fffff2c4
00000251
000002d8
00001193
00000acc
0000049d
000012ec
fffff0a1
fffff7ba
fffff405
fffffaf6
ffffee33
00000836
fffffd20
ffffecfc
fffff2de
0000040e
00000ad6
000019d1
000025ad
0000055c
fffff335
ffffe46f
00000376
fffff57d
fffffaa1
fffff816
fffffe2e
00000dc8
00000208
fffffdf3
fffff29c
ffffea59
fffff9b6
ffffff4e
000016dc
000001af
00000cb5
fffff98b
fffff0ae
fffff385
fffff69f
00001b85
fffff561
00000ad7
fffff453
00000c0c
000004fa
fffffdfa
ffffff79
fffff789
000005c5
fffffa1e
fffff027
ffffef7a
0000023b
0000146b
00000212
fffffe77
000003b2
000010e3
000002d6
fffffab0
00000e4e
0000058b
000013db
0000025f
fffff02b
ffffee4f
00001559
00001649
fffffdae
fffffb0c
000012e5
fffff1b0
fffff46e
00000851
fffffae6
ffffffef
fffffde3
0000045d
00001233
0000012c
00000853
ffffe57e
ffffff5f
fffff519
fffff03e
fffff4a5
fffffbae
00000bd8
ffffeeda
00000065
fffff9bd
fffffbc3
00000cf7
000006f5
0000114b
fffffe01
fffff700
fffffd1b
00000323
00000248
fffff1fb
0000012c
000002f3
0000208d
00001844
fffff4f8
fffffc49
ffffed14
fffff85d
00000415
00000f97
fffff693
fffff78b
ffffe43c
fffffde6
fffff243
fffff928
fffff4aa
fffffec8
ffffe946
ffffed08
00001b88
ffffef5b
fffff1d2
000017c0
00002590
fffff0da
fffffb3d
0000046b
0000165a
fffff33d
fffffcd4
00000a0d
0000059f
fffffb23
fffffe45
ffffee39
fffffcec
fffffc8e
00000300
fffff8d2
00000619
00000d18
00000202
0000048c
000000b0
00000000
fffff6ac
00000418
fffffebe
00001b11
00001458
000004fd
fffff622
fffff19e
00000f67
00000366
00000635
ffffe971
00000bfe
000005e0
fffff1a4
fffff9e7
00000369
000000ae
fffffc39
fffffea9
fffffcbe
000001f9
00001307
ffffded0
fffffcf0
00000248
000003d4
fffffb31
ffffe949
0000043e
00001656
ffffec2b
00000b2b
fffffbc1
ffffff35
fffff263
fffffbad
000010cf
00000789
00001666
00000f39
000005ad
0000168d
000005ad
00000ab5
fffffc2a
000000dc
fffff6fb
00000ccc
fffff0c4
00000a1e
fffffd89
00000f25
000009b5
0000178a
00000973
ffffebac
ffffff22
fffff0d9
fffff94c
0000138a
0000083e
fffff6f6
fffff2e5
0000006d
fffff045
fffff752
00000409
00000ef0
000007df
ffffe260
000003ef
000000ee
0000055a
000014e6
ffffe553
fffff85b
000007a4
ffffeb8d
00001315
000004c3
00000af2
fffff89e
00000a86
00000dd1
00000303
00000308
0000037f
fffff4d6
fffffe18
fffffe07
000004f5
00000ced
fffff250
fffffe62
00001328
fffff663
fffff55e
0000029e
00000aeb
00000026
0000112f
00000b14
00000ae2
0000072a
00001e19
fffffd59
ffffe618
000014be
fffffa15
00000165
000010ef
ffffeb48
ffffefd1
ffffeb4c
fffff5bb
000005af
000006c7
00000392
ffffedbc
ffffe221
000000b4
fffff9e6
000005f1
00000914
000001ca
000009d4
000002f7
000006db
fffff6e3
fffffdad
0000028b
00000a9c
fffffae9
000006bd
fffffc90
fffffe7b
00000aba
ffffe63b
ffffef3d
ffffecd6
ffffe1d4
fffff73b
000009b1
fffffc51
0000028f
00000e15
0000112b
ffffff1b
00001180
00000131
fffff52c
fffff850
ffffecdb
fffff484
fffffb5f
00000a64
00001640
ffffee21
00000514
fffff28c
00000623
fffffe4e
ffffe854
00000c01
fffff82d
fffff919
fffff22b
fffff78a
00000588
fffffd8e
00000440
000004ae
00001113
fffffb91
ffffece8
00000dcd
fffffbb7
00000e69
000004f5
fffffe4e
00000482
0000193a
00001adb
000000e6
00000212
00000dea
fffff511
0000044e
ffffffaa
0000040f
fffff539
ffffeb72
ffffe532
fffff18d
fffffa12
fffffc36
0000190c
00000e4d
fffff38f
0000047f
fffffabd
fffffc53
00000265
00000801
fffffb9d
00000dc1
fffff13c
00000015
00002196
000002e2
00001288
0000012f
00000782
ffffff44
fffffdcc
fffff5ec
00000590
fffff4fd
0000089b
00000e08
000004bd
fffffc4c
000005df
fffffc02
00000c19
ffffe852
fffffba9
ffffe642
ffffecab
000011a2
00000b93
fffff6b2
ffffec93
ffffd9ab
fffff8f9
00001f4c
0000059f
fffff8c4
00000603
ffffebd1
fffffc28
00000149
fffffee3
00000a3a
00000475
000008a4
fffff719
00000b9c
00001510
fffff375
fffff486
00001146
fffffd87
00001227
fffffa47
000012d0
000001b3
00000357
0000143b
fffffb53
fffff3d5
fffffa33
000005d9
ffffebc1
0000083e
fffff909
00000ed7
ffffe10b
fffff5d4
ffffea32
fffff551
00000334
fffffdaf
fffffcb9
fffffdf1
000002a1
fffff2f6
00000924
00000891
000004fb
00000732
000003d5
00001a50
fffffee0
fffffc08
fffff642
fffff2a7
ffffefe9
fffff482
ffffff16
00000453
000000a9
fffff61a
00000ba4
00000990
fffffdf0
fffff78f
00000717
0000026e
ffffed47
ffffff1f
00000363
fffff45e
00000274
ffffed30
00001147
00001023
fffffcbc
000004b3
ffffe0d7
fffff10c
fffffc34
fffff223
0000093d
000019d3
fffff0c9
fffff52c
0000030b
000014d5
fffff032
00000338
0000178d
ffffeaa5
ffffef70
fffffa86
fffff945
00000a82
00000320
ffffe90d
000006aa
fffff888
0000107b
fffff7e3
fffff7c5
000006ff
000009dd
000005cb
ffffea35
000006f5
fffff2a0
0000030b
ffffed97
000005c5
fffff592
ffffef6a
0000093b
00000320
fffff810
000012c4
fffffa4d
0000006a
0000037a
fffff7fd
00000617
fffff91a
fffffaad
0000119e
fffff28c
ffffe0ce
000014d4
000020f6
fffffac3
ffffe6f5
fffffbfc
fffffc4d
fffffd8b
fffff19b
0000077e
000006c8
ffffecad
0000090a
00001a8b
00000239
fffffba3
fffffe2a
000007f5
ffffe99f
00000220
fffffaf4
000017e4
fffffdbf
00001591
fffff1bb
00000798
00000421
fffff4c3
0000024b
00000fae
fffffbd0
ffffea1f
ffffffc6
fffff455
fffffb93
fffffef2
ffffe9f2
ffffeb1c
0000063c
fffff93e
ffffded7
00000a26
00000386
fffff6c5
ffffeef9
00000acf
00000484
00001ecf
0000056f
00000503
fffffdd7
00000a90
00000815
0000102f
fffff942
fffffa5f
fffff9ce
00000a3a
00001360
fffffa11
fffffa82
00000410
fffffcd3
00000c4f
ffffe2e2
fffff550
fffff5e2
ffffe1ff
fffff38a
fffff42b
fffffd66
00000e64
fffffcd5
fffff2ac
ffffff43
00000d91
fffff362
fffff43a
00000739
fffffd23
0000085f
ffffffd3
00000913
fffff29e
ffffffd8
fffffd47
fffff047
ffffebc9
000008de
fffffb76
fffff2c8
fffffec2
00000e96
ffffe283
ffffeca6
fffff411
000012e5
000003a7
000009ec
fffff142
fffff186
000005ca
000000c1
00000718
fffffd93
00000399
0000020b
00000a0e
00000a6f
ffffeb0e
ffffe2f1
00000cf4
00000f5b
fffff2ce
ffffe7f4
00000148
00000c09
0000173e
000006ad
fffffb32
fffff474
00000026
fffffc21
fffff2e0
00001a7e
00001715
00000eb0
fffff418
00000b0e
00000845
000005b9
00001028
00000837
00000991
0000083c
00000468
ffffe8f0
00000115
fffff8cf
ffffef74
000015bf
0000165b
00001193
0000034d
00001177
00000028
0000029f
fffff1dd
00000522
000000c8
ffffef28
ffffff57
fffffef8
0000173e
00000b90
00000026
00000338
00000092
fffffd60
fffff201
fffffe0c
fffff65a
ffffefd5
0000069c
0000050f
ffffe8e6
fffffe6a
00000ce0
00000db2
00000d44
00000081
fffff513
fffff1fd
00000475
000004e7
000010a5
00000e39
fffffe4a
ffffefea
fffffbe0
000002cf
fffffd63
fffff887
00000345
fffff97c
fffff7e1
00000407
fffffacd
00000328
00000388
fffff144
fffff9c7
00001297
fffff0f9
ffffe4a2
ffffe7ed
00000060
00000066
fffffe7b
00000fb3
ffffdd71
0000051f
00001430
fffff16b
fffffb17
fffff644
fffff470
fffffbc8
00001275
000017c2
fffffba8
000018a2
00000076
000016ad
fffffecb
000001b2
000004ba
0000291a
00000b02
fffff6db
00000c87
fffffb52
fffff9ab
00000bc0
00000067
0000039a
0000002e
0000045a
0000057f
ffffe6f5
0000089e
fffff34d
ffffed5a
ffffff3f
00000116
fffff708
00000abf
ffffeea5
fffffabd
fffff870
ffffff66
0000039b
fffff2f8
0000095d
000000d1
ffffe78a
ffffe6ad
ffffffd7
fffffd25
fffffeaa
ffffffa3
000002eb
00000c41
fffff1a2
fffff0d9
fffff1dd
000003bc
00001019
fffffa6c
ffffdfa7
ffffe9f8
fffff53b
fffff8ca
fffffab8
00000080
fffffbf8
00000d91
fffff742
fffff4da
00000631
ffffec25
0000050a
00000153
fffffe18
00001489
fffff7f4
00001aa4
fffffd16
ffffef7d
000000e7
fffff216
fffff648
00000522
0000072f
fffff7f5
00000cc4
00000ef7
00001292
000006d8
000011a1
ffffe7ae
fffffbe4
fffff4ca
0000018b
fffff89c
fffffdda
00001856
fffffdce
0000055a
fffffcff
000000fb
00000014
000005cc
00000f11
0000154d
00000401
0000079f
fffff11f
fffffedd
00000c28
00000b32
000002bc
00000b76
00000658
00000f85
000003be
fffffb67
00000458
ffffda1c
000004f3
ffffd0d4
ffffe9b7
000005d7
0000062d
fffff0f8
fffff6cb
000011b9
fffff9be
00001d00
fffffffa
00000547
000014e8
000001b2
fffff30a
fffffe95
ffffff8a
ffffee5b
fffffcb1
fffff667
00000bf4
00000073
fffffc58
fffffea1
000002e3
000007fa
fffff313
fffff288
00000e49
fffffaab
ffffedae
000005bd
000005fe
ffffec35
000002f8
00000983
000004d7
0000082c
ffffedd8
00000448
fffffc16
fffff9c2
00000b42
00001320
00001733
00001100
fffffe95
00000490
000009ea
00000191
000001b1
00000aa7
ffffff3c
fffff692
fffffaa4
00000832
0000000a
00000466
000008aa
fffffb27
000009c7
000004e6
fffff009
000012a6
fffff987
ffffea9a
fffff27d
fffff2cc
000000ad
fffffc76
fffffba5
00000803
00000465
00000416
0000054d
000007f7
ffffe4bf
fffffb4a
ffffe3cf
00000077
fffffff1
00000d85
00000f5b
0000029f
fffff988
00000646
fffff92d
fffffffb
00000cc0
fffff8ca
00000a6b
000008c2
fffff3a8
00000c98
00000908
00000151
fffff625
fffff4e4
fffff90c
00000704
fffff3a5
000005a8
ffffeff2
fffffd5d
0000016b
00001f9e
ffffee31
00001308
000001f0
00000551
00000188
000005c0
fffffe03
000012cd
fffffa19
00000ea4
fffff7ab
ffffff39
fffff224
000005e2
000012af
ffffff00
fffffd74
fffff197
fffffd09
ffffeb68
fffff432
000002ef
0000110e
00002453
fffff86a
0000128f
00000327
fffffe0b
00000598
000000cd
0000016d
fffffab8
ffffedec
ffffec0a
00000872
fffffc6c
fffff84b
0000001c
00000a47
00000255
fffff784
00000fdb
0000146b
00000665
00000c97
0000100f
00000e9d
000007f1
000007bd
000006b8
fffff1d0
0000090f
ffffee78
fffff5ba
000010db
00000add
0000133b
fffffc7d
fffff11a
fffffce4
00000152
00000105
00000ea9
fffffb54
0000048d
fffff338
000005d3
0000000a
fffff64e
fffffcf3
fffffd9e
fffffc82
000016e7
fffffeba
fffffcd9
ffffe4e1
fffff470
fffffc99
fffff722
000011de
fffffdde
000010a9
000000cc
0000007b
fffffeda
0000000d
00001639
ffffe202
ffffe61f
fffff8fa
00000030
000008ec
0000061e
fffffb08
00000d2d
00000d52
00000261
00000c72
00000386
fffff8bd
00000906
0000016e
00000004
0000130c
ffffe04f
ffffedab
fffff0a7
fffffb4e
fffffcb5
ffffec83
fffff343
fffff4df
00001fc6
0000174c
fffffaad
fffffb4d
fffff124
ffffe754
fffffe7d
fffff319
fffffee7
ffffeb4f
fffff626
000001ec
000004bc
00000566
ffffeeed
00000b0d
fffff5a7
0000082f
ffffffdd
ffffee34
fffffbe9
000004b9
000007ed
fffffe2d
000013ce
00000d07
fffffcae
000009b3
00001901
00001959
fffff01f
fffff405
00001333
fffff251
ffffeee6
fffff9b7
0000056f
fffffead
fffff797
fffff748
fffff6ca
fffff4a1
00001d80
000003d9
00000b77
fffff9ad
fffffd98
fffff6c6
ffffddb7
ffffee2f
ffffe897
ffffe2e9
fffff08b
00001122
ffffff6d
000010b0
00000550
00000a1e
fffff45a
000006c6
0000096c
fffff88b
0000073c
00000752
fffff8e5
fffff17c
fffff0b0
0000011e
0000043a
fffff5c1
00000058
00000761
000007fe
00001411
00001083
fffff30e
000015c5
fffff922
00000d83
000000e1
fffffaac
ffffe8a0
fffffdc8
ffffebd6
00000c82
0000139d
fffff5b2
000003e8
fffff69f
fffff7e0
00000a04
ffffff80
0000167e
fffff9c4
00000cec
00000142
00000a4a
fffffa38
ffffff5c
fffffe82
fffff531
00000890
00000868
000007ad
000013df
000012bd
fffffb27
000004d3
fffff7f0
0000004d
fffff83f
000014f3
000004b4
fffffd2e
00000f6f
ffffe3ef
ffffe5f5
00000a4a
000000c8
0000033d
ffffeeda
ffffffb3
000019e8
00000aa8
00000232
fffffa53
fffffae6
ffffe478
00000355
00000aef
ffffeba1
fffff773
fffff109
fffff385
000000b1
ffffe50c
000007f1
000009bf
fffffcc1
ffffdfed
fffff31e
00000ff1
ffffdc15
fffffb82
fffff0be
00000a67
fffff745
00000539
00000750
000017be
fffffd60
000004dd
ffffeccc
00000f64
fffff62b
fffff8c0
ffffffb6
ffffebcb
000002f5
00000c82
000003ca
ffffeb75
fffffe66
00000998
ffffe7b8
fffff21a
00000b55
0000037e
00000554
0000180b
0000060f
00000882
0000230d
fffffd3c
fffff5af
00000588
000005ad
fffff931
fffff2a7
00001dde
0000043a
fffff688
00000bd8
fffffe97
fffffcbb
00000745
ffffef4c
0000048f
000018bc
00000607
fffffb23
fffff971
fffffab2
fffffcb7
fffffb1d
00000bd9
ffffe997
00000b25
fffffb17
000004e0
fffff16e
0000112e
0000101b
00000c68
ffffec6a
00000ab8
0000053c
ffffeb3e
ffffffb0
000004b7
00000731
0000024b
000003c4
0000130e
00000fda
ffffdaee
fffffbe5
fffffddf
ffffe958
00000138
00001025
fffff1f3
0000045a
fffff429
fffff750
0000131a
fffff8fc
000005fa
ffffe7ce
00001814
000007cb
fffffda4
00000771
ffffedc5
00000f4a
fffffbd0
fffffd5d
fffff9a5
fffff87e
000008fb
0000034f
0000086d
ffffffe3
000006a3
fffffa96
00001cd5
ffffebba
0000104e
000011b0
fffff4fb
00001cd3
00000cdf
00000c8f
0000005d
fffffd31
fffffd4b
0000050d
0000121e
00000258
fffff437
00000aa9
00000be9
00000877
000009a4
fffffc7f
fffff3fd
fffff4c6
ffffeadb
00000310
fffffeec
fffffa50
ffffd9c9
ffffefdf
00000e7e
fffff768
000004aa
ffffee05
0000129a
fffffe23
000003c0
00001e12
0000139c
fffffc09
fffff854
fffffbca
00000698
fffffea4
fffffae4
000012f8
fffffe86
00001dbc
0000012c
00001716
0000049f
00000c73
fffff6a1
fffff4f6
000005f2
00000cc8
00000085
ffffef5e
ffffee69
ffffed8c
ffffe925
0000016a
00000e8c
ffffffd4
ffffe2c6
fffffd89
fffffde5
00001b1a
ffffed29
fffffaf3
0000160e
000005d1
00000749
0000017b
00000444
00000a0e
fffff589
00000b5a
ffffee3f
0000043f
00000250
fffff808
ffffffb5
fffff7f3
fffff225
fffffb6e
fffff1ba
0000042c
fffff121
00000935
fffff0b9
fffff8ae
fffff7ed
00001122
00000445
fffffd43
00000673
ffffe4c1
ffffff71
000019d4
000001b6
000000e1
00000716
00000b95
ffffe62c
ffffea3f
000002b8
fffff6c2
000010f7
fffffbed
ffffe6fd
ffffef9b
ffffdc72
fffffcf9
fffffd90
fffffa83
00000df3
00000f7f
fffffdcc
ffffe466
000007fb
0000072e
00000400
00000cb1
fffff0f0
000019f9
fffff398
000009b0
ffffea2f
fffff3f9
0000139b
fffffca0
00000adc
00000310
fffffea5
000011a2
fffffcf1
ffffe8fa
fffff59d
00000720
0000051d
ffffebbd
fffff6a2
fffff87a
fffffb46
ffffee36
fffff7e0
fffff694
000009fa
00000a76
fffffe1d
fffffaee
000001cf
fffff571
fffff12c
fffff3d8
fffff7cb
fffff0f5
00000218
0000096f
ffffeb7b
00000053
fffffd28
0000046a
ffffffd5
ffffed34
ffffefad
00000061
00000d4d
ffffe35f
00000478
00000f62
fffffe05
0000071d
fffff6e9
fffffe75
ffffeb0b
ffffe1b0
00000c31
fffff344
fffffa1c
ffffee13
ffffedc5
fffffdc1
fffff691
000004e3
000005da
00000426
00000316
00001467
fffff232
ffffff4a
00000ea5
0000105a
ffffed9e
fffffbf6
0000118f
00000692
00000286
fffffd2f
fffffb0a
000003ba
fffffcbd
ffffff73
00000104
fffff73c
000006e1
000025ae
ffffe906
00000431
fffff62c
00000777
0000009a
000009da
00000f33
0000027d
00000ea3
ffffe1b0
00001491
000004d9
00000df0
fffff03a
fffff542
000001e3
ffffffc8
000003a9
00000e06
ffffe92d
00000c97
0000001b
fffffd5d
ffffecfb
00000681
ffffe0c9
00000862
ffffecb5
000000b1
fffffe76
00000f1f
fffffdb1
fffff706
fffff973
00001075
000006ef
fffffb04
fffffcf1
ffffebbd
00000506
ffffe93f
000009b8
000001aa
00001edd
fffff1c6
fffffeac
00001740
00000f68
fffff6ff
000002e5
00000007
000003a5
fffff6f7
fffffed8
ffffeb56
000001bf
000005d2
fffffd0f
ffffeb1e
00000cc8
000004b7
fffff69d
fffffc5f
ffffec99
fffff2be
fffff90c
00000fe2
fffff7bb
00000847
fffff90a
00000335
fffffe2c
00000b4a
fffff916
ffffebab
ffffee22
fffff91f
ffffefda
0000054e
fffff9fa
00001eb4
ffffe988
000002a2
fffff16a
fffff99f
000001d4
ffffe1ef
00000310
0000189b
fffffa23
0000035c
00000d41
fffffde1
fffff87d
ffffe293
0000084a
fffffe89
fffff2e8
000001a3
fffff874
fffff92b
000007d7
ffffeeb2
00000d8b
ffffedee
fffff76e
000018dd
00000e94
00000143
fffff3d7
fffff928
000000f3
0000007c
fffffed3
ffffff9a
fffffd3a
ffffed5b
fffff952
00000bd3
ffffee4f
fffffd8d
fffff567
00000171
fffffafa
0000131a
0000068d
ffffef0a
000008ae
fffff5fc
fffff88a
0000040f
fffff9a4
00000b8b
fffff5fc
fffff7ff
fffff783
fffff8b0
00000e36
00000821
0000161c
00001d52
fffff2ac
000000e9
fffff0cb
fffff5f2
fffff7da
fffff255
fffff266
fffffe22
fffff045
00000ae3
fffff422
00002454
fffffa2a
000000ee
ffffef40
0000160f
00000e7a
000003d7
ffffee96
000002b9
fffff180
000012e8
00000a76
0000013c
ffffe07f
fffff349
000008e5
00000faf
00000e57
ffffeb6a
000003e6
00000d21
ffffea8f
ffffffe6
0000038a
fffffc1c
ffffe80d
fffffbca
fffffbc5
fffffe16
fffff8b7
fffffa46
ffffff7d
000005b9
fffffc10
fffffab4
00000132
ffffe72a
0000062b
fffffffe
00000083
00000c6c
ffffe6c0
ffffe67a
0000038a
ffffffe8
00000233
fffffa06
00000897
00000c0f
00000642
fffffca1
ffffe4bf
000009f2
00000fcc
00000856
fffff4a0
000008b6
00000b20
00001428
fffff4ac
fffffd12
000009aa
000000be
fffff18e
0000055c
0000077b
00000123
000002d7
fffffca8
0000131d
fffff45b
fffff868
00000024
00000b5d
ffffeca4
ffffef0f
ffffe5a7
0000006c
fffff18a
fffffb07
0000088d
fffff7b4
000002fe
fffffc21
000008b1
00000625
fffff70e
fffffdd2
00000d7f
00000516
ffffedf0
0000087a
fffff1fa
00001244
00000d3e
000003c0
00000208
fffffd4c
000008c6
fffffb35
0000030c
00000b46
fffff8bc
fffff808
fffff08f
fffff23d
ffffe85c
00000970
00001764
0000126e
ffffeafa
0000095f
00001263
fffffa18
00000150
ffffe60a
00000373
fffff240
00000295
ffffebd0
00000705
00000d3f
fffff5e0
fffff14d
ffffe41f
fffffc8e
fffff87b
ffffebf2
000005dc
fffffa2f
fffff217
fffff8d4
00000dda
000007cc
fffffe52
00000801
fffff0fd
0000006b
000001e8
fffff9ed
000005a1
fffff5e9
00000698
00000723
ffffda48
00000f64
ffffd898
fffff809
00000d42
fffffbe6
ffffed0b
fffff1dc
00000d47
ffffe728
00000e99
ffffff4a
fffff095
fffff876
fffff2d9
00000b33
00000978
ffffe9c5
fffffac8
fffff4d7
000010ba
ffffee8b
000014be
ffffff92
fffff0fa
fffff73e
fffff5a3
ffffef85
0000013a
fffff020
ffffe3cf
fffffb17
ffffe8b0
fffff646
fffff43f
fffff4bc
000019df
000000bb
0000032c
ffffe908
fffff78b
000002c9
fffff2c1
00000bbe
fffff073
fffffc4c
fffff86c
00000220
fffff7b8
fffffc7f
fffffcf2
fffff681
00000646
00000315
fffffedb
fffffa6f
00000a4d
fffffcf3
fffffc09
0000015b
000015f0
ffffeeab
000009f4
ffffe785
000002cf
0000145e
00000652
00000235
fffff8c1
00000067
fffffcbe
fffff5d6
fffffc40
00000291
fffff614
fffff593
ffffee6a
0000050d
0000070d
000002ff
00000c7b
00000123
00000512
000003ee
fffffed1
fffff923
00001ca1
fffffa28
fffff764
0000059d
00000342
ffffedd6
00000e84
fffffec8
fffff1a3
00000f5f
00000817
ffffefa6
000016fb
00000885
ffffffde
00001490
0000020f
ffffffa3
fffff776
00000786
0000062a
00000031
fffff5c9
000001ae
ffffff19
ffffeec2
ffffecf8
0000074f
ffffde5c
000002a8
fffff9d2
000010ea
fffff99f
00000887
fffffade
00000179
00000987
fffffa05
00000ce3
fffff327
000003cf
00000bee
00000889
000018c8
fffff621
ffffee2b
fffff325
0000088a
00000670
00000152
fffff17b
000009ea
fffff02a
00000efc
000024f2
000004bd
0000078a
fffff9a1
ffffe898
fffff835
fffff1de
ffffed4a
00001645
00000387
000004e9
fffffc01
fffffdc4
00000c79
ffffff95
000006dd
fffffd77
fffffb93
ffffedcf
ffffe66e
fffffc9e
000000bb
ffffef5f
ffffff8e
000000b2
ffffe41f
fffff42b
00000544
00000501
fffff115
0000020c
00000d38
00000a0c
fffffec5
fffff9f3
fffff7dd
0000060d
00000286
00000823
000001b5
00000a96
00000139
00000a25
00000b42
fffff599
ffffe89f
000013f5
00000352
ffffe9d5
fffff6c5
000009fb
fffffc62
fffff961
0000121d
fffff275
fffff5ae
000002bc
0000050c
0000066b
00000bc8
00000291
00000654
fffffca6
000000d0
00000164
000002c8
000009fd
0000072e
00000092
fffff58a
000000e0
ffffffa3
0000027f
00001c88
fffff93a
00000576
00000dd1
00000144
00001e3a
fffffb1d
00000431
fffff5ac
fffffb74
00000338
00000af1
00000420
00001048
fffffec6
fffffbb4
000022f6
00000519
fffff6b2
fffff706
fffff3d0
00000c1c
fffffb4a
000001a6
ffffff2e
00000975
fffff50d
fffff218
000002e6
000007c5
0000044d
fffff589
000008c3
fffff662
fffff942
fffff3cb
000010d3
00000831
000007d3
00001020
0000245e
ffffe9e6
fffff674
fffff808
fffff500
fffff211
fffffc20
fffff045
00000455
000000ab
00000638
00000691
000007cc
fffffb2c
00001b6d
00000308
ffffe7eb
fffff30a
ffffe97f
00000039
fffffe6d
fffff9f1
00001a00
00000719
00000963
fffff3f6
fffff315
0000007a
0000023d
ffffe7ff
fffffdab
0000002f
fffffd38
fffff57c
fffff906
fffffdb7
0000012d
000007d2
00000dfa
fffffc32
fffffa1a
000005a9
000007e6
fffffa63
00000a38
00000caa
000010b4
000016fe
fffff4cc
0000002e
00000025
fffffebb
fffff79b
ffffeccb
00000133
fffff611
0000011d
fffff5bc
fffff1c8
00000308
000001f4
0000077d
00001c43
00000396
00000646
fffff211
ffffef5c
00001477
fffff40f
fffff280
ffffff7f
fffffed5
fffff455
fffffc0f
00000fe5
fffff594
ffffedfb
00000c30
0000065e
fffff7fa
ffffeb8b
fffff65f
ffffff4b
00000f12
fffff299
fffffee8
000008bb
ffffe136
00000d5e
fffff0b6
0000044b
00000331
00000e06
00000720
ffffe143
fffff5da
000001c9
fffffd7b
0000062d
00000a35
000007de
fffffd3b
ffffe820
fffffa1c
00000562
fffff1e7
0000082a
00000bbf
000001a4
ffffd863
ffffef79
00001863
fffff8ef
ffffe658
00000ff9
0000002c
00000e49
00000395
000005ee
000004b2
00000905
00001d72
00000c8e
ffffeb91
000005c6
00000ec2
00000f8d
fffffa7c
00000f10
00000bff
00002143
fffff64d
fffff970
fffffc0b
fffff9a9
fffff47e
ffffdc47
fffffa61
000004c7
fffff99f
00001906
0000002c
000010b1
00000361
00000aaf
0000039c
000011b3
000000b9
0000066a
000004bd
fffffc46
0000053d
00001ce4
fffffc81
0000056c
00001043
00000ebe
00000027
ffffe12f
000006ae
ffffe34d
00001302
00000231
00000ced
fffff456
ffffebed
0000035f
ffffff91
fffff9a5
00000118
000023c8
00000aca
00000d92
00000ae9
00001321
fffffd8b
ffffe56f
fffffd90
00000a7f
fffff376
fffffdb8
fffff70e
0000136c
000009b1
0000086d
0000080a
ffffff85
0000028e
fffff0ad
ffffe3bb
000001f1
00000430
00000fa3
00001451
0000144d
fffff318
fffffb72
00000636
000020bd
00001323
00000e79
fffffafc
fffff495
00000a33
fffff1c5
fffffceb
fffffe84
00001499
fffffb6a
ffffe076
00000686
fffff6f6
0000008d
fffffee1
fffffc76
00000a38
ffffec2e
fffff951
000008d8
fffff80f
ffffeb33
000008a5
00000e86
ffffff6b
ffffe6a5
00000921
ffffea8a
000003fe
fffff486
fffff101
fffffa49
fffffda1
fffff7ac
0000079d
fffffa3b
00000cac
000003a3
fffff6fb
fffff4ce
ffffeab3
000003c2
fffffb6a
ffffe154
fffff913
fffff45a
00001460
ffffe9fc
ffffed5d
00000e5a
0000118b
fffff65e
fffff7d4
000007f8
ffffe1e9
ffffe7ef
fffffc5f
0000140a
fffffa5e
0000014e
00000ea9
00001b3e
fffff88b
ffffffc8
0000178f
ffffec51
00000d49
fffff2d5
00000153
fffffcdd
fffff39d
fffff34a
00000393
00000cdf
fffffe53
000000e8
00000763
fffff370
00000990
00000a98
000021aa
fffffb23
fffffa14
000009f1
00000a97
fffff915
fffffaca
000006ff
fffff54d
fffffab1
00000129
00000ce1
fffff82f
ffffe82e
ffffe738
ffffefb7
ffffef05
fffffe00
fffff0a1
fffff6ea
fffff5fe
fffffa4e
0000111a
0000088f
00000035
fffffa0a
fffffa66
0000043d
0000078e
fffff444
00000079
ffffe5bb
000002bd
000009db
fffffc61
0000177d
fffff49b
000002d0
ffffff89
fffffeb4
fffffe86
00000163
00000af7
000011d0
fffffff9
00000a8b
fffff6ed
000009e7
fffff626
00000e1a
00001c95
fffffe6c
ffffe3a7
fffff8ea
00000fee
00000727
00000338
00000d0b
00000644
00000fbf
00000be3
000013ad
000004a4
00000bb4
fffffc07
fffff839
00001612
000002cc
00000a68
0000019a
fffff86b
00000024
00001291
0000072e
ffffe9df
fffffd38
0000170c
fffffd3c
ffffe8b8
0000187a
000008d3
ffffff18
fffffb33
00000dff
fffff8fe
00000ed9
00000703
0000032a
000001e2
fffffdbd
00000d85
fffff4d0
ffffeb07
000007f2
00000829
00000636
00000546
fffffbdb
00000a2f
ffffff69
fffff9b4
fffffbf8
00001a20
ffffe991
00000676
ffffea4a
fffffe9a
fffffa65
ffffe50a
00000508
fffffb16
ffffe4db
00000adb
0000128e
00001344
000004a4
00000098
0000112c
000015c1
00000ea8
fffff3d3
0000029a
000005af
ffffe89a
00000612
00001d64
00000846
0000130d
0000025d
ffffff0e
000004ee
fffff574
fffff38a
00001060
000011bf
fffff32f
00000c84
fffffee0
00000465
000005f3
00000cdb
00000112
0000123c
00000400
00000812
fffff53a
00001be9
00000613
00000938
ffffeb35
fffff55d
00001001
000003b6
ffffe741
00000d6d
fffff8f8
00001240
fffffedd
000002a6
00000f3e
fffff465
fffff32a
fffffd76
00000ab2
ffffeecb
ffffea6f
00000aa7
fffff834
fffffaee
ffffe7fe
fffff739
ffffffe7
00000c08
fffff607
0000156e
fffff726
fffff72b
000013e1
000002bc
fffff8dd
fffffdfe
0000117f
000012f5
fffff570
ffffff74
0000012a
fffff33f
ffffff48
00000012
00000ebe
00000f9d
fffffbbe
fffffd3c
00000897
fffff86f
0000079c
fffffedd
fffff377
fffff3a1
000012b6
fffffdfa
00001536
fffff95c
000003c4
00001ef0
fffff254
ffffe776
000010a3
fffff54f
ffffffbb
fffff86d
00000378
fffff3b6
fffffdac
000005d1
fffff2f6
fffff6f3
fffffb82
ffffed87
fffffa89
00000189
fffffad5
fffffc7e
ffffffbe
fffff785
000008ef
00001291
fffff9ff
00000646
fffffce7
000004ba
0000143f
00000694
ffffe912
000005df
00000ff1
fffffd23
00000ce0
fffff714
ffffeccb
000001d3
ffffe94a
fffffce6
000010a4
ffffe74f
ffffef75
fffff2a8
ffffff2e
fffffb45
00001217
00000c57
00000667
000001e2
00000516
fffff4db
00000b15
fffff19f
00000acd
00000f56
000002ba
fffffdb9
0000052d
ffffdb00
000003e8
fffffe89
ffffff58
00000923
ffffff09
fffff142
fffffe2c
000000e0
0000017c
00000218
00000d70
fffff1f5
00000246
000010ae
ffffe992
00000253
fffff86e
fffffb35
fffff44d
fffffdcf
000017cf
ffffefa7
fffff0e1
ffffef2b
00001656
fffffa06
ffffffab
fffffacb
fffff3ca
fffffcf6
00001fc9
00001200
fffff4f9
00000860
fffff540
ffffe908
00000d2f
00000f00
00000d87
fffff9ed
fffffdd8
000009b2
00000510
fffffae9
ffffeb11
00000179
00000df4
fffff084
00000842
00000449
000009b3
00000b46
fffff705
ffffeb18
fffff91a
00000b7f
fffff8fe
fffff707
ffffe873
000016a9
00000aad
000009f4
00000c83
00000775
fffffcd7
fffffde2
fffffa79
00002211
00000730
fffffa01
00000605
fffff2ee
00001374
fffff774
0000067b
00000dc8
000004fa
00000139
00000024
ffffff45
fffff88b
fffffa30
00001322
fffffe99
fffff5d7
fffff953
00000e3a
000008bc
0000073f
fffffcac
0000076a
fffff7ae
fffffca5
00000c8a
00000b4e
fffff34e
fffff4f0
00000168
00001652
ffffe73b
00000399
ffffee35
fffff7cc
fffffb4a
fffffa90
fffff919
00000018
fffff914
ffffed17
00000a15
000009bc
00000ae7
ffffec14
000003dd
000008be
fffff2ab
0000001e
fffffe7f
000017d2
000018e2
ffffea7b
0000203f
fffff42b
00000cae
00000c8c
fffff320
00000661
fffffe9c
0000072b
000002fc
00000f78
000000fa
fffffdd4
00000e2c
00000781
00000976
fffff768
fffff27c
fffff8a9
fffff7f9
00000a2a
00000c9f
fffffdff
00001280
000011b2
00000326
fffff55f
0000145f
ffffff36
000001a2
fffffb9c
fffff47f
ffffed03
0000082f
fffff5df
0000278f
fffff1f5
ffffefbe
00000699
000013c6
000000d6
00000766
ffffe82a
fffff73d
fffff21e
ffffe77f
00000183
ffffe300
ffffeee7
fffff90e
fffff540
00000520
000003f3
00000b8f
000009ba
00000ec0
fffffffa
000003ec
0000069d
000001d5
fffffadd
fffffbb4
fffff56e
00000574
fffffec9
fffff76d
fffff770
fffff059
00000ca8
00000104
fffff4d8
00000a74
fffff8c1
ffffedd0
00000d34
fffff90e
fffffab7
00000088
00000ec6
00000042
fffff07f
00000708
fffff9bb
00001869
fffffffc
ffffe31a
0000049f
00001925
00001460
000017ad
fffff2d1
00000bcb
fffff6aa
000002e6
ffffef8a
fffff7ab
fffff742
00000b9e
00000a5a
00000394
ffffee8a
fffffbf8
fffff65a
00000b3f
00000f3c
00000da9
fffff63c
ffffdc94
ffffe927
00001262
fffffad0
fffff64b
0000153d
0000105c
00000051
fffffc35
fffffe4b
000002f0
000014b0
00000576
00000963
00000f1e
fffff0e0
000009c3
fffffc31
ffffdf78
ffffe47c
fffff2d6
000006de
00000179
00000262
0000193a
ffffef97
ffffffa5
000003f0
fffff67b
0000005e
ffffeb50
0000123b
fffff730
00001a44
ffffff95
00000d4b
ffffff50
ffffff9a
fffff873
0000018a
0000041d
fffff5dc
fffffe62
fffff81d
00001dbc
fffffed7
000013fb
fffffd78
0000035a
ffffeeea
fffffa38
000002b9
00001482
000002df
000011e4
00000849
0000150b
ffffff3d
00001ee8
fffff9b9
fffff617
fffff05b
00001e24
00000a98
fffffbae
00001026
000008e4
0000196c
ffffebfd
fffffc92
fffffa05
ffffe67b
00000db6
fffffc81
00000990
00001e83
fffffb6f
fffffa8e
00000189
00000cc4
fffff8ac
fffff7d7
00000dab
000004e5
ffffe590
fffff028
00001369
00000532
fffff625
fffffdcc
0000002c
00000983
ffffee70
fffff520
00000388
fffffeb6
00000765
fffff01a
0000049e
00000e1d
0000064b
000001cc
fffffec3
fffff535
ffffff12
0000104a
fffffe76
fffff47f
fffff9a3
00000299
fffffb2c
00000646
000006c3
00000b7f
00001268
00000ce0
fffff3ec
fffff451
ffffff05
fffffa2b
fffff148
fffffa4a
fffff9dd
fffff750
fffffbeb
00000f3d
00000293
00001ff6
00000234
fffffc40
0000000e
00000351
000005a1
00001ada
fffff512
00000b1c
000002b0
ffffebb0
000009f7
00001064
fffff4eb
ffffffe2
ffffe9b1
ffffefb9
00000d8d
fffff9f8
fffff1aa
000002f8
fffff93f
fffff9ea
0000098f
fffff0fb
fffff44b
000001fe
00000c89
00001002
fffff767
00000c1f
fffff5dc
0000179d
fffff157
0000112d
fffff783
00001a08
000007a5
fffff2dd
fffff93f
00000a1a
00000d9c
ffffff16
00000094
000009ce
000001b4
ffffef46
fffff57d
0000030a
00000fb7
000014e5
00000a14
000003b7
000009af
fffff761
fffffe05
fffff558
ffffefdb
00000450
00000266
000008e4
00000710
00000323
00000732
ffffff73
00000557
fffff69c
000004c8
000008a5
fffff757
000000ac
fffff7f0
fffff931
fffff174
0000105e
00000dc7
000006f3
00001980
fffffd8e
00002733
fffffd0f
0000034d
fffffadb
000004d0
00000ace
fffffe87
000016f9
00000318
0000037f
fffff43f
00000569
fffffe44
fffff823
fffff5f6
0000228c
fffffc98
ffffed29
fffff6f9
ffffff55
00000712
0000072c
000008c0
fffff7a9
00000467
fffff4ac
fffff7fd
fffff422
fffff0a2
00000dc3
000008e7
00000ca1
00000082
00000a0b
ffffe93a
00000b29
0000024a
0000081c
000004ea
fffff33d
ffffeca1
fffff6cb
0000074e
000008ec
ffffee50
fffff350
fffff6a6
fffffb61
ffffee64
ffffed9d
fffff560
0000011e
fffff0bc
fffffe81
00000db0
ffffef2b
fffffd55
00000d40
fffffa98
fffff895
00000f0b
fffffc0a
00000e48
0000058c
fffffb91
00000634
00000425
00000d33
fffff8e9
00000088
ffffff34
0000091b
fffff2bf
00000d26
00000608
ffffeef9
00000f9f
00001ce3
00000cf4
00001273
0000011b
ffffea84
ffffe828
0000034c
fffff859
fffff42d
ffffff30
000007f6
ffffed37
fffffa32
00001386
fffff219
00000b3f
fffff9bc
0000070f
00000e30
00000996
00000bc1
fffff11c
00000e66
fffff4fa
0000035b
00000357
00000646
0000045b
fffff517
ffffee8c
00000b48
00000267
00000edd
ffffff6c
ffffedd5
00000c7e
fffffb36
0000046c
fffff7a1
00001543
fffff4ab
fffffba3
00000164
fffff1e1
00000446
000014d8
fffff9a9
0000051c
ffffdc73
ffffff7f
fffffbf4
fffff56b
00000dfc
fffffbc8
fffffdb5
fffffb1f
ffffe737
fffff15d
00000c6d
ffffe4b8
fffff617
fffffad5
0000168c
000009f0
fffff8cc
000010de
fffff66d
00000d0c
ffffee6e
00000de1
fffffac0
fffff2b4
fffffd31
00000396
fffff99a
0000072a
fffff876
00000805
000005b8
ffffff36
fffffa4b
000001f6
0000071d
00001aa9
00000c26
00000c9f
000027ef
000006ac
00000644
0000091a
fffff2f4
fffffa43
fffff975
00000860
fffffdbf
000001ca
00000e10
00000b29
fffffde9
fffff756
00000eae
00000a02
ffffeb3b
fffffbf3
00000224
00000a12
00000bc4
000003ac
00000791
000000d4
fffff74a
fffffc9f
0000003f
ffffff8d
ffffe79f
fffffadc
000000ba
fffffc5d
fffffccf
0000064f
fffff20d
ffffeaf3
fffffb80
000009e1
000015d2
00000a1d
ffffed04
fffffcff
00000351
0000024c
000006f9
fffff425
000000d7
0000056f
00000aad
fffff595
fffffb8a
ffffdd0a
fffff7f7
fffff938
fffff2d1
00000224
ffffff47
ffffe2ca
000002c9
fffff3ff
00000648
ffffef6d
00000063
fffffc57
000003eb
0000019d
fffffcb3
ffffec23
ffffece6
fffff873
ffffffe5
fffff823
00000815
fffffc64
fffff386
fffffc67
000002ec
00000433
0000184a
fffff75a
ffffff0d
00000582
ffffffb2
fffff987
ffffebf8
fffff965
fffff21e
ffffe9ad
fffff5b6
fffff276
0000078c
000007c6
fffff450
fffffca3
ffffe7f9
fffff99c
00000529
00000aab
fffff6c8
00000d9a
ffffec67
ffffefde
0000092d
0000159c
00000661
ffffff7a
ffffe39e
ffffe5da
000001ac
fffffb5f
fffff1b4
000000d9
0000017d
00000c36
000001c4
00000fe2
0000001a
fffffe82
00000dc3
fffff359
00002464
000004da
000004ed
000006ca
00001845
00000a3f
ffffeb3f
00001226
fffffb98
00000163
ffffef76
000006ce
fffff794
0000014c
fffffc54
000018e4
000019a1
0000009a
000000d4
fffffb2c
00000e4d
fffffbbf
fffffa8d
00000ca7
fffff90a
ffffff83
ffffeb8e
0000091b
00001918
00000953
000012e7
fffff50f
0000030e
fffff3ce
fffffd0e
000009fc
00000151
ffffedbc
ffffeeff
ffffee24
0000065b
00001ab0
0000119e
ffffe77c
00001260
00000c1c
ffffec05
fffffc14
00000e2a
0000071e
ffffef13
000007e6
ffffe45d
fffffd1e
00000eb7
0000003d
fffff98c
00000b80
00000c9a
000010f0
00000b4e
00000dfb
0000097a
0000036f
00000128
fffffcef
fffff053
fffff3a6
fffffc5b
0000031f
000012a1
ffffff76
00000cfa
00000df5
fffffd02
000007b0
fffffcda
00001118
00000839
fffff09b
00000217
0000154f
fffffda8
000005ca
0000070f
fffff299
0000069a
ffffedfa
fffff7e9
00000de9
0000049d
fffffc10
000005c6
ffffff39
0000002a
0000087e
fffff698
00000086
fffffbf6
ffffeb80
fffff419
00001447
000004f9
ffffeee3
ffffec15
fffffe8d
00001430
fffffd96
000010e6
0000048d
00000618
ffffeebb
00000c1f
fffffbab
00000b29
fffff579
0000024a
0000048d
fffffe02
0000053b
fffffc8e
fffff79c
000014c2
00000d90
fffff629
0000075a
fffff666
fffff0af
00000d5e
ffffe9f7
00000bfc
fffffcbb
fffffd44
0000054c
00000784
fffff551
00000948
00000177
ffffefc2
fffffdce
000011dc
000015ae
00000946
fffff09c
00000658
00000b00
00000962
00000a26
000004b2
ffffff10
fffff822
ffffe776
00000464
00000268
00000736
ffffeeb5
00000857
00001a91
00000104
ffffff34
000003ff
00001a47
fffff2c4
000002a1
fffff5a9
fffff8ed
ffffff5c
0000116c
00001749
000005cb
fffffb21
0000203b
fffffa79
fffff89e
ffffe90d
0000120d
00000c85
00001f43
ffffee09
000012db
000000e8
00000a6c
ffffeab2
000012fb
00000a2b
ffffff7f
00000857
fffff61a
fffff882
fffffa02
ffffe80b
00000b24
00000f68
fffff6ef
00000481
fffffc91
0000043f
fffff7e3
fffff494
00000d9a
ffffff2d
00001a25
00000099
fffff407
00000fdd
00000828
00000966
00000f65
fffff78f
fffffe5b
fffffdc8
ffffef50
fffffc97
00001148
00000312
ffffee98
ffffebe2
00001587
fffffed5
fffff7a1
fffffc75
ffffece6
00001267
fffffaeb
000011ae
000000ab
0000127c
00000352
00000b08
0000094c
0000080f
00000480
fffffcfd
000018c4
fffff446
0000000e
00000031
00000534
fffffa72
00000412
fffffdd1
ffffeb8c
00000020
fffff1c5
ffffe993
000001c5
0000064f
000006cf
00000755
ffffe703
ffffee67
00001984
fffff276
000007e6
fffff71e
00000108
fffff7d0
00000743
000001c5
fffffa34
fffff26c
00000376
fffff052
00000587
000021f6
00001175
0000094a
fffffee5
ffffe6ef
ffffeee7
00001096
fffff5ca
fffff6f5
fffffddc
fffff245
fffff023
ffffff59
fffff479
fffff66b
fffff5e6
000006c1
fffffd00
fffffdb1
000007b8
fffffe2a
fffffc67
00000615
000008a4
fffffe19
0000010b
fffff5e4
fffff4df
000009f2
000005c1
000005e3
000003a2
00000099
00000901
00000c17
00000bc8
fffffeb2
000011ef
000002f4
0000082d
000003a6
00000332
fffff67d
00000912
000024ca
fffffb27
000000eb
fffffa3b
fffff9b1
000013f8
fffff74c
fffff9df
ffffeb79
fffff634
ffffe9e9
0000082b
00002433
fffffb42
ffffea73
00000ba3
fffff69a
000010cd
fffffc5a
fffff7d5
fffffdb3
000009cc
fffffd0f
fffff994
fffffd6e
ffffef8e
00000522
ffffe8e6
fffffa42
000009d2
000003eb
000007a2
ffffff29
00000f20
00000bf5
000005c5
00000bfe
000009b4
fffffa51
ffffeea0
0000056f
00000710
00000e1a
fffff3e5
fffff448
000005f2
ffffff14
ffffe79e
000004da
ffffe80c
fffff3c7
0000117a
00001798
fffff048
fffffbbe
0000008d
00001708
fffff9a1
fffff9d5
00001406
fffffb27
00000957
ffffece7
fffffdc9
ffffea8b
fffff25a
00000ada
ffffff5b
fffffbe0
fffff652
fffffd26
000003e5
00000cb6
ffffde0f
fffff53f
0000020f
fffffeb9
00000537
00000376
fffffc0f
fffff930
fffffcd3
00000eda
fffff689
ffffff30
0000025f
0000142d
fffffc1e
00000c66
00000fee
ffffff2d
fffffd47
fffffbbf
fffffcb1
00000b0c
000002fd
0000030b
fffff173
fffff37e
00001bb7
fffffdb3
fffff5fb
00001281
000003a5
0000077a
fffffe37
fffffbe1
fffffdcf
ffffee1f
fffffedd
000003d4
000017ed
0000011d
ffffe1d2
fffffec9
0000236c
00000b34
fffff584
000007a5
fffff668
ffffee7f
fffffb7f
0000012f
ffffe7cb
fffff124
00000022
fffffab9
0000051b
fffff04b
0000093c
fffff0b2
0000153e
ffffe9d1
fffff1e0
00000566
00001585
00000413
00000747
0000003a
fffff2bb
fffff9aa
fffff054
ffffef77
00000532
fffff17a
00000422
ffffef2b
000003d5
fffff9ae
00001230
00000430
00000ffb
fffff63b
000000ba
fffff351
fffffaa7
fffffc9c
fffff69d
fffff049
ffffedb9
ffffe1bf
fffff257
0000081d
ffffeb55
ffffee4f
00001728
fffff7c5
00000427
0000084e
00000891
ffffec51
fffffd03
ffffeb14
00001fa1
ffffeb61
fffff274
fffff28c
ffffeca6
0000117d
00001f52
fffff9d9
ffffeeed
ffffe314
fffffcd8
fffffbe9
fffff794
000002dd
0000051c
0000042d
fffffbea
fffff1c2
0000089c
00000029
00000b7d
00000a37
ffffed9e
ffffed75
fffff63b
fffff258
000009c4
0000048b
00000e36
00000520
000002b3
00000f83
00000613
000000e1
00001324
0000017d
fffffc11
fffff52b
00000917
00000fff
ffffff59
000010e9
ffffe687
ffffff48
ffffff7b
fffff69a
00001ed3
ffffff25
fffffaba
00000056
ffffe61b
fffff62d
00000cb7
fffff7de
fffff548
000010ef
00001154
000006af
fffffa1e
fffffce7
fffff59a
fffff323
fffff27f
fffff802
fffff29f
ffffebc8
000002d6
00000309
000015fe
fffff75c
000003d4
0000040b
fffffcb8
000009a0
00000a06
0000043c
fffffcb2
fffffb61
ffffee51
fffff594
fffff7f5
fffff178
000005b0
00000f79
fffff442
000003aa
fffff2a1
fffffc0f
fffff713
000007c8
fffff739
00000d15
fffffcd3
fffff79a
ffffefcb
00000346
00000b93
00000389
00001cf3
0000127d
fffffc06
fffffbe3
00000613
fffff52a
00000f14
000004ad
00000351
000008e2
00001647
00000236
fffffe8a
00001382
00000c83
fffffbda
00000011
00000287
000004ae
ffffee76
ffffec0e
fffff487
fffff387
fffff7ad
00000835
fffffdd1
0000028a
fffff02b
fffffa08
00000798
000007b1
fffff6a2
00000217
00001c6e
ffffffc6
fffff70a
fffffdc1
00000131
fffffe0c
ffffff98
ffffed56
fffff38e
fffffe12
fffffddd
fffff8ae
fffffdb6
000000ca
00000b80
fffffeb8
00000529
fffff8ff
00000766
000004dc
00000b32
0000093a
0000079d
fffffeba
0000032b
00000dc0
fffff792
fffff7e0
00000259
0000055f
fffff558
ffffff09
fffffec9
ffffe35b
fffffd29
fffffdf7
fffffded
0000124f
fffff048
fffff556
ffffde39
fffff9c8
fffffae2
fffff968
00000e52
00000b21
00000102
fffffb35
00000d45
ffffffbf
fffff56b
ffffe9cf
fffffa4b
000009c2
00001d6f
000000cc
fffff61b
fffff0ae
00000723
ffffe92f
0000071e
00000a93
000005a4
fffffd29
0000074e
00000236
fffff5f0
000017ed
fffffb74
00000a08
ffffe0ba
00001081
000012fe
00000063
0000073a
00000739
fffff7b0
00000713
fffff58b
fffff821
00000e92
00000c9a
fffff6de
fffff684
fffff7a7
00000979
fffff312
0000049d
000009a8
fffffedc
00000d0f
fffffc11
fffffd3c
fffff35d
00000d27
fffff617
00000486
ffffff14
fffff263
fffff820
000011e1
0000029c
fffff2f4
000003f3
fffffe1c
00002ca9
000003b0
fffffb14
0000125c
ffffe832
00000138
000019ca
fffffe7f
ffffe997
fffffae1
000012cf
000004dd
fffff527
fffff724
fffff8c3
000004ac
0000114e
00000d9c
000005e5
ffffeec8
ffffeed4
000006e5
ffffee9a
fffffd15
000003ef
fffff14a
fffff2c2
fffffec8
00000683
00000dba
000007d9
000000f4
fffff65a
fffff227
fffff965
0000054d
0000045a
ffffe4d9
fffff5d7
00000f93
00000106
ffffedae
00001e76
ffffffa0
000004f8
0000052a
fffffb3f
fffff698
00001b6f
00000cf9
00000aa1
00000774
fffff307
00001085
fffff519
000003aa
ffffeace
ffffe59d
0000041e
fffff58a
ffffe648
000006fd
00001b6a
000011f8
fffffcac
0000001d
00000b7a
00000e82
fffffb8f
00000071
000003e3
00000729
fffffe48
fffffe73
000011d7
00000fa4
0000062c
0000163a
fffffb01
000014fc
00000704
00002a4b
fffff095
fffff716
0000056a
00000523
00001937
fffff75c
00000bb3
00000f08
0000091c
fffff393
00001234
00000fe5
000007c1
000002a4
000002ec
fffffefb
00000849
00000067
fffff507
fffff271
fffff647
000002df
ffffffa7
000002c9
0000067a
fffff7e4
000012f3
fffffc8a
fffffa65
0000063d
ffffe841
fffff5c7
00000caf
ffffe989
00000e73
0000138a
fffffb39
000003c6
00000e78
fffff9f7
00000b38
fffff752
fffff9d3
fffff5aa
0000046e
00000ef9
fffffd9f
ffffef90
fffff200
0000051a
000017d8
00000517
fffffaff
000009e8
fffffce7
fffffb1c
fffff39b
00001236
ffffdf2b
00000a51
fffffa01
fffffab2
000015e2
fffff6c4
fffff735
fffffe50
0000055a
fffffa49
ffffeba6
fffff4ce
00001091
000000f8
000005d5
fffffc9f
fffff779
000015b1
fffffd91
fffffa44
00000e2c
fffff6a9
fffff84f
00000022
00000001
0000035b
00001b0c
00000459
ffffe140
00000438
0000007d
00000090
0000032e
ffffffa1
ffffff52
000007ed
fffff8fe
fffff3bf
00002719
fffff6be
0000014b
ffffeca9
00000182
fffff3ef
fffffa47
00000d83
0000061a
00000759
ffffe919
000017c0
fffff097
000013c4
00000d35
00000777
fffff4f2
000001f6
fffff9e9
00000060
fffffcc5
ffffe5a4
00000e81
fffffef4
fffff9bb
fffff8c1
000004a3
fffff472
ffffe2d7
00000544
000006b6
fffffd6b
fffff128
00000126
ffffed10
fffff2b8
fffff64b
00000ae9
fffffb50
fffffa36
00001946
0000048f
00000462
fffffb38
fffff84a
ffffe3bb
00000c87
000005cc
fffffdaf
fffffe3a
00000985
ffffebe6
fffff85f
fffff14f
000016e8
00000b52
ffffe385
ffffec6d
fffffe4a
fffff9e4
ffffeee0
00001925
0000040b
00000624
fffff70d
00000957
fffffb15
fffffc56
000007e6
ffffeaf0
000014a6
0000025c
00001090
fffff218
fffff410
fffff0fa
0000033d
000000da
fffff9ff
fffff2e3
ffffef9f
ffffff60
fffff9fb
fffff723
00001401
fffffeef
0000106c
fffff91b
0000032a
ffffff48
ffffea0d
00001278
fffffe41
000009a7
fffff647
fffffdde
fffff4cb
00000ffb
00000407
000004bf
00001190
00000ef4
000009e5
ffffed9e
fffff701
fffff305
00000968
00000235
ffffee05
fffffd8f
ffffecae
ffffff50
ffffea99
000006d6
000004e3
000018ab
00000af7
fffffa88
00000a94
ffffedee
fffff38e
0000044f
ffffe418
ffffff85
fffff2cf
0000014f
fffff211
0000057c
00000040
0000121b
00000016
fffff610
fffffccf
ffffee9e
00000540
000007a0
00001fed
fffff7f6
fffffc8a
fffff88e
000002be
000004ef
ffffff4f
00000e0c
fffff806
00000cc0
000006f6
ffffffd8
fffffbee
00001f60
fffff570
000003da
fffff64d
00001717
00000b77
fffff73b
000006a1
00000355
fffff952
000009ce
00000509
000002ca
ffffff75
00000593
000002f7
000000c4
fffff7b6
000015e6
fffff26b
00000588
fffffbdc
000016c0
fffff451
fffff67e
fffff376
0000042f
ffffee3f
fffff9d0
ffffe42c
0000031c
fffff988
ffffecc2
00000e09
ffffef18
00000a4e
fffff6f0
000014b5
000009b1
fffff2f7
fffff424
000007d4
fffffc9c
fffffdcf
00001073
fffff652
0000012e
00000c58
00000a76
fffffdf0
fffffc44
ffffe984
fffff258
0000041e
fffffe38
000000f8
00000d70
fffff0a6
fffffcf2
00000271
fffff6e5
00001282
00000bbf
000003c0
00001733
ffffec9f
ffffffe6
000004bd
fffff42d
000003e3
fffff1b1
000008ee
00000dae
00000385
ffffe80b
fffff380
0000074d
00000046
ffffdd2b
00001012
000001c4
fffff569
00000cdd
fffff73d
fffff719
000004a2
00001707
000014fe
000004a7
000005fb
00000a3c
ffffefbf
00000854
fffff682
0000041e
fffffd0f
0000067b
00000187
ffffd844
00000250
0000084e
000005c4
fffffeac
0000153c
00000407
000005a9
00000d81
000004b0
fffff464
ffffe079
fffff9d5
000009d7
fffffb6f
00000a5c
000001ec
000010a8
fffffc2f
0000060c
0000068b
0000136a
ffffe9ef
fffffa13
00000af9
000013fd
0000031b
fffffc37
000009ca
00000b3b
fffffb59
00000445
00000f44
00001872
0000099a
00000092
ffffff4d
00000735
fffffe81
00000274
fffff252
000010c5
fffff142
fffffa6a
00000143
000019be
fffffa89
fffff763
fffff8e1
00001573
ffffdba3
fffff309
00002351
000007a4
fffff1b3
ffffff75
000000df
00000af1
000017c9
00000506
fffff905
00000a2d
fffff6f9
fffff2a4
ffffe93f
ffffebc3
fffff469
fffff0c5
0000040d
fffff07e
ffffd75a
fffff281
fffff9e6
fffff82c
000013a6
fffff811
00000b64
ffffffc1
ffffff74
fffff533
ffffff3d
fffff61b
00000233
fffffcf2
fffff3c9
00000cd3
00000585
fffffa35
000001e2
fffffeeb
fffff4c8
000000e9
fffff7f8
fffff3c8
ffffeb05
fffffb5d
00000755
fffff705
00002098
00000b74
000010dd
00000a48
000017f5
fffff5d3
ffffdee4
fffffa3b
00000738
000001f6
00000390
00001114
000004f1
00000a54
fffff3da
fffff1d6
000014df
0000014e
fffff7f1
fffff7f7
fffff79b
fffff6d5
ffffef69
ffffec9a
fffffd7b
fffff855
00000e51
000003ca
0000036e
fffff664
fffffe6f
000004ab
00000943
fffffec9
00000df4
0000001a
00000a40
fffff9ab
ffffe890
00000378
00000961
00000770
00000575
fffffb7e
fffff592
00000722
00000584
fffff8bf
00000e58
fffff496
fffff874
00001529
00000b3b
fffffb5f
000003b7
00000200
ffffdc80
fffff448
ffffff58
fffffb64
00000332
00000e9b
fffffbd8
fffff253
00000433
fffffbc7
fffffdfb
fffffc3a
00001cfd
ffffe307
fffffafb
fffffff4
fffff5e6
00000ba2
00000a84
ffffff62
fffffc80
fffffe8d
fffffea5
fffffefd
fffffd92
00000344
000009bd
fffff018
fffff26a
ffffe964
00000b34
0000033d
00000688
ffffed84
00001714
fffff821
0000022d
00000b0c
fffff33d
fffff8f0
00000251
000024f2
000003e5
000014c5
00000f97
000004c2
fffff336
00000db4
ffffeca1
000014b3
00000296
ffffddbc
fffffb99
00000875
fffffcef
0000093f
fffff502
ffffef1d
ffffff14
00000068
fffffb7f
00000fde
fffff502
0000040d
000000e1
ffffebdf
ffffeef2
00000027
0000199e
0000077d
ffffe9b0
ffffd7c8
0000097a
fffffec2
00000ec2
fffff49d
00000487
00000af1
fffffa37
fffffa7e
00000054
00000704
ffffffd1
00000c98
fffffa07
ffffeed3
00001990
fffff82f
fffff8a6
ffffff26
000000de
fffffb00
ffffffc6
ffffff7c
00000243
ffffe185
00001852
fffffe18
00000782
ffffee2e
fffff9e9
fffff74f
00001301
fffff86d
000009cd
fffff797
fffffa26
fffffcd3
0000109a
ffffe790
ffffeefd
ffffe6d2
fffff1f0
fffff582
ffffeb20
fffff682
ffffe5f3
fffff2d6
00000f85
00000538
0000026d
fffff309
ffffec23
fffff145
ffffff71
00000b3a
00000bab
00000827
fffff677
00000051
fffffbd8
fffffd66
00001a57
ffffe938
fffffcf7
00000fab
ffffed0c
fffff7ad
fffff929
fffffd1d
ffffeb5d
000007b2
0000089d
00000693
fffff4bf
0000011e
fffff45f
fffffbb3
00001bd8
0000013d
fffff0a5
00000255
ffffee85
fffff07f
fffff28a
fffffa41
00000c1d
0000077b
000006c3
fffff1ca
fffff900
00000384
fffff7e0
fffffc67
000005b5
fffffb7e
000002ec
00001498
fffffdc7
00000f40
0000073c
ffffed07
fffff1c0
fffff539
fffff4f2
fffffed5
000007f3
0000103b
000003fc
fffffa3d
ffffe514
000000ea
00000055
0000025e
00001b3c
0000100a
00000a27
fffff38f
fffff95e
fffffec6
fffff5f9
00000679
0000049d
fffff1ee
00000f7a
00000153
ffffe9a5
ffffff56
000003a3
00000c94
fffffba3
00000ab5
0000026b
ffffeeff
ffffedb4
00000e84
00000f77
0000042d
00001357
00000da9
000008d7
fffff437
00001663
000006ef
fffffb03
fffff75c
00000352
ffffea65
0000090c
fffff3ac
000004cb
fffff941
fffffc95
fffff637
fffffdea
0000186e
000011e9
00000495
ffffffac
00000aea
00000e9c
fffff545
ffffff00
ffffe871
00000e86
00001ab3
00000109
ffffe486
000007df
fffff44f
fffff76c
0000081a
0000034b
fffff9b0
fffff79a
000001a1
fffffab5
fffff1a8
fffffbb3
00000464
fffffdb2
ffffedb9
00000cca
ffffdc96
fffffa3b
fffff7fb
000001ea
00000743
00000e92
fffff6ca
00000796
00000288
ffffe9df
00001893
ffffed66
0000056d
0000050b
00000390
fffff99b
00000ab2
ffffebd3
ffffff26
fffff8b6
fffff73e
0000058b
00000def
fffffb90
00000a18
000000a5
fffff475
fffffcaa
fffffc21
fffff6fe
0000058a
00000309
ffffeb6f
ffffeaa5
0000057e
fffff575
000003e8
00000a19
ffffef91
ffffedc0
000015a6
0000048c
fffffa94
fffff3ed
fffff966
fffff09b
00000b6c
fffff5f5
00000e24
fffffad2
fffff282
fffffa7d
ffffde12
fffffe70
fffffdcd
00000aaa
ffffe79c
00000f06
00000a9c
00001030
ffffff51
00000d1c
ffffecfa
00000938
fffff607
ffffeaa6
fffff177
00000012
fffff558
000004dd
ffffe89f
ffffe47f
000011bf
00000bb0
fffff26f
fffffff6
00000d2f
0000056c
000001eb
00000e29
fffff68d
00000067
ffffffc5
fffffc79
fffffaf6
000000f1
00000072
fffff272
00000a5e
fffff360
fffffd2e
fffffc2f
000004a1
ffffe49a
00000b85
fffff73f
00000fc6
fffff9d1
ffffff5e
000018bf
fffffc6a
00001005
00000081
0000055f
000000e8
00000af6
fffff723
fffff347
fffff7be
0000014a
fffffd25
0000092f
000010df
fffff362
fffff683
ffffed6e
00001a41
000003f0
00000634
ffffeeac
fffffffc
00000696
fffffcbb
00000de9
00001de4
fffff3c1
fffff2c9
fffff4a7
000014c5
00000d7a
fffffe3f
00000079
fffff571
00000b82
fffffb16
fffffca3
000007df
fffffd92
fffffcf6
00000023
00000a49
0000154a
00000792
00000a63
fffffd6a
fffff6d9
00000875
00000237
ffffed9b
fffffbc2
fffffeee
fffff966
00001329
00000634
000011c1
00000368
0000010d
fffff3e4
00000027
0000002b
ffffee53
fffff906
fffffbd2
00000559
000005f7
fffff87c
00000610
fffffda5
ffffdae5
fffff9bc
00000df4
ffffea41
00000175
0000147f
fffff62a
00000007
ffffef24
0000150a
fffffeec
0000009a
00001183
0000088e
fffff4ae
fffff7a1
00000666
fffff7ee
ffffe4a0
ffffff50
ffffecdc
000014e6
00000249
fffff44c
fffff6f7
ffffe792
fffff1c9
00000d24
00001cdb
00000964
fffffecf
fffffa6a
fffff3a2
00001aa2
fffffd8f
00001b5b
00001205
ffffe97e
fffff764
fffff759
fffffef8
ffffff38
000026be
fffff212
000002f6
000007f9
fffffffb
0000016d
fffff27e
00000160
0000069d
0000043c
0000075f
00001244
00000c1d
000000ec
fffff0d9
fffff83e
fffffd29
00000343
fffff9d1
fffff3e7
fffff0a3
ffffeaa6
fffffcf6
ffffecff
fffff310
fffffae8
ffffeeba
000004e9
00000992
fffff8e5
fffffa59
000006f3
fffff6c5
fffff5e1
00000f78
00000b6f
000007c7
00000bf8
ffffe66f
00001181
00000512
00000d12
00000502
000000a2
fffffc71
000004bf
fffffbf8
00000b39
ffffeb7d
fffff8ff
00001a71
fffff7e8
fffffcea
fffff497
00000458
fffff67b
fffffd9a
00000afa
fffff6f7
00000a32
00000aa2
00000da4
000001d1
000029e9
00000da3
00000433
fffff4ad
fffffebf
00001271
0000161b
0000131d
00000a27
ffffefc4
0000064d
ffffeff3
ffffecc4
00000318
000006c4
00000bae
0000066e
000006e0
fffff345
fffffea5
ffffec83
ffffe619
00000994
fffff643
00000b48
00000e55
fffff7fe
000007a2
fffff774
ffffe822
00000198
fffff9e9
fffffa4f
0000198b
ffffec45
000004f3
fffff323
00000bbe
000003dc
000004e8
fffff3c8
fffff61a
00000bfd
000016e5
00000636
fffff465
00000462
00001f63
00000153
000012e7
fffff66d
ffffff75
00000803
00000523
fffff617
fffff588
00000cc7
00000f68
0000138d
00001753
000001be
fffffbfa
00001178
00000938
fffff34c
fffff2a3
0000065c
fffffdb5
ffffffa9
00000dde
000009d0
00001132
ffffe706
00000347
000008fb
ffffec43
fffff788
fffff522
00000048
0000150c
00001a27
fffff579
000006cf
0000073a
00000503
00000529
000003ed
000015d2
00000e41
fffff24b
00000a4a
00000b8a
00000413
00000ea1
0000026f
00000298
00000191
ffffe5e7
fffffef6
fffff75c
fffff0a9
0000128b
00000685
ffffff9d
fffff8b2
000003d4
00000cd2
fffff54f
fffffff0
00000b39
ffffe6f8
ffffff41
fffffa73
fffffe45
fffff984
000001c8
000018df
fffffbd0
000003c6
000019cb
fffff8e3
00001777
00000012
0000170a
000009b3
000003f9
ffffff27
fffff7ee
000000fb
00000b9a
ffffffd5
fffffbe8
fffffcc2
00000cd5
00000fd7
fffff760
fffff75b
000004e8
000013c0
00000ed1
ffffefd0
fffffc96
fffff3f8
fffffc8b
000014bf
ffffed9b
ffffeb11
fffff549
000003b7
00000807
000005a8
00000f34
ffffe934
00000f5d
fffffbf7
00000975
ffffeee3
00000010
0000030e
00000ef2
ffffeb81
00000066
fffff1f8
00000689
00000a0d
000010a5
fffff915
00000bfd
00001199
ffffeac1
000007eb
00000c65
fffffca8
fffff058
00000c31
fffff07e
fffffdb2
ffffff7b
00000940
fffff7e6
fffff726
00000147
00000d03
00001d94
ffffec82
00000414
fffff1f3
00000d2c
fffff3dd
fffff747
fffff861
ffffff04
0000042e
00000641
ffffffed
ffffeece
00000969
ffffff51
00000f05
fffff6d9
ffffeb48
ffffff8f
000010c2
00000215
fffffd6b
fffff4bf
000016ba
fffff2b0
fffff69f
0000075f
ffffe800
0000107b
00000812
00000ba1
00000737
fffffdeb
fffff241
fffffe30
fffff364
00000649
00000a6e
00001318
000004cf
00000bf4
fffffc28
fffff9d1
00000620
fffffb01
0000037b
fffff247
fffff49a
00000837
00000b77
fffff341
000008ac
fffff91d
00000037
00001252
00000a71
00000a4a
000018ae
fffff6e6
fffff341
fffff6aa
fffffcb6
ffffe18e
fffffd51
fffff8f5
00000a22
0000048f
fffff83c
000007a1
0000095a
fffff610
fffff9a0
ffffe33a
fffff1e6
fffff666
000000f5
fffff3c7
fffff95c
fffff028
00000236
00000581
00000534
00000029
ffffec13
fffff7fc
fffffabc
fffffac9
000000f8
0000126f
00000a80
fffff33b
000008c6
00000847
fffff594
00000afa
fffffded
ffffedc5
000005e3
000002ce
fffffd0e
ffffff84
fffff6b4
000007e4
ffffff70
00000227
0000049e
fffff112
fffff470
ffffe36d
0000074d
fffff054
000001b7
000004cc
000007ca
fffff06f
ffffff28
00001599
0000162a
00000cc4
0000045d
fffff301
0000094b
fffffdf5
0000073f
fffff7d1
fffffdc4
0000021f
0000032f
00000662
fffff883
ffffeea2
00001502
00002030
000005c9
ffffeee1
fffff601
00000695
00001157
fffff051
fffffe64
00000289
00000b2e
fffffb8f
ffffebc8
00000808
00000e8b
fffffeef
0000053d
fffff9dd
fffff510
00000d46
00000503
00000657
0000136c
fffff25c
fffff8dd
0000020b
fffff8b4
00000a20
fffffd94
fffff32b
000000da
00000234
00000c16
00000515
000005f6
00000424
fffffd91
fffff6bd
000003bc
fffffbb1
000015d9
0000115b
0000082f
000004e5
fffffedd
ffffefb2
fffffd34
00000150
000002f8
00000612
00000bea
fffff70d
fffff72b
000012c2
000009f8
fffffaf3
fffffe9d
fffffeac
00000069
0000061d
000020c7
00000274
00000891
ffffea32
fffff9bb
00000fe3
00000534
ffffc740
000008b7
000018cd
ffffe631
000013a5
ffffdc29
00000c21
ffffffe3
ffffe19d
000005c5
00000ee1
000004b4
00000790
fffffaad
ffffe7ef
000008f2
000016a0
00000e9b
ffffe64c
ffffec6a
fffff510
ffffeb67
00000092
00000516
ffffed82
00000a0c
000007c6
fffff8ea
fffffdc5
ffffe6ca
fffffbb4
00000018
0000022f
000004e6
00000328
fffffc95
000003b3
00000cf5
fffffec4
0000041b
fffffd98
fffff7a3
000006c3
fffff8d2
000004fe
0000005e
fffffc12
fffffbc2
fffff96e
ffffeab8
000004f3
000002fe
00000afc
fffff921
00001882
fffffb17
fffff4af
fffff327
ffffe995
000013d1
000011ba
000007c5
fffff46a
0000176b
fffffb74
fffffc86
00001295
00000885
00001c76
00000337
fffffade
fffff817
ffffe81e
fffffc66
00000ecd
000007be
00000043
fffff323
000002ef
00000d18
00000592
00000228
fffff5b2
00000b36
ffffd781
000004f3
0000213c
ffffec7f
fffffce1
ffffffe6
fffffa05
00000d66
0000061c
000001f8
00000a4f
00000037
0000291e
000001f5
00000286
ffffe9e2
fffff8f9
00000ed6
ffffeebc
ffffe41a
0000006b
000011b9
0000008c
fffffba7
ffffe7f8
000005d9
0000088d
ffffe8f6
00000eab
000009e7
00000ea4
0000078c
00000874
000006bc
00000b3b
ffffe87c
ffffec97
fffff67c
fffffe52
00000505
00000433
00000e72
00000eda
fffff4b8
00000316
fffff50a
fffffd91
00000429
ffffd3ed
00001f2d
00000753
fffff84c
000018ec
fffffb82
000001b7
fffff9b4
0000155c
fffffea4
000001ef
00000f91
00000791
ffffff4c
00000e5b
000020d3
0000041b
00000182
00000235
000010f2
fffff841
fffffc67
ffffec1f
fffff0b1
fffff94e
ffffff47
000016e0
000006ee
fffff435
fffff696
000011c7
00000e91
0000005d
fffffa47
00000e8c
fffff328
00000512
00001d63
000002a8
fffff5f9
0000054e
fffff9ec
ffffedf9
00000910
00000e74
fffffbfb
fffffb1f
fffff391
fffffe10
fffff8bb
fffff2ed
00001877
00000608
00000767
00000b6c
000009f8
fffffaa9
00000386
fffffc85
000005ab
0000046b
fffffb0d
ffffeed0
000001e4
fffffd5c
ffffe78f
00000690
00000c7b
000020b1
fffffaf1
fffff909
fffff1a8
000002b3
0000029e
fffff583
fffffdbd
ffffe66a
00000bfa
fffff609
ffffff8d
ffffed8e
fffff878
fffffc63
ffffffdb
00000634
0000129b
00000979
00000c71
000012b3
0000075e
ffffff86
00000d0c
00000de0
00000863
ffffed31
fffff51f
fffffc72
00000a15
ffffffb9
00000eb3
00001102
00000f81
00000f96
fffff297
0000063e
fffff825
ffffeaad
fffffc48
00001121
000005f5
00001a17
0000024b
00001fa6
0000024c
0000004a
ffffef75
00000e5c
fffff982
fffff7a2
00001091
00000efa
00000ea3
fffffb51
ffffff57
ffffff3a
00000a1e
00001416
000004c3
00001989
00000b9a
fffffcf7
00000ab7
0000160f
000019d6
00000f59
00000055
fffffd33
00000773
000015a5
0000059c
000005e1
000000aa
fffffbc3
fffffde7
000001c0
00001637
fffffce7
000000ae
fffff4d0
00000944
000011ac
00001501
000002a1
0000076d
fffffe04
000006d4
0000040f
000000c1
000001c8
000005d8
fffffc32
fffffcdd
00001613
0000230c
fffff06d
ffffefb7
fffff3a0
fffffeaa
00000b95
000007a5
00000239
000006d7
fffff70d
fffffcd8
ffffffbd
ffffeb84
fffff0fc
fffff180
000009e1
0000032c
000007e7
ffffe837
ffffecd1
00000893
ffffdc12
00000fd6
ffffe86d
00000ae8
fffff483
00000d90
0000297b
ffffe29c
000008fe
ffffe89f
00000585
fffffd54
000001ae
fffff436
00000a18
ffffed46
0000100e
fffffab5
ffffeddd
0000149f
ffffff21
000018aa
00000fcb
fffff5ae
fffffee7
00000191
000013bc
000005a8
00000248
fffffd6a
ffffff59
000010de
0000000c
fffffae5
fffff8b3
fffff8d7
ffffeddf
fffff64c
00001360
fffffd54
0000091c
ffffdff3
00000759
fffffdea
fffff9c6
00000257
fffff997
ffffe48a
00000bed
00000324
fffffbf1
fffff382
ffffecff
000002e5
000014dd
000002a0
ffffee1f
000002e9
ffffff4f
00000b2c
000007d8
ffffd965
0000070d
fffff306
ffffed9e
fffffd90
00000550
ffffeac9
0000091c
000009df
0000009b
fffff4c8
fffff356
00000d44
ffffec76
00000dc3
fffffddd
fffffec3
ffffe9ea
fffffe1a
000007ef
ffffeeb8
00000673
00000127
fffff7ad
00000b0d
ffffe386
0000047c
000014f0
0000129e
0000050a
fffffc19
fffff7c7
fffffc15
00000708
fffff590
000009cb
00001b95
ffffff33
ffffee9e
ffffee9d
00000a0a
ffffff3a
00000b56
fffff91a
00000abd
fffffdf4
fffff687
fffffad1
fffff086
000019b9
fffffec1
00000855
fffff90f
fffff266
fffffcfa
00000e3d
fffff944
fffff4be
00000203
00000674
0000153e
00000493
00000854
0000094d
fffff117
fffff38b
fffff1fc
ffffeec7
00000a49
000003c0
00000107
ffffde7a
00001a94
fffff470
00001a88
ffffed43
fffff57f
ffffe384
000004af
fffff1c3
fffff220
ffffee41
00000a0d
00000933
0000176e
fffff722
000002d4
ffffef54
fffffbab
fffff94b
00000601
00000d26
00000cd0
fffff51a
00000ce9
ffffff6e
fffffbce
fffff6d7
fffff8c3
00001687
000003fa
00000242
fffffc9c
00001fa0
000010e0
fffff6ad
fffffc76
fffffd3b
000001e3
fffff6ef
000005ad
000012c7
ffffef04
fffff16a
fffff9c1
fffffa5a
000019d7
00000cf4
00000c36
fffffc95
fffffc4c
ffffed3b
00000a1c
00000659
000010a1
fffffd46
fffffe2b
00000233
00000b88
ffffecfd
00000984
ffffffbc
fffff250
ffffe50c
fffffe3c
000012b8
000015a7
00000498
0000195e
ffffff72
00000c53
fffffa2a
fffff959
fffff73d
ffffe55c
000010a4
fffff7b4
fffff5a3
fffff0be
fffffd5c
000016cd
00001b13
ffffea86
fffffb6b
fffff2a0
00000cc7
000003b5
fffff7c5
000000f0
fffff9d4
000014df
00000712
000008a9
ffffdd84
ffffff23
00001af0
00001126
ffffe81e
fffffbf3
fffff077
00001620
00000329
fffff613
00000071
ffffde49
fffff1f9
00000079
00000aef
ffffe6e6
fffffb12
00000d0e
ffffed3c
000002f7
000000da
0000162b
fffffd06
fffffdc8
00000b0e
ffffeeda
fffffd25
fffffa1c
fffffe34
00000af8
0000072a
fffff652
000001c4
00001345
fffff540
000001e1
fffffd81
ffffff2f
ffffeaea
0000123e
fffff5fd
00000d44
fffff7f7
fffff7ea
00000fb0
00000cda
000002b3
000009d7
fffffc45
ffffffe4
fffff772
00000bb1
fffff709
00001334
fffffbeb
00000044
000009cf
0000004f
fffffc26
ffffff9d
00000b8f
fffff76e
fffffe5e
00000022
00000b2e
fffffeb6
00001762
fffffdfa
fffffced
fffffdca
ffffeefa
fffff298
fffff923
00000eb0
ffffff92
fffff9bc
00000fdc
0000140f
0000103b
fffff4f8
fffff999
00001774
0000031e
fffffc8a
0000094a
00000d06
fffff89c
000002d6
00000bfb
fffff0ff
00000029
fffff197
fffff348
fffff8b8
0000062b
fffffbd6
fffff79e
000000ab
fffff12b
0000058b
00000ea1
fffffefa
fffffd61
000004d4
ffffe5c6
000006f1
0000281b
fffffe6a
fffffe76
0000099d
00001546
00000c9b
ffffe421
00000749
00002141
0000080c
fffff112
000003a5
ffffef71
00000ff1
fffff3a4
000000f6
fffff4e9
fffff8ef
00001337
00000156
fffff8c5
fffff131
ffffe7cd
ffffefd2
00000173
00000cad
fffff8c1
0000144f
fffff6b9
fffffcec
fffff20b
00000ccf
00001b1f
ffffe938
fffffb86
0000105b
ffffed4b
00000754
00000fcb
00000103
0000071d
000016c5
00001931
ffffff33
fffff91e
fffff41b
00000ca2
ffffee43
fffffcbc
00000154
fffff97f
0000039e
00002129
fffffe6e
fffffa5f
00000d21
00000319
0000129c
00000221
fffffcca
ffffe8f0
ffffeb0f
ffffe844
000004e8
ffffee63
0000103c
00000064
fffffcd8
fffff517
0000080c
fffff599
fffff342
00000f5e
00000496
fffffcf6
0000084b
0000001e
000004f4
fffff570
00001ac5
fffff881
0000141f
fffffd8f
00000a70
0000097e
00000ed4
fffff521
00000de8
000017e0
fffffca8
00000073
fffff93b
fffffb85
00001621
fffff304
fffff3d2
000014d4
00000813
00001b6b
fffffa2d
000001a2
fffff775
000001da
ffffe910
000008db
0000042f
ffffff41
fffffaf4
fffff46e
00000969
fffff0dc
0000069e
00001ad3
00001335
ffffec8a
fffff90f
00000573
ffffff17
ffffede8
000004fb
ffffffdf
000018c1
fffffcba
00000f1a
ffffef9e
fffff2b5
00000955
00000e03
fffff39f
00000050
ffffee23
fffffda8
00000ad2
fffffa60
fffffcc8
fffff164
fffff79e
000016bb
000000f1
fffff30a
fffffbee
ffffeb58
fffff2e3
00001197
fffffe28
00001872
fffffec4
ffffff89
00000849
ffffdd72
000002a6
ffffff5e
00001337
00000c79
fffff157
00001010
fffffc9c
fffff44e
0000028c
fffffd61
000013e4
00000467
000002a9
00000ba5
00000e21
00000a22
0000125b
000007df
0000022b
00001006
fffffed3
0000006e
00001643
000014f9
ffffffe5
fffffa23
000012eb
00000a59
00000415
fffffbd7
0000044a
ffffffb8
fffff769
000001ab
0000036f
fffffb25
00000bb0
000010aa
00000c8a
fffffc6e
000009c6
00000102
fffff006
000008b3
000001e4
00002189
000012d8
00000932
00000339
0000021e
fffff306
ffffe984
fffff4b8
ffffff62
ffffe4c7
fffff8f6
fffffccc
fffffd37
fffff772
fffffb96
0000164a
00000890
fffff8c1
ffffff1e
ffffffa2
fffff612
fffff60e
00000d11
fffffa92
fffff1d8
ffffff71
00000187
ffffe67e
ffffff79
00000b39
000005d6
00001cd5
0000102d
000012bc
00002434
000009ce
0000021c
00000c97
fffff8c5
00000164
fffff7a0
00000525
fffff792
fffff71e
00000559
fffffe38
ffffe714
ffffed2e
fffff12a
fffff495
0000055c
000002d5
00000dc6
000009bc
00000ddc
000007de
000002b6
00000e37
00000be3
000004dd
0000106f
ffffe1ab
fffffc3f
fffffc0c
00000ee7
00001451
ffffed40
0000123f
fffff0da
fffff13f
fffffcf8
fffffbe3
ffffebda
00000867
000008c9
00000da1
fffffa65
ffffff7d
ffffff9b
000015d3
ffffdb5a
fffff3a0
00000012
fffff1f7
fffffca9
fffffe5f
fffff77f
000000d5
0000081f
fffffcf2
fffffa24
fffffddb
ffffffe7
ffffe97f
000005f8
fffffa2b
00001050
000007a4
00000f21
fffff2ee
fffffb33
ffffefef
fffff6e2
00001031
0000133c
fffff128
fffffa13
ffffff04
00000792
ffffe93f
ffffeb46
00000655
ffffe6cd
fffffa39
00000219
00000560
fffffe2b
fffffb45
00000aec
000003b0
fffff7a2
0000007d
000004f4
00001637
00000a2b
00000fb4
fffff81b
fffff939
fffffcf5
fffffe25
fffff2f7
0000105e
00000b6c
fffffc0c
0000084c
000002e2
0000094f
ffffee9e
fffffe1e
ffffff40
00000810
fffff7e0
ffffdfad
fffff204
ffffff36
000000d3
000015c5
00000789
0000010e
ffffff95
00000e47
fffff85f
fffffe30
fffff1ea
00001259
00000513
fffff6da
fffffe85
00000697
fffffcc2
fffff917
fffff78a
00000462
fffffb5f
fffffa22
ffffeeba
00000101
fffffda8
fffffbd7
00000292
000009ac
00000912
00000726
fffffce3
fffff8ab
fffff281
fffff855
00000041
fffff5d5
0000013e
fffff384
ffffea86
00000a98
fffff9de
fffff52d
fffff1db
00000578
000011c7
fffffaca
fffffd36
00000ddb
ffffe897
0000196e
00001f9a
ffffdd02
fffffebd
fffff6b4
fffffc94
fffffa97
00000a7f
fffffe8b
fffff439
fffffdc6
000006a8
fffff0b2
ffffeab7
000019c4
fffff7b2
fffffe39
fffffadb
00000716
000016ec
00000780
ffffec5e
ffffee1a
fffffad7
fffffc88
ffffe9bc
00000a98
fffff1f4
0000134f
0000178a
fffffcca
000005ad
fffff012
00000810
fffff98f
fffff1f1
fffffc42
fffff9fa
fffffbcc
00000c48
fffff5d9
0000166f
ffffeede
000014e3
fffff2db
fffffffd
fffff9a9
fffffb8e
00000a5d
00001365
00000f65
fffffac4
00000262
fffff5e3
fffff32e
fffff12e
fffffa58
0000033a
ffffe748
ffffff67
0000139a
00000e82
fffff86f
ffffedf0
000005f2
ffffe209
00000e5b
fffffd3d
000017ae
ffffe9ac
00000bdf
fffffeb3
fffffbb8
ffffee4a
000007b4
000008be
00001715
00000d09
fffff852
fffff305
ffffee4e
0000130c
fffff5f0
00001324
000006ca
00000444
fffffc08
0000088b
ffffffcd
fffffb3a
00000900
fffffe23
fffff5ad
000007c1
ffffff2c
00000652
fffffa22
fffff05e
0000166f
000013ff
00000b6d
fffffafc
fffffc1e
000011e0
fffffb6d
fffff7d2
00001835
ffffff62
000016de
ffffedeb
000006b3
00001ac7
00000062
fffffc96
fffff0e7
00000dff
fffff60b
fffffec6
fffff00a
00001421
00000eef
ffffff97
fffff114
000013dc
fffffb45
fffff1b6
ffffe937
fffff7a6
ffffed31
fffff7f2
000009a0
fffffb25
00000499
fffff6a6
000000d8
000018d6
fffffb7e
000004f8
ffffebc2
000013a8
fffff9d4
00000d95
fffffe68
000007e8
000008ad
fffffa26
00000e1e
fffff630
00000a0f
fffffaf4
00000485
fffffa07
000000a5
fffff21b
00000333
00000092
fffff904
ffffff4a
000001bc
fffff808
fffffe56
fffff300
00001e55
00000db2
00000388
00000f28
ffffe669
ffffdeee
fffffad6
ffffee2d
fffffcf1
000002a9
00000be7
fffff148
0000052b
00000030
0000047e
fffff948
000011e2
fffffea9
000016f1
fffff5c8
0000099b
ffffff3a
fffffbc3
0000082d
fffffc22
ffffdd95
ffffd866
00001074
00000fe8
00001867
ffffffc6
ffffef49
fffffa93
00000026
fffff2fb
00001551
00001cf5
0000062f
ffffffdc
ffffef42
000013ff
000000fd
fffffc43
00000639
fffff86d
000001e6
ffffed59
00000e0e
fffffea6
00000efc
fffffd66
fffffe3d
fffff053
000009d3
fffff4ad
fffff9b6
00000003
00000191
ffffe9f1
fffffd04
00000a48
fffffb1c
fffffd18
0000021a
fffffe5f
fffff2ad
ffffff88
00000cda
fffff269
fffffb28
ffffee23
00000c2c
fffffece
fffff502
00000131
fffff070
fffff2a3
ffffed1f
fffff235
0000118d
fffff685
00000607
fffff530
000009d2
fffff2bc
00000082
000000af
00001e19
00000827
fffff855
000008dc
00001ba6
ffffeaee
fffff51b
fffffcf0
fffffa9b
fffffbb3
ffffef23
00001227
ffffed9b
fffffd69
00000d86
ffffff9c
fffff356
ffffee90
fffffd07
fffff636
000002a7
ffffede1
00000a83
0000017e
00000274
000012a2
fffffa57
fffff69d
fffff8eb
fffffd83
fffffed3
fffff542
ffffe5d7
fffff8bf
000004a7
000001c3
00000f83
00001949
000009d1
000011e0
000009ea
0000161c
000017ee
00000c4c
00000922
fffffd59
ffffff77
fffffba2
00000808
fffff6b0
fffffd87
ffffe18c
00001648
fffffd26
000005e4
000012d9
000003e2
000012ad
ffffeff2
00001eff
00000e0e
000002b4
0000126d
fffff0e4
fffffc45
000012ad
ffffe7dc
0000073f
000006e2
00001976
ffffeb88
000014d0
fffff8c4
fffffa38
fffff033
fffff1ef
00000538
fffff19e
00000992
fffff76e
fffff051
fffff92d
0000045b
fffffc6a
00000071
00000900
00000dff
fffffbfe
fffff280
000000fc
00000616
ffffed1d
fffff47c
fffff6b3
fffffd50
fffff629
00000924
ffffeb3f
ffffeb93
fffffbaf
fffffdbb
ffffed31
fffff828
fffffad1
fffffaea
000001f7
fffff772
0000131c
00000650
fffff590
00000139
0000019a
00000fb5
fffff83d
000009ec
0000008b
00001349
000010b1
0000028c
fffffc9c
0000068d
fffffdab
000015ba
00000104
fffffac1
fffffa0f
fffff051
00000732
fffff566
00000e33
ffffef48
000001a5
00000edf
ffffe42c
00001a19
fffffa80
000001d3
00000764
00000964
0000038b
00000ce5
000006b6
000016c5
000006c1
00001967
00000ba7
ffffe8a7
000021c3
fffff893
00001356
00000059
00000db8
fffff719
00000817
fffffcba
0000146b
000005ac
00000c1a
ffffe405
fffffee5
0000054f
000002e4
00000c6d
fffffb45
000000a1
00000f46
ffffe289
0000079f
fffffbaf
fffff434
0000045a
00000fdf
00000d70
fffffe41
00000b53
00000b39
fffffedf
fffff70a
fffff7c9
00000ad5
ffffff74
fffff279
ffffea37
00000ac1
fffff8ee
00000446
00001008
ffffef13
ffffff6b
fffffdcb
000004e9
00001006
ffffeecf
0000075e
00000d56
fffffd97
fffffe39
00000569
00000475
00000788
00000742
fffff34e
00000cce
00000f16
00000268
ffffecae
fffffe84
00000283
fffff133
fffffb58
ffffedc7
000007da
00000225
ffffeab8
0000048b
ffffff45
000006ad
fffffaf0
fffff5a3
fffff608
fffff90b
0000003e
000001ea
fffffd89
fffffa87
fffffb75
0000206d
fffff609
fffff8c9
00002a97
00000572
ffffee28
00000ae5
fffff43c
00000bc1
fffffd46
fffffa50
000014ce
00000753
00000c95
000005a0
fffffa41
000007e8
00000fa3
000001be
0000174c
00000aff
000002be
00000340
000001c6
ffffefd2
fffffed6
000002dc
fffffa9f
0000045e
00000047
00000a01
00000893
00000229
ffffee52
00001727
fffffe2a
fffffef4
fffffb92
fffff9af
000013f7
000011ec
000005bf
fffffe9c
00000801
000000f4
fffffd8a
0000045f
fffffa4c
00000343
000002a4
000007cc
fffff7ff
0000092f
fffff448
fffff899
fffff929
fffff223
00000d22
fffff378
fffff6f7
0000103b
fffff89f
fffffd91
fffff2ea
00000ac5
00000af3
0000098e
000006f3
000000f4
fffff938
fffff576
000010ae
000009e4
fffff709
00000084
fffffc1f
fffff16a
0000024c
fffffaa1
fffff3af
ffffece0
ffffebc8
fffffb33
fffffee6
fffff4af
0000086a
ffffff27
00000776
fffffda3
fffff5d3
0000017a
ffffefac
000006fa
fffff3e2
00000bdf
fffffba0
00000dbd
fffff17c
fffff73d
000004ed
00000f22
0000158d
00000089
000017c3
fffffc41
00000e35
fffff3d1
0000056f
ffffe1b9
fffff17f
00000609
ffffef08
00000585
00000bb8
fffff985
fffff379
fffff9de
fffff383
fffffeb1
00000152
fffffc0b
000015a6
fffff6b3
000011fe
fffff289
000000f1
00000f4c
00000ea1
fffffa91
0000072d
00000572
fffff905
000007f7
00001815
00000619
00000753
000008b1
ffffed1c
000005f3
fffff2da
fffff85f
00001bf4
fffffcba
fffff66e
00000ee7
fffff3bf
fffffa37
00001026
0000008e
ffffebcf
00000709
fffffae0
000013e9
fffff829
00000d98
000016f6
fffff4ff
fffffd80
00000506
fffff4ea
0000037f
fffffd17
fffffcd5
000000a2
000000ec
0000021e
fffff842
fffff8d2
fffffe77
ffffff6c
fffffa53
00000430
ffffe889
fffff68e
fffffc61
fffff4ee
00001511
0000003e
00000249
fffff9c0
ffffffcc
fffff049
fffffdce
fffff3e2
fffffc6a
ffffdee7
fffff16a
000012ee
00000abd
0000110e
000011f1
000008b4
fffffa25
fffff297
00000ed4
000000d6
0000203f
fffffb48
00001982
fffffdf9
00001146
000015f0
fffff2c6
fffff9bb
fffff2a5
fffff019
000008a0
fffffd75
000000ad
00000731
ffffe7fc
000010a3
fffffb7c
000006e2
00000807
000011b9
fffffea5
ffffe48b
000000bd
00000298
fffff2a1
000001e8
fffffb55
ffffeea3
000008af
fffff8b6
fffffabf
fffffa05
00000ffa
ffffff79
00000106
fffffa4d
000005fc
00001172
00000860
000008e2
000007d7
ffffee27
fffff4ac
fffffd59
fffff69d
fffff23c
ffffe7cb
ffffee97
fffffcaf
ffffff1a
fffff5bf
00000105
fffffa64
00000e1a
fffffde9
00000901
000002a1
ffffeddf
fffffed4
fffff006
fffffe9a
fffff65e
000004f0
ffffeea5
00000031
00000767
00000bbc
fffff61f
0000003b
00000262
00001401
ffffecd9
fffff438
00002443
fffffc78
ffffe78d
fffff878
ffffdc33
0000031d
00000a78
fffff436
fffff9ea
00000bf1
ffffe95f
ffffeeea
fffffd0d
fffff646
fffffc33
ffffefa9
000002c5
fffffe12
0000071a
00000297
000002ac
ffffed4d
0000065f
fffffbb9
fffffdd9
00000d8e
fffff6b3
00001179
000012ad
000009bc
fffff352
ffffe3bb
00000df3
00000171
fffff65d
00000f2d
fffff4dc
fffffa84
000006c9
fffff19a
fffffe96
00000e15
000002bb
00001021
00000ea8
0000001a
ffffe1c9
fffff1b4
000009df
ffffebf5
fffffbc7
00000460
00001300
fffff891
fffff7ae
ffffff52
0000048a
fffffe01
00000d91
fffff5ab
0000018e
000005c2
fffffad3
00000adb
000001ed
00000a33
00000282
000004de
fffff7d3
fffff7d8
00000fd5
00000838
fffff2c6
00000257
ffffe14f
fffff894
00000c6d
fffffe62
00000186
ffffd900
fffffaee
00000460
00000604
00000c71
fffffd48
fffffddc
ffffeec7
fffffd5b
ffffefb0
ffffe81b
fffff1f8
00001382
fffffc80
000002d8
fffff95c
ffffe8d9
00000c1b
ffffe3ea
fffff8d4
ffffff4b
000002fb
fffff69b
ffffe83c
fffff5a4
fffff652
fffff601
00000c8b
fffff04f
000003e4
0000020c
00000c6b
fffffe47
00000a3b
fffffdc6
0000059e
ffffec91
ffffdde3
000004e2
00000593
00000626
fffff936
00001343
fffffa0e
00000571
000007b0
00001639
fffffbe7
fffff78e
ffffeca1
00001412
00000573
000005dc
0000284d
00000434
ffffef29
fffffd78
fffff365
fffffae2
fffffacb
fffff869
ffffedfc
00001497
000003dd
fffffd16
000009cc
00000617
00000391
000008db
000001bb
000008aa
000009bd
0000021b
fffffd26
000013ca
fffff9d2
0000050f
0000055a
fffff81e
fffff58e
fffffb6d
fffff9a3
ffffed25
fffff794
00000371
0000105e
0000072b
ffffde63
0000084b
fffff8c8
000005dc
ffffffd1
fffffd82
fffffeae
ffffffb6
00001162
ffffffbf
00000e09
00000c27
000008a0
ffffe8e6
00000e70
fffffa14
00000941
fffff36d
fffff0ad
0000198e
fffff3a0
00000ed2
00000188
fffffa91
ffffff6c
ffffef2d
ffffffd2
fffff200
fffffae3
00000bf7
00000349
ffffecd6
00000b02
ffffffe8
fffff8fd
000009a8
fffffdd7
fffff0ee
000017e4
ffffffc7
fffffef3
fffffac3
00000f42
fffff937
ffffec06
fffff73a
00001128
00000ac2
fffffcb4
000011c2
000009ac
fffffc8e
fffffddb
00000442
fffff53e
0000000f
000003fd
ffffea30
fffffd8d
fffffc15
00000d4b
ffffe827
fffffb11
fffff9c5
00000c6a
ffffff70
00001739
00000890
fffffab2
00000319
fffffb6c
00000b1d
ffffeec6
fffff55a
000005e4
00000fd9
ffffe387
000011c6
fffffe30
ffffe7a4
ffffd930
ffffec3a
ffffffbf
ffffff26
00000830
fffff8e5
fffff1ac
fffffaa9
0000006f
000002fc
fffff5cc
00000ba8
fffff7f7
fffff4c1
fffff8fd
00000de6
fffffe48
fffff705
00000bf9
00001bb5
000002b6
00000ff4
00000d65
fffff82b
00000058
ffffef6b
fffffd5a
fffff7e7
fffffaca
fffff64e
fffffc4a
000006e2
fffffe74
ffffe7e5
fffff65a
ffffec5b
00000328
00000682
00000351
fffff5d2
00000331
fffff9ec
fffff148
00000998
00000a94
00000c45
fffff822
00000f40
fffff99e
00000873
fffff965
fffffd1b
ffffe0b2
fffffc19
0000012e
fffffab3
000016b5
fffff0f8
fffff8b7
fffff44d
fffff8b6
00000d56
0000131c
fffff6f0
fffff6a7
fffff10a
000010e4
00000e7f
fffffea1
ffffedf3
ffffef1b
00000235
0000071a
ffffe549
fffffbd8
000014ed
fffffd30
00001343
00000864
fffff1fb
fffffc37
fffffe56
fffff3af
fffff376
0000137c
fffff35d
00000df2
fffffa5b
ffffffab
00000744
fffff843
00000758
ffffe58a
000005af
ffffe015
fffffd11
00000b0c
0000080c
ffffef36
fffff0e0
fffff718
00000268
ffffe5ba
ffffffd4
00000407
fffffc57
000006cb
000002e5
fffff8ff
ffffe6f7
000001ba
fffff3ad
fffff886
00000632
00001253
ffffff82
0000072a
ffffed53
0000032d
ffffff3a
00000fe5
fffff903
fffffce0
00000db1
fffffecf
fffff1aa
000020fe
fffff20e
ffffff2a
0000047c
00000376
fffffd8c
fffffd9c
fffffcf6
fffff192
00001bcd
fffffd28
000007b8
fffffbac
fffffb6a
fffffa1c
ffffebf6
fffffdec
fffffabd
00000f26
fffff087
fffff88a
fffff462
000012a7
fffff4c2
00000745
00000c8b
fffffe1c
ffffee33
ffffee5d
00000b1e
ffffefb3
00000512
0000017b
000004e0
00000619
fffff3ed
fffff363
0000093e
fffff7dd
ffffdc71
00000863
fffff29a
0000060a
00001202
00000037
00000ce0
000001fd
00001486
fffff244
ffffffe5
000008b4
fffffd8a
00000ee6
fffffa6a
00001ac2
00001b71
000003a6
00000725
00000f69
fffff0a6
ffffef09
0000103f
0000038b
fffffd12
00000025
ffffe126
fffffd89
fffff643
00000bdf
00000cde
00000775
0000051d
ffffeca4
000007a3
00000823
0000101a
00001b63
ffffea1e
fffffafa
fffff667
0000023b
0000002c
fffffcf9
00000d49
fffff1c2
fffff28a
fffff2c2
fffffb57
fffff01d
ffffff5f
fffffddc
fffff5d5
00000b4c
ffffff3b
00000dbd
fffffd7a
ffffffb0
fffff8b9
ffffffe9
00000936
fffffaae
000006b4
fffff57e
000009d1
fffff880
00000b03
000000ca
000013aa
fffff114
ffffecea
fffff808
ffffee19
ffffee1f
00000809
fffffff2
fffff9cc
fffffaff
fffff847
00001557
fffff67d
ffffeee8
00000a4b
fffffd36
00001a5c
fffff932
00000af0
00000dfe
fffff942
fffff665
00000996
0000076f
ffffedc3
fffff169
ffffdf34
000007b3
fffffc9d
fffffde7
ffffea21
fffff1cd
fffff9d2
fffff74f
00000186
0000078b
00001d59
ffffffbe
00000e6c
fffff545
ffffea58
fffffb72
ffffeb57
00000031
fffff5e9
ffffe6bb
00001672
fffff90d
ffffead3
00000b9d
fffff694
00000e19
fffff684
fffff902
00000475
000007ac
000009f0
fffffed7
000006d6
000009a4
00000298
fffffe28
ffffed50
000007bf
0000008c
fffffaa7
00001085
ffffed8a
00001542
ffffffb6
0000041b
fffffae4
ffffea72
fffffe32
00000454
000008be
fffffd70
ffffe3a7
ffffec11
00001a88
fffff1e0
00001274
fffff3ec
fffffda4
00000815
fffff565
00001496
000000fb
000005f5
fffffc8a
00000884
0000146a
fffffe4d
0000165d
fffff818
000009e1
00000653
fffff22f
000002c4
00000018
fffff4f8
000004a1
000001e4
ffffff10
ffffff1d
fffffed6
fffffb3f
000001cf
fffff7ad
0000225a
ffffedc7
fffff870
fffff976
00001a62
ffffeeee
00000582
00000336
00000450
00000ffc
00000fb8
fffffa2b
00000282
ffffe7e6
00000148
fffff5bc
fffffd97
ffffea35
0000053c
ffffea10
000001eb
fffff024
fffff504
00000eee
0000079a
00000edc
0000142b
fffff602
00001362
ffffed0d
000009a6
fffff99f
fffff3f9
000007f2
00000c38
00000bd6
000002c7
000001b5
000006d0
000003ed
00000700
000002a3
00000ae6
ffffeaf6
fffffe4d
ffffee1b
00000394
0000153b
fffff9df
000001a5
000009c8
ffffe544
fffff940
000004b7
ffffda8b
fffff35f
00000e3c
00000cf8
000004d7
00000b68
000002c8
0000072e
fffffbeb
0000017f
fffff7d3
00001056
000013ac
000011d8
fffffab9
fffff3ab
00001083
00000708
00000440
fffff7cf
00000581
fffff1f8
00000833
000011d4
00001517
00000929
ffffee21
0000028d
00001baa
fffff4c5
ffffff3c
00001247
000007fb
00002011
fffff686
fffff334
00000fd4
fffff08a
fffffd75
ffffff27
00000d65
000007f1
000005e9
fffffacc
00000fb6
0000340e
000008f0
0000014a
ffffef38
fffff7c2
fffffd3d
fffff916
ffffffcb
000016fd
00001020
fffffdf2
fffff061
0000114b
ffffff5e
ffffe9ad
00000936
00000d43
ffffe0a2
fffff557
fffffe92
0000097f
fffff955
fffff53e
00000967
fffff9f2
00000702
fffff1a1
ffffee84
000009c4
00000344
00000bed
fffff91d
fffff5b8
00001198
ffffec4f
0000102e
00001113
00000b1f
fffff71b
fffff571
fffffd49
ffffef41
fffff391
00000856
00000865
fffff26e
000008be
000005e0
00001386
0000075c
00000db0
0000062b
00000cac
ffffef5c
fffffe6d
ffffff7f
fffffcd9
000005bd
00000834
00000512
fffffdb6
fffff67d
00000e30
00000486
fffff2d4
fffffd7f
ffffe976
00000075
fffffd6f
fffff892
0000147d
fffff10d
00000922
00001c46
00000dee
ffffff98
fffff156
ffffee63
fffffaae
fffff71e
fffff6b2
fffffbc8
fffffeae
00000646
ffffefff
fffff72e
fffffdef
fffffd79
000017bf
00000301
ffffeb23
00000568
0000070e
fffffe62
fffff050
000016bb
fffff22b
0000088b
00000296
000007c5
00001612
00000743
fffff8c7
00000e4d
fffff7d7
0000021d
ffffef48
fffff2a4
000000aa
000004c2
ffffe9fd
0000066e
fffff568
0000108c
fffffb73
fffff179
000000fb
fffff427
00001068
00000002
fffffe0a
000007a7
fffff302
ffffef55
00000548
fffff1c8
fffff1c7
00000ad2
000006ca
ffffefca
fffff7ff
fffff451
000016f8
00000bb7
fffffa8f
00000773
ffffee77
fffff74d
0000015b
000005d9
fffffebd
00000335
00000103
fffffde3
fffffc2c
fffffa7d
00000300
00000550
00000291
fffff0c3
fffff315
00000528
00001307
000001f9
fffffaad
000002e7
fffff14d
000010ed
0000026a
fffff758
fffffdd8
fffff92f
000010f6
fffffd63
00000202
0000076b
fffff66c
00000281
0000038c
ffffebe8
00000344
ffffff69
000001ae
00000076
0000035a
0000114b
fffff0c0
fffffb93
0000089f
00000638
000005f1
0000239b
000007f1
00000e9f
fffffc08
fffff329
fffffbf0
00000935
00000543
00000537
fffffd3b
fffffb2b
fffffdad
0000095e
00000adf
fffff2fd
000009db
fffff796
00000610
fffffd85
0000143f
fffffa98
0000024f
000007d8
fffff4b3
ffffff0f
fffffc8e
fffff95b
fffffa50
00000e61
fffff843
00000753
00000411
ffffedf0
000006b6
ffffedb9
0000081f
fffff971
0000001c
ffffef44
00000195
00000bfc
fffff591
fffff826
000005e1
00000634
ffffe087
00001a0f
000006d6
00000903
fffffe25
ffffe803
000008b9
fffff8b1
00000708
fffffd2c
00000314
fffff5fb
00000b2d
fffff0a2
00001d09
00001cf0
0000151c
0000107e
fffffee8
00000f15
fffffec2
ffffebea
00001370
00000e98
ffffff98
fffff029
fffff86c
ffffe874
00000c38
ffffeb45
000003b5
fffff517
ffffed8e
00000315
fffffbaf
00000ad6
ffffef9c
fffff635
ffffe121
ffffe3c2
00001740
00001af1
00000133
fffff559
fffffc24
00000b4c
fffff959
00000313
ffffffd6
fffff8a5
fffff932
000003cb
fffff35e
000005d7
fffff9e7
000001a6
000011e5
fffffdd3
00000be5
ffffe8d4
fffff9eb
0000005c
000018de
ffffe6a8
fffffec2
000012d6
fffff5da
fffffd3f
0000044a
00000263
0000143f
000005cc
0000112b
fffffb58
fffff66d
fffffd15
fffff103
00000640
fffffb03
fffff750
00000673
fffff136
000009f6
fffff9d1
00000efd
fffffaec
0000082c
00000252
0000099e
0000016c
ffffea7e
00000d0b
fffffede
00000a35
000008ed
fffff600
fffff42c
00000879
fffffc14
00000c1c
fffffdb2
00000d3c
00000579
000003b9
fffffb2a
00000301
00000f6c
ffffff4d
000006de
00000099
0000019c
00001649
00000f8a
00000107
000002c6
fffff6ed
fffffdc3
00000400
00000b00
000009b0
fffff1a8
00000ca2
fffffeda
fffff33d
00001148
000012ec
00000369
0000092a
000009ec
0000120c
0000096a
ffffeed5
000019fd
00000dc7
fffff969
fffff2b0
00000687
fffffc67
00000444
0000099d
fffff8ad
fffff192
000004fd
fffff91a
000001e4
ffffeea1
fffffcbd
0000093f
000007d6
fffff5ce
fffff0e5
00000034
00000741
0000053d
fffff961
000003da
0000136d
000002a7
ffffeae2
000002a1
00001a6e
ffffef5b
00000062
fffffd13
0000013d
00000283
00000ebd
00000119
00001084
fffffe7b
fffffb79
fffff759
ffffe881
00000391
00001a8f
000005ed
000008e1
fffffaa9
fffffcd7
00000cbb
000019f9
0000133d
00000a69
00000074
000002b6
fffff642
ffffed46
fffff16e
000000a5
fffffc39
ffffed00
ffffff84
fffffbe2
fffff0d6
fffffb37
fffffbda
fffff807
00000bfb
ffffe765
ffffe653
0000000b
0000013e
0000053a
fffff908
fffff422
ffffffe8
fffffa4a
0000140e
fffffbcf
ffffff50
00002002
fffffd7b
00000731
0000085b
00000975
000003be
00000282
0000014c
fffff88d
00000435
00001a3b
00000fa7
000003ee
00000b11
fffff4c3
fffffca2
00000c41
0000133b
fffff608
fffff9bf
00001c35
0000013f
00001793
000002ad
0000032f
fffffc0d
00000c30
0000118e
fffff29e
fffffb71
00000bd5
fffffe53
fffff99f
00000d0e
00000e45
fffffa30
000002bf
fffff060
fffff46c
0000019b
00000068
fffff380
fffff6be
fffff23b
000005e2
ffffe68f
fffff2ec
ffffe7ea
0000056b
ffffe8b1
00000069
00001533
000015a3
ffffe8a6
000003dc
fffff336
fffff093
fffffe88
00000fe2
000007c1
fffff6c1
0000091e
ffffe2fd
fffff644
fffff559
00000103
fffffd61
fffffe2c
fffffdbe
0000004a
000006fc
000001ee
fffffc53
00000532
00000aaf
fffff8d0
ffffff3b
00000f06
fffff1be
00001756
ffffeeaf
fffffb89
fffff3b7
00001c4a
fffff97e
fffff986
fffffb35
0000013c
fffffbc1
fffffe48
ffffd25e
000000bd
0000003b
00000d6e
000010ed
fffffd93
00000a8e
fffff1c2
000009ec
fffff899
fffff0af
fffffd9a
0000121c
00000257
00001359
fffff652
00000d8c
fffff791
000002ea
000002cd
0000088e
0000033e
fffff671
00000b62
00001664
fffff874
ffffe845
00000675
fffffbb8
fffffe4e
00000731
fffffa19
fffffc86
fffffeb5
00001301
00000064
fffff006
fffff08a
000001cd
fffff166
ffffebcd
00000838
000008da
fffffb3d
000003cc
0000026f
000007ca
000007d2
ffffde4f
fffffce4
000006b2
fffffab1
00000078
000009b5
0000010c
0000137f
00000e92
fffffe78
fffffd70
ffffdb25
fffffbc7
ffffee81
000002dc
000001fa
000008ff
0000120f
ffffffa9
00001d7c
00000301
ffffef0f
fffff8bc
fffffb2e
000007a8
fffff3c1
fffffc26
fffffdeb
fffffa35
00000a7e
0000084b
00000f15
fffffbb8
00000f8c
ffffee5d
ffffee0c
fffff04e
0000001e
00000f8c
fffff837
fffff9d6
fffffd35
00000768
fffff9d3
fffff91a
ffffee9b
fffff89c
00000f39
0000012d
fffff66f
00000ffc
fffff86f
0000125c
00001226
000000b9
ffffeca0
00001d9a
00000502
fffffbd0
00000c5d
00000915
000010f3
fffff770
0000041e
fffff0ab
0000089e
ffffffb4
000003a2
fffffe1c
fffffcc1
fffff4c6
00000a38
00001343
fffff8cd
00000728
00000597
0000001b
ffffec43
ffffef2c
fffff5e7
ffffe458
00001235
000004c1
ffffff9d
ffffe3ae
ffffe86b
fffffff8
0000197a
fffff6f7
00000b2b
fffff9cb
000000b7
00000fb5
fffffb87
fffff714
00001256
00000097
00000e1c
fffff724
00001230
0000038a
0000059f
000001b4
fffff977
fffffffa
fffffa47
00000c68
fffffd60
ffffeca6
ffffea49
ffffe9ac
000007fe
fffff11c
000003e1
000001c4
ffffff2a
000005ab
0000020c
ffffdcf7
fffffbd1
0000057f
00001535
000015ce
ffffee60
fffffb7a
ffffebc0
000013a7
00000d19
00000488
00000226
000011da
00000faa
00000ef9
000005e8
fffffb7c
000009eb
00000a8d
fffffd89
fffffb75
00000ea7
00001584
fffff64f
fffffc98
0000048a
0000064b
fffff93f
0000185b
00000575
000006df
000016be
fffffa32
fffffedb
ffffefcb
fffffdc6
ffffecc0
000009ab
0000056e
fffffc6b
fffffeb4
000009d9
fffff150
000002a4
0000090b
ffffe8f5
000008db
ffffea5b
fffffe7b
fffff0f5
00001282
fffff10a
ffffeaaa
000001b9
fffffaa7
ffffec8c
000006cc
ffffe640
fffff29a
fffff890
00000a5f
000010c0
00000e42
fffffe05
ffffe09d
0000050e
00001304
00000ff4
000005fc
fffff09f
fffff935
00001901
ffffedaf
fffff129
00000c30
fffffa6d
fffff0b8
000013c2
000005f6
fffffb10
fffff12f
00001a79
ffffffaf
00001211
00000b8e
fffff944
fffff95e
000012b3
000012e9
ffffe7bb
0000071c
fffffe6f
fffff2a4
00000362
ffffee8d
fffff9f8
fffff5ad
fffff98a
ffffff13
fffff2de
00001457
00000661
00001734
fffffdee
fffff8e7
000016bc
fffff887
fffffdb2
0000094f
ffffefff
00000932
0000078b
0000106a
00000b82
000010cf
fffffe92
fffff4d9
00001b48
ffffec43
ffffed8e
0000074f
00001503
00000273
00000cec
ffffe632
fffff98a
ffffe7c5
00000a17
ffffebff
ffffef7a
000006a5
00000dbb
fffffdf2
0000075f
000006f4
fffffd37
fffff1d8
0000074e
000007ed
00000b8f
00000409
fffff0e4
000008ed
fffffffb
fffff9c2
fffffc31
fffff713
00000b7e
ffffedaa
fffff327
fffffbc0
000014de
00000da2
ffffeac9
00001179
00001173
fffff0d2
ffffdf66
ffffff11
00000e83
00001493
fffff4be
000016a7
ffffe331
fffffb3e
fffffa9b
00000ee6
000010c9
00000c57
ffffee8a
00000b27
00000695
ffffea64
ffffe546
00000d6c
fffffdac
ffffef62
fffffd4f
000004b5
fffffeee
ffffebef
00001861
00000cfc
fffffbaa
fffffc2f
000004a6
fffff165
0000042c
ffffeecb
ffffff17
fffff0e4
fffff18b
00001547
000000c4
000002af
ffffe5fe
fffff848
000005f7
00000283
ffffe426
000002ae
000004bd
00001099
fffff787
ffffe303
fffff31d
fffff1d1
00000987
ffffdcdf
fffffa34
0000126f
00000018
00000b97
ffffeac6
ffffeb49
00001295
0000014f
00000156
fffff18b
0000014e
fffff12f
00000f59
00002345
00000642
fffff7ca
ffffdf3d
ffffea38
0000141b
fffff2b1
fffffb35
00000879
0000132a
fffffd6b
fffffac5
000000ed
fffff7e2
fffff895
00000553
00000265
00001b90
000005ad
00000ee2
fffff226
000006ca
fffff6a7
0000051d
000008e7
000000a5
00001f20
00001277
00000f39
000009e2
000016cd
ffffed6c
000011b8
fffff32f
fffff8b4
00000742
00000ff2
fffff116
fffff95f
00000143
fffffd97
00000b0b
00002c6d
0000056c
fffff67e
ffffef3c
fffffbcb
fffff3d8
0000060c
000005d8
fffffa03
000019aa
fffff67e
fffffe75
00000844
00000b89
00001085
0000058a
00000d97
fffff766
00000bdf
00000bb3
00001390
ffffea6d
fffff445
00000aa5
ffffddb8
0000065d
00000db4
fffff88c
fffffa70
fffff21d
fffff942
fffff9a2
fffff72c
fffff676
fffffc7f
fffffc57
0000183c
fffffae7
00000473
fffff88a
fffff860
ffffe9f6
ffffebaf
fffff065
00000260
00000dea
ffffe8e6
fffff8e7
ffffee53
fffffc95
00000de9
fffffa39
ffffff63
000012d1
000005ec
fffff62c
0000020e
fffff54d
00000570
000006aa
ffffee53
00000244
fffffe7b
0000070b
00000ac0
0000062c
fffffc14
00000c11
fffff4b6
ffffeeed
ffffd6af
ffffff18
fffff561
00000525
ffffe683
fffff7a2
00000615
fffff2af
0000054b
fffff8cc
ffffff93
000007b2
00000c52
00000132
fffff57a
fffffa14
0000083c
fffff2cc
fffffdb3
fffffb03
fffffeaa
fffff2f3
ffffe80e
000006bc
00000c77
ffffe8d4
000004c5
00000e01
000007b5
fffffa9d
fffff3cd
0000010c
00000334
0000013d
fffffdac
fffff200
00000577
00000617
00000299
0000016f
000015b6
fffff7ed
00001092
fffff682
00000e57
00000ff3
fffffc36
0000157a
00000611
fffff4a8
fffffb2a
00000ea6
00000bef
fffff252
fffffe33
000002a2
fffff970
00001e7c
00000305
ffffff33
00000f66
fffffb47
00000d07
ffffea70
fffffa22
00000d90
0000144d
fffff600
fffff47f
00000756
fffff7f2
fffffc87
00000b55
fffff8f7
ffffe696
ffffef2d
00000021
ffffe7e8
fffffc28
ffffee00
00001534
00001bff
fffff251
00000352
fffff395
fffffc00
00001752
fffff9f7
fffffc4d
fffff3d0
00000ed2
ffffd5ce
fffffa46
ffffff68
fffff774
00000b2a
00000f8b
ffffedbe
00001b12
ffffed99
000010a9
000001f0
fffff97d
fffffab5
ffffff91
000002b2
fffff41a
fffffcfa
fffff609
fffff04a
fffff56f
fffff122
fffffa91
00000598
00000190
00001987
ffffe36b
00000612
00000015
00000a8c
00000944
fffffdde
0000023b
fffff661
000007ef
ffffe7b5
00000a0b
ffffffb3
fffff9b4
fffffcfe
fffffdf1
000010c6
000029cf
00000fc6
fffff8b1
00000825
000008b5
fffff40a
ffffefb3
ffffff2f
00000a72
ffffeb29
fffff6ae
00000768
0000008a
00001250
ffffedc0
00001e6a
ffffec1d
ffffe5c3
ffffff3d
fffff155
ffffff80
ffffff0c
fffffd78
fffff51c
00000598
fffffbe6
00000e45
fffffdab
fffff387
ffffea2e
fffffdc6
ffffef97
ffffee8c
000006d2
ffffe904
00001242
00000211
ffffff6f
fffff29f
000009e2
fffffff6
fffff721
00000295
ffffea3e
ffffeadb
fffff184
00000485
fffffff5
00000d90
fffff41b
0000076e
fffffe87
fffff3ce
000004fb
ffffff25
fffff7de
0000008b
fffffe53
fffffe03
fffffaaa
ffffef21
000000f7
fffff59f
fffff2cf
fffffce3
0000097e
00000266
fffff922
fffff89d
00000839
ffffe103
00000a4f
ffffe7c5
ffffedb3
fffff95a
00001c0f
000015b0
00000923
0000049c
ffffe7ec
00000207
fffff8e6
fffff571
00000200
fffff9e9
00000b3d
ffffe6f8
000000f8
fffff4a2
fffffab4
000003f0
fffff18e
00000220
fffffd41
fffff775
fffff9ea
fffffe00
fffff612
00000017
fffffc67
fffff819
0000148e
0000055e
fffffb0d
000001e3
fffff2b9
fffffa5a
fffffbdd
ffffefe1
00000502
fffff976
fffffb67
fffff8a5
00002643
fffff76f
ffffe541
ffffeb50
000009d1
00001148
fffff72f
00001089
00000997
fffffd8d
fffffca2
00000257
00000b58
00000523
fffff740
fffffdbf
0000199e
00000340
00000b3e
000006fb
00000389
00000168
00000b9a
0000094b
0000036a
fffff708
000004fc
ffffff22
fffffc04
000022a3
ffffec1a
00000c65
fffff4d9
000001b2
00002136
fffff38e
fffff6a4
ffffffc6
fffff50c
00000b6e
fffff917
00000875
ffffeed0
ffffe8a3
fffffd0a
ffffebb8
000013a2
ffffec38
fffff295
00000559
fffff86b
ffffec5e
00001a60
fffff30d
fffffd76
fffffd4c
0000092f
000005fa
fffff54f
fffffbc9
fffffd11
000009af
fffff0e5
00001a18
fffff62f
ffffffe3
fffff100
ffffef37
fffff4b2
fffff374
fffffaa5
fffff358
000008fe
fffff5e0
fffff471
fffffaeb
00000cd6
000002c7
fffffeb6
ffffed79
fffff13a
ffffef78
000010e6
000006dc
fffff4dc
fffff8b4
fffff554
fffff48c
000005f4
fffffc48
00001ae9
0000102b
000010ee
000008ae
fffffa89
000007bb
fffffb7d
00001514
0000053a
00000364
000001a5
00001680
ffffed76
000017c5
fffffd98
ffffedd2
fffff646
ffffeaa8
00000874
fffff293
0000022e
00000eaa
fffff750
fffffc89
ffffef26
fffffafb
00002148
00000a0f
fffffc94
fffff817
ffffff73
000001ae
fffffa95
000006db
fffff3ac
fffff39c
000004c9
fffff0e4
0000096d
ffffffd1
ffffe85d
0000016a
ffffea36
000008f7
fffffcc9
000017ef
00000dda
fffff249
ffffe5df
fffff63d
fffff036
0000179b
ffffffde
00000c12
fffffc51
fffffdad
ffffff94
00000e4f
00000407
fffff254
000014fb
fffffc37
fffffa1c
ffffdb6a
00000834
0000014e
0000014b
fffffacb
fffff890
fffffb39
000005fd
00000844
fffffd03
00000c45
fffffefb
fffff97b
00000291
ffffee6c
00000302
ffffec0f
fffff2b6
ffffe5e6
fffffdbc
000014d0
fffffe7c
00000852
00001e6a
00000539
fffff61b
fffff7e3
00000002
fffff7d1
fffff8c9
00000cbd
00000d45
ffffeab5
fffff56c
fffffa00
000007bf
00000ec8
000022f0
fffff9fb
fffffaa0
0000079c
fffff72e
fffffe2d
fffffaa2
ffffde1a
00000198
fffffda4
00001070
00000012
ffffefc7
fffffcaa
ffffe4f6
fffff058
00000838
fffffccd
00000bee
ffffe691
fffffcdd
fffff9da
00000c5c
000008b3
0000084e
000013ee
fffffb3e
00001143
fffff280
fffff206
000009bc
ffffec8b
00000768
0000014f
00000ddc
ffffff3b
000000ba
00000696
fffff76f
fffff6de
00000622
ffffff9f
fffffabc
fffffeee
0000149e
fffffa46
fffff9e6
ffffe9ec
ffffff74
0000087e
00000ad0
00000166
00000c5c
00000974
00000e64
00000cba
0000144d
fffffdce
ffffeed7
00000895
00000a18
0000144d
00001091
00001928
00000804
000002f5
ffffee18
000003fc
fffff8db
000002bc
000000b4
00000619
fffffebe
00000c17
ffffdcca
00000275
00000f8c
0000182e
00000977
000015c9
0000022f
00000009
000006d8
fffffff5
fffff5e2
fffff957
fffff19f
000006d5
00000026
fffffb57
fffff8ac
00000688
00000a17
fffff162
ffffef5a
00000c57
ffffee38
00000714
000014e8
000014f0
0000098a
0000092a
00001d1e
ffffe1d1
fffff9ff
00000af9
fffffba4
00001008
ffffff7e
000001b4
fffffc73
fffff93e
fffff8ed
00000382
fffff5fc
00000c53
00000872
00000e37
fffff167
ffffea07
fffffff2
0000257b
0000105f
fffff8d5
0000057d
00000968
ffffee4f
000011b6
fffffdd6
fffffed4
0000004f
00000ecd
fffff63c
ffffe9ee
0000042d
ffffe593
fffffc1b
00000f59
0000077d
00000d7a
00000805
00001f2a
fffff865
00000526
fffffa56
00000c5f
ffffff34
00001639
fffff923
00001232
000007ab
ffffff95
00000704
00000361
0000049a
fffffd53
fffff6ee
fffffbab
ffffea3d
00000ae3
fffff008
fffffd30
00000861
00000ada
ffffe90e
fffffed0
000005f2
000000ac
00001161
fffff560
ffffe582
00000a7a
fffff90e
ffffe943
fffffdf3
00000fe9
ffffefab
00001e34
fffff52b
00000120
fffff03d
0000008a
fffffe45
ffffecbe
0000248a
fffff998
fffff99b
00000c88
00001775
00000e91
fffff078
000002c4
ffffe7ad
00000ba9
ffffeadb
fffff59d
fffffff5
000005c1
fffffca0
000013a4
0000095a
00000856
fffff01b
000015f9
fffff59e
00001677
00001a26
000006a1
00000d58
ffffd823
fffffd7b
00000e40
00000bf4
fffff03b
fffffc34
ffffdf34
00000557
ffffe7a6
00000e9e
00000f4b
fffff9de
000006bd
fffffd31
00000321
fffff12a
0000080c
ffffeac8
ffffe857
fffffe6c
fffffd45
00000385
fffff79a
00001862
00000214
00000303
0000028d
00000cf8
00000773
000005b7
00000984
ffffe868
ffffe8e5
ffffff04
fffffd72
0000077f
00000042
00000786
ffffefe5
ffffffdc
ffffeea9
00000501
ffffe7b7
00000481
ffffed02
fffffb0a
00000b92
000002f1
ffffeab9
fffff74e
ffffec96
ffffea16
00000185
0000073f
000005b2
000007cb
ffffffd9
fffffc77
fffff220
fffffa4f
ffffeeea
fffff512
00000126
fffffe7a
000027a0
ffffee99
fffffe62
ffffed97
fffffafc
fffffb83
00000aed
fffffa30
fffffd87
fffffa70
ffffede2
fffff791
fffffb10
000000f4
0000073a
fffffcf7
fffffcbd
ffffe9c0
000006fb
fffff701
000009a9
00001106
fffffd92
fffff2c5
ffffffc9
00000482
fffffbec
fffff8b5
00000749
0000066f
fffffb86
ffffea9d
000005e7
fffff614
000002c5
000001f4
ffffe793
0000010c
000006a7
0000083d
00000184
ffffe66f
00001083
00000551
fffff071
fffff5d0
000002fd
000008ca
fffff9b1
00000aad
ffffe8d2
fffff285
ffffe54f
fffff466
00001380
00001a9b
00000309
fffff7bf
fffffd22
0000061f
ffffebca
fffff899
0000128e
fffff27b
fffff651
0000002c
000003a9
fffff7eb
000000ff
000007dc
0000195d
fffffe5e
ffffff77
000013c0
fffff8e6
ffffeee0
0000033c
00000dea
000004ab
fffffebf
ffffed46
ffffff3f
00000ff2
fffff00b
fffffcd6
fffffafd
fffff6fb
00000335
000005bb
00000599
fffff35f
ffffeab8
00000365
fffff975
000017c5
0000185e
000019bd
fffff3d8
0000075d
00000b43
000009ce
fffffb6b
0000108a
00000002
000001a8
ffffec1e
00000856
fffffca2
00000602
0000030a
00000257
ffffff69
00000a2c
fffffd6e
ffffed2f
0000075b
fffff58a
ffffeee1
fffff2c8
000003aa
fffffec1
ffffe46d
fffffb0a
00000f1e
fffffa2a
fffffddc
00000d7c
00000a49
00000d36
ffffdc27
0000166a
0000083b
00001fd4
fffff5e2
ffffe933
00000018
fffffc70
00000874
00000de6
fffffedf
fffffce3
000006c2
fffffcb0
fffffb9b
00000d69
0000104a
00000e04
fffffdd3
ffffe455
fffffe15
fffff633
fffffe53
fffff753
ffffffbb
fffff290
ffffef71
00000fcf
fffff376
00000001
00000c58
00000bd2
00000a47
000003eb
0000095d
000011c1
0000057f
ffffe83f
fffff92b
00000901
fffff7e4
000014f3
ffffff2f
0000011a
00000e8b
fffffda3
00000247
00000ba0
ffffecf7
fffffc50
00000ab9
000000d9
000012f9
ffffeba0
ffffea26
000009f4
00000b32
fffffd80
0000052d
000009a3
fffff57a
fffff6dc
00000274
00000bb1
fffff0ed
fffffd71
fffffcd8
00000567
ffffffe3
fffff8f1
00001025
fffff907
fffffc39
ffffeb6c
fffff6c6
000006ac
00000425
000007c0
00000720
00001afe
fffff655
ffffeb10
fffff26b
fffff6e7
fffff367
00000136
00001032
000013e8
00000685
00001bb0
fffffb64
ffffeae4
00000d9e
ffffe83a
fffff63d
000006ba
fffffead
fffffd88
fffff0bc
ffffffdc
00000cfa
00000042
fffff544
ffffefdf
fffff588
00000513
00000471
fffff5a6
ffffe36a
0000056e
fffff465
000008e9
fffff639
fffff33a
000001fb
00001e7c
000009af
000001c3
000004a4
ffffe95c
fffff17d
ffffdf89
0000165e
000013c0
00000514
000001bf
ffffebf0
fffffd2a
0000172d
000001b3
fffff8b3
ffffe945
000011d9
ffffff18
ffffe949
fffff40d
ffffef7b
fffffe4c
000002ae
fffff97e
00000a0c
00000105
00000dbc
fffffb62
00002760
fffff8b4
fffff452
fffff2bb
fffffd46
ffffe9c4
000003cf
ffffe75d
00000217
ffffee87
fffffb12
000007d1
00001dcb
fffff210
fffffe0e
fffff6a4
fffff4c1
fffff6c1
00000aa8
fffff9b1
00001d15
00000561
fffff2f1
fffffb42
fffff5a2
00000a58
ffffead0
ffffeea9
fffff85a
000008d5
00000ff2
000011da
000006da
fffffeee
00000a46
fffff134
ffffe826
000005a5
fffff2ff
ffffff28
0000018c
00000335
00000c20
00000ac2
00000285
fffffa49
00000165
fffff84b
fffffd76
000021da
0000025b
000005d2
fffff6e1
00000d31
000009d5
000009ec
000002c7
00000d5f
00001071
000003a9
fffffe85
00000b91
fffff44f
fffff6b8
ffffff50
ffffe97c
00000ab3
fffff38d
fffff9e7
fffffd3e
00000082
fffffb8e
ffffff21
ffffff3b
fffffa38
fffff601
00000dfc
ffffe4ca
fffffd57
fffff9f0
0000056a
ffffed32
fffff98a
fffffead
00000dd6
0000044c
fffff0b3
fffff9b2
00000b75
fffff079
fffffefc
ffffffe2
fffffb03
000022db
fffffaaa
000005d1
fffff617
000006d3
00000b42
fffff866
ffffff4b
fffff46d
fffff134
00000d68
fffff8d6
ffffe0cb
000016d3
fffff5a1
fffffcd0
00001538
fffffe2b
fffffde3
fffff01f
ffffeadd
fffffdd9
000004b1
000003f3
fffff9c7
00000043
ffffe83f
000005f3
00000216
00001985
00000019
fffff3d0
ffffff58
fffffbc3
0000059f
00000059
ffffefb5
ffffeada
00000366
000011e2
00000107
00000a84
00000d18
00000373
fffff578
00000286
00000f9b
000006da
000009ad
fffffa05
fffffd62
fffffe77
ffffff56
00000f1a
ffffe1a7
00000065
fffffef9
ffffee44
000008b0
fffff6a2
fffffb62
000017e8
00000d0f
0000076e
000004ec
fffffddf
000019da
00000a5f
fffff64f
ffffede6
00000754
ffffff47
ffffed86
0000058b
fffffc86
000006dd
000005b6
fffff823
0000082f
fffff990
fffffa67
fffff91e
00000ea0
fffffc5f
000011bf
0000170f
fffff673
ffffda3b
00000d81
fffffb94
fffff4cd
fffff863
fffffaa3
000010c6
00000211
00001099
00000664
fffffc00
fffffaf4
00000743
00000a9c
00000ce3
fffffc9e
00000244
0000078d
fffffb09
fffff153
fffff593
fffffce2
00000890
00001047
ffffee77
fffff847
fffffb5f
00000a47
fffff92c
fffffa72
ffffedbe
00000640
fffffdea
fffff78b
fffffca5
00000e92
fffff302
fffff51e
00001031
000000fb
000008a9
00000532
ffffff8b
fffffb7f
00000ac1
00000f07
00000e05
fffff0ac
000010df
fffffb5f
fffff63d
fffffdd0
00000abf
000006fd
fffffcb3
00000ad5
000001cf
fffff897
fffff6d8
0000054e
fffffeef
ffffee37
00000af4
fffff9ca
00001496
ffffeddc
fffffdaa
fffff6f3
fffff363
fffff9b5
000016e5
000001db
fffff5c3
ffffe85b
ffffe9be
fffff910
fffff7ce
fffffd1a
ffffe29f
fffffed1
00000d4a
000014fc
ffffe781
fffff5a3
fffff4f4
000001e2
fffff03a
000015c0
00000090
fffffe68
00001498
ffffffcb
0000052d
fffff64b
ffffee48
fffff81c
00001c47
0000082f
0000038d
fffff360
00000bc8
ffffee72
ffffebbd
fffff8c6
00001945
0000188a
fffffa2a
fffff748
ffffeaca
00000102
00000218
00000a35
00000bc7
fffffd73
00000730
fffff6f1
000006f2
fffff971
000005f1
000004e5
000000e4
00000a46
ffffebb2
fffff23b
fffffc82
ffffed57
fffffabd
fffffb28
000010ef
000001d8
00000d4f
000003e7
fffff913
000001bb
0000096e
00000f6e
fffffe4a
ffffeab3
ffffe9ca
fffffbc8
ffffe1c5
00001736
000007b8
fffff7c8
fffff1a7
00000d4b
fffff19a
fffff2d6
fffff619
0000017a
00000807
00000f6c
00000d83
00000003
00000d32
fffff753
ffffe875
fffff753
fffff593
fffff7d4
fffff398
fffffa0a
00000804
0000162e
ffffe9b1
ffffef5a
fffff5c4
000009e7
fffffd5a
fffff6a3
00000944
00000c5e
ffffffc2
fffff572
0000037f
fffffcfc
fffffce2
fffff960
00000bf6
0000033b
00000d64
00001147
000005ef
fffff974
00000d74
00000605
000021a9
00000402
00000905
000003c1
fffffeb8
fffffca7
000003ce
000006bd
00000eed
000003fe
fffffa04
fffffbc6
ffffeee5
0000157b
fffff901
00000c82
00000393
000003ed
fffffe7b
fffff5d0
fffff37a
00001659
00000179
00000e8d
000011e8
fffffab0
0000057a
00000095
fffff10a
fffffd9a
00000799
fffff98c
fffffbcd
fffffdc2
00001b4d
ffffe849
0000067c
fffffcb9
fffff7b7
fffffc68
000008a1
0000095e
00000268
00000e21
00001068
00000a8e
fffff8f0
00000665
00000674
fffff574
ffffebb5
ffffe5d8
000000e7
000003db
fffff0b8
00000d86
000001f8
00001173
000004ca
fffff236
000005ed
000008aa
fffff8eb
ffffed5b
0000014c
fffff30f
00000e7e
fffffabc
0000164d
ffffe489
000001be
0000127b
fffff47d
fffffdf1
fffffaca
fffff729
0000032a
ffffef40
fffffe91
000006ac
fffffd38
fffff311
00000d52
00000971
fffff28a
ffffef44
fffff3b1
0000070d
00000390
00000a37
fffffbc8
fffff40b
00000be1
fffff8d8
00000269
ffffebf6
fffff8a2
00000d0d
fffff6bd
00000a88
ffffe1dc
fffff8c4
fffffdc9
00001688
fffff0e2
000008ad
00000dab
fffff6ac
fffffb2c
000001d5
ffffecd8
fffffa1e
00001080
000006c2
fffffdf9
00000176
00000783
000009fd
fffff8ce
000013d8
00001105
000008c2
fffff51a
fffff2cf
fffffbc7
000000c9
ffffe922
00000665
000010a6
00000774
fffff742
fffff5ba
000003e1
fffffe05
000005ba
000007c8
00000e1e
fffff15d
000002de
fffffb4d
fffffeba
00000b2d
00000c95
00001215
00000581
fffffe94
fffffcbb
ffffe992
00001153
fffffbd6
0000068b
000008c8
ffffefe6
fffff410
00001401
000003c1
fffff87e
fffffe5e
00000e0c
00000c15
ffffed0b
00001522
00000c7e
fffffe07
fffff097
00000da1
00000629
ffffed27
fffffd00
0000286c
00000037
fffff668
fffff2f6
000016ea
00000af6
00001233
00000336
00001037
fffff508
0000021a
000003b6
000011e0
0000041f
fffff7ea
000000d4
ffffea53
ffffe1fd
00000ac0
fffffb28
fffffc9f
00000abe
00001210
000006e9
000018ee
00000680
000003e8
0000031c
ffffef61
00000c5c
ffffe061
fffff86b
0000004c
fffff5ca
fffffa29
000017c8
00000e46
fffff722
fffff9ee
ffffef7d
0000091e
fffffcc5
ffffe693
0000014e
000005ad
00000c74
ffffff0d
fffffb2e
000019af
00000016
0000094e
fffff906
000008ec
ffffed2e
fffffa07
fffff061
fffff82d
0000102b
fffff815
00000949
0000139e
ffffffa5
00000cd9
000006de
00000181
000009b4
000017ca
fffff7c3
fffff399
fffff2d7
00000cdc
00000e9a
fffff90e
ffffe462
fffff747
00000715
ffffff23
00000255
fffff93c
00000d1d
00000470
00000795
0000020f
000006c8
000005ee
fffff400
000004d3
00000a3c
00000ef0
00000561
fffff385
fffff582
fffffa60
00000273
fffffe6b
fffff178
fffff165
ffffe4de
ffffd7aa
fffffe4c
00001e00
0000173b
fffff35a
000001f0
ffffed10
ffffef09
fffff084
fffffd16
fffffda4
00000344
00000893
fffffba5
00000078
fffff1db
ffffee9e
ffffec9e
00000865
fffffba2
ffffe7ce
ffffff2f
ffffefda
00001578
fffff884
000008d0
00000e15
fffff3a7
000000fc
00000728
0000017e
000004ab
ffffeecf
0000072a
fffff9b7
00000485
00000be5
000008a6
00000482
0000084d
000008e7
00001356
ffffff8f
0000021f
00000c0d
fffff9a9
ffffeebc
00000661
fffffd56
fffff063
00000679
00001281
ffffeaed
00000d38
ffffdf32
fffffad3
000017cc
fffffbc1
0000012a
000009dd
ffffe9ce
000000ef
000000d5
00001814
fffff006
fffffb11
fffff3ff
fffff2a0
00000e94
00000058
fffff8d1
fffff94e
fffff8b8
fffff9e0
ffffefa7
fffffca8
fffffb5b
fffff634
00000201
0000031a
fffff8cd
fffffe23
00001be9
00001b6b
fffff25f
fffff42d
fffff24d
00000dab
fffffad9
00000319
000019d2
ffffffdd
00000922
000006bb
fffff865
00000db2
fffff503
00001153
fffff867
fffff9d2
fffff1ed
fffff40d
fffffa7b
ffffe090
fffffcfc
fffff96f
00000a37
00000578
fffff6da
fffffa12
fffffcf7
00001337
fffff55e
fffff6b2
fffff168
ffffecd6
000003f8
000002a0
00001096
00000d77
00001eff
ffffff0b
fffffca2
ffffef30
00000902
00000188
0000086c
fffff145
0000048c
000002a7
000001cc
fffff72a
00000f61
00001a83
fffff1a5
00000951
ffffdaca
000008a5
ffffe7d2
fffff936
ffffef06
fffffd36
00000ad8
ffffe7fc
fffffb5a
fffff95d
00001471
00000595
fffff0c7
fffff9e8
0000141f
0000093d
fffff421
fffffc8c
fffffcf6
fffff90b
ffffe9e3
fffff73d
000011f6
fffffb12
fffffeaa
000001d1
00001cae
0000001d
00000e25
fffff844
fffffca5
0000002a
fffff5fe
fffffd5e
00000b7c
fffff5a7
00000000
0000092a
fffff557
00000e2a
000000f1
fffffddd
ffffe609
fffffb2b
000004ce
00001691
00000758
00000e90
fffff05e
fffffe5c
00000fc9
fffff486
00000c7b
0000097b
0000038d
fffffbc0
fffff33f
000016f5
0000082c
00000467
fffffaa9
0000007d
00000221
0000052c
0000097f
fffff5e2
ffffed09
00000117
ffffe969
fffffbd1
fffff96b
0000065c
000019a3
ffffe6db
00001d68
fffffcfd
0000047f
ffffedb5
00000ce4
00000089
ffffff35
ffffe6f3
000000f4
00000af0
fffffcf2
00000f2f
00000ea6
fffff7b6
000014a0
00000096
000000a5
00000148
000000e5
ffffddfe
fffffd9a
ffffee5d
00001507
00001482
00000b04
fffffceb
fffff2f7
fffff77f
0000191e
fffff70d
ffffe18b
00000d52
00001367
00001574
00000d6d
00000f89
000000af
ffffe527
0000005c
00000809
fffffe40
fffffda9
fffff389
fffff30c
000017c4
0000183c
fffffff7
000003a4
fffff351
0000084f
000016c1
ffffec3a
000005ff
000006f8
000006d2
0000153e
00001a53
fffffcfb
000008b4
00000117
fffff7d4
00000380
000008af
000002ce
fffff49b
fffffa02
fffffa1b
fffff51b
0000040e
00000568
00000caa
fffff4e9
fffff889
0000141a
fffffde0
00000064
fffffdbc
00000ea6
00000f27
00000e65
00000058
fffff4b8
000018e5
00000b12
fffffa18
00001269
fffff913
0000123e
0000131d
fffff416
00000786
00000a1d
000021d0
fffff667
00001286
00000039
ffffeff3
fffffe73
00000008
fffff24f
00000409
00000c62
00000314
fffff8fe
fffffe15
fffffff1
000002cf
00000e5a
00000384
ffffeddd
fffff8bb
00000226
00000e89
000010c8
000016f2
000001b0
000009df
ffffed32
0000058f
fffff219
ffffff31
0000272d
000003ed
fffff4d5
00000546
fffff950
fffff394
00001b32
00000dcb
00000478
fffffaef
fffffbfb
000013f2
000003f7
ffffd824
00001f4d
0000025e
00000471
00000e0d
00000605
000009a8
fffffa85
fffff019
000003a0
00001283
fffff7a0
fffff696
00000fca
fffffa16
fffffab1
fffffb2d
ffffff29
ffffeba7
fffff907
000002fb
000002e3
00000ef9
000017c9
0000138e
00000bd4
fffffe14
fffff7f2
0000003b
00000792
00000aa1
0000080e
fffffe6f
00000a2d
0000104e
00000b61
