00000fea
00000d69
ffffef0b
fffff028
00000cf9
0000233f
fffffe0a
0000062e
ffffe746
fffff3db
00001fbc
000004c0
00003aae
00001eb8
ffffe270
ffffefd6
00000112
00002181
00000d66
fffffbe8
00002022
000000ab
ffffc679
0000196e
000007b0
ffffe785
ffffe107
00000a2d
000007a0
ffffe316
00000a96
fffff57d
00000112
00002eb7
ffffeb22
000015c4
ffffe2d2
00001035
000011ef
00001b76
00001d8f
fffffeda
00000524
00001277
00001919
0000020b
000014dc
00000937
ffffdef0
00001a6c
fffff45e
ffffdf86
00000ef1
ffffcf9d
000012c6
ffffca66
00000a22
fffffd99
ffffedba
fffff224
ffffe697
0000054c
fffff722
000000c2
ffffff6d
000002d4
ffffef7c
fffff84d
ffffff54
000007f6
00001232
fffff800
ffffe770
00001d12
00000ae2
ffffd811
fffff34e
00002715
00002c82
fffff301
fffff052
00001490
ffffe17f
ffffffd1
fffffa55
00000510
ffffed77
fffff5c8
fffff62e
ffffe1dd
00001013
fffff88f
fffff959
000012aa
ffffdcbc
000020ed
ffffeda6
00000e75
000006a5
0000240a
00000835
0000126e
ffffcb1e
00000085
fffff7cb
ffffe970
ffffe587
ffffd836
fffffa10
ffffe3ca
00001355
0000105d
00001e51
ffffeb9c
ffffd661
fffff78a
fffff3fd
fffffa90
000009b1
ffffe921
000015f0
ffffe870
ffffe540
ffffefcd
00000167
00002722
000024f0
fffffecd
ffffef15
000005e1
fffff7a7
ffffe039
00000912
ffffeb3f
00000f0e
ffffd81c
ffffe3d3
fffff504
000000c1
00000405
00000d17
00000a64
0000000c
fffff511
fffff36e
fffff5c1
fffffdf5
00000200
0000028a
00001b9b
00000331
0000185b
fffffd05
0000305f
fffffcf9
00001f43
00000c97
fffff1e3
ffffec79
fffff962
fffffaa1
ffffd68d
00000a37
fffff805
fffffd52
ffffe981
00001149
0000086c
000008c2
ffffeac3
fffff31e
000011e6
fffff615
fffff2ee
ffffecc9
fffff8ce
0000136d
00002937
fffff473
00002018
000010d2
fffffdc3
000016de
0000098d
fffffa0a
ffffd528
00002310
ffffd4d1
00001a5c
0000079c
0000227a
0000007d
fffffe42
fffffded
fffff5df
00000bc2
ffffe297
ffffd453
fffffa3e
00002770
000031df
000014d2
000011e8
fffffb96
00000de2
fffffd42
00000d69
00000664
000015c1
fffffc21
ffffee3d
00005f73
fffff869
00000d72
ffffd80d
00000c88
000003c1
ffffde3f
fffffdeb
00001415
fffffe34
00000f99
0000161f
00001ae3
00000b25
ffffdece
ffffee60
000006c4
00001723
ffffeaae
ffffe680
0000137c
fffff889
fffff3b5
000000cb
00001662
0000191f
ffffee85
ffffede4
ffffe61e
00001433
0000224c
00000c53
00001ed1
fffffdbd
000015c2
ffffec48
0000100d
00001810
00001d60
00001d0f
fffff798
000025a7
00001aab
ffffe8b3
00000c7d
00002cb6
000024a1
ffffef97
fffff62b
00000b7a
ffffe1d9
ffffe00f
fffffbfb
000024cc
fffffa3a
000004d2
00001723
00000d7c
0000117b
0000111a
ffffe13a
ffffdea8
ffffd294
000030aa
00001416
fffff96e
0000079e
00000b15
00002ab1
00000063
ffffdfcd
00000b00
ffffff00
000024e9
ffffeb4f
ffffdfab
00001de7
fffff676
00000de2
0000009d
00000e94
00001988
00001341
ffffd6a3
ffffe928
00002039
0000112e
fffff4f0
fffffe0d
ffffecdd
00001094
fffff95b
ffffedd6
fffff30f
fffff92b
ffffed01
fffff8c1
fffffbc2
ffffdc2f
ffffea81
00001845
fffffd59
00001bd8
00001426
00002696
ffffeb77
00000d45
00000914
fffff07a
fffff7c3
fffffc75
fffff7a6
000020a4
fffff691
000025e7
0000069f
000018b2
00000d1c
ffffea2e
000012c9
fffffdaa
00000860
fffff3d9
ffffdf75
ffffff8a
00001b1c
ffffda73
000019ce
ffffeaab
ffffe0bd
00001cfa
fffff3e2
000016d5
fffff83e
000028a8
fffff015
00000b9a
ffffedfd
00001133
000017ca
000004f4
00001608
fffffaa6
000006d1
0000051b
ffffd8e9
fffffaf0
000005b0
00002586
fffff21d
fffffcac
ffffdb07
ffffeeb8
00000137
ffffe78b
ffffe54c
ffffd080
ffffdf29
00001158
ffffe7cd
ffffe7fd
ffffd843
fffff941
fffff2ba
fffffe50
00001cbd
00001808
0000135d
ffffe110
00000bdc
fffffcbb
ffffe1b9
00000006
ffffff85
0000001f
ffffffac
00000db2
fffffe19
00001541
000002dd
00001cad
ffffd5f4
00000d56
00001b82
000009d3
00002c55
ffffe659
ffffe5a0
00002c3c
00000675
00000852
000012a3
00000a3d
0000280b
fffffacb
0000142f
ffffe02d
ffffc04d
fffffd7e
ffffff92
0000235a
000014d4
00002800
0000320b
00001f27
fffff83f
ffffe89c
000010ec
ffffef1f
000007c8
0000062a
ffffe84d
0000196f
00001111
fffffe9d
00003917
00001d4a
ffffdf00
00001a41
fffffb17
ffffe2a9
fffff741
00000f20
00000560
ffffec08
fffffc9a
00000697
00000214
0000124c
ffffd969
ffffef6d
ffffecd5
fffff0fd
ffffe67f
000005dd
00000c3b
0000028d
fffff3a0
0000124c
000010ae
0000085d
00002e7d
00001128
ffffc838
00000587
000015a9
00000936
fffff0e4
00002010
ffffdea4
ffffe85e
ffffea34
ffffe31b
0000113b
0000225f
fffff388
fffffca1
ffffdcd6
ffffe476
00000368
00000b6a
000023a8
fffff312
fffff7e1
fffff9c2
ffffe0a9
fffffefb
00000728
fffff199
fffff661
00002295
fffff182
fffff1a1
ffffee29
000004a3
00000c4a
fffff260
fffffd6f
ffffcee0
00001bd4
00001999
0000171f
0000102b
ffffe94c
ffffff6f
00001edb
ffffd9fc
00001ec1
0000085a
0000076a
0000078f
ffffda94
00001391
00000350
00000a05
00001fc2
0000097f
00000ae5
000002d2
ffffef95
00000cd8
0000128a
000017aa
00002b1e
ffffe206
ffffe354
00004105
ffffe917
000005ad
00000f20
00000c4b
00000693
00003033
ffffffef
000011f8
fffff6b9
fffff2a1
000013fe
fffffb49
ffffecf8
ffffd495
ffffeecd
00002216
ffffe910
00001002
0000009f
00001136
ffffd89e
00000077
000012ff
00003734
0000294c
fffff830
fffff825
fffff37d
fffffa34
ffffff85
fffffad8
00002a19
ffffdce3
000014a9
fffffc4a
ffffff41
00000609
ffffffb8
00000a96
ffffeba8
ffffe448
fffff801
fffff8b6
fffff198
00000538
000013c0
ffffffda
000024ea
00001de8
0000185e
ffffe7b6
00000446
ffffe55a
fffff604
000007d6
ffffdf4c
000007a3
fffff852
fffffe50
00002cc2
ffffeea0
fffff4ea
ffffe6e9
fffffe17
00002b1d
ffffedc7
000026db
ffffe8e0
fffffde4
fffffd46
00001066
00001583
000008d9
ffffe124
ffffba72
00003096
000011d0
fffff3a1
ffffd36d
fffff961
00000210
00000b3d
000006d4
0000031d
ffffe60b
ffffe6a9
00001400
fffff7c9
ffffeb4a
0000155d
ffffe9f9
00002ae7
000001cf
fffff293
fffff13a
ffffd5e3
fffff6bc
fffffc94
00000051
ffffff45
000049b4
fffff838
ffffc63b
fffff9b0
00002fa9
ffffd3e2
fffff4fb
fffff3e9
00001b56
00001516
ffffe969
fffff7b2
000003e7
ffffd233
000014c5
fffff4e1
00001a01
00000c77
000005c9
00002b9a
00000091
fffffcf1
00001068
00001df7
00001704
00000d65
00000b68
000000be
fffffa66
ffffd9f1
000011d9
fffff216
ffffd77b
ffffdfb5
ffffd463
ffffc343
ffffe865
00002ca1
ffffff67
ffffe461
fffff752
ffffe400
00000d96
fffff909
ffffcd1e
ffffe413
00000dff
000018b6
fffff409
00000086
ffffe2b8
00000e64
ffffeb68
ffffd6d1
0000131a
ffffec10
0000206a
ffffe8a8
fffff48b
0000156a
0000046a
00000517
0000178c
ffffe826
fffff6f2
000009e6
00000ede
ffffe0f2
fffff6aa
fffff260
ffffd581
ffffe433
000016c2
00003807
ffffe969
ffffe934
000007c1
ffffeee1
00000873
fffff32d
00000abf
0000144e
00000144
ffffe5a7
00001784
fffff17e
00000aa1
ffffe1fc
0000013e
ffffe60b
00002642
fffff70b
ffffd3e7
000023e9
00001467
00002875
00000252
fffff04e
fffffe58
0000068e
fffff16d
fffffea9
ffffda07
00002fee
000001a1
0000143f
0000178b
00000b02
0000043e
ffffd901
00001395
ffffe9e7
00000bf7
ffffffab
00000eda
00001145
ffffe288
ffffff25
00000c62
00001813
0000116b
ffffd3e3
fffff786
00000c31
00000b5e
fffff4ea
fffff948
ffffe9a1
ffffdd06
00001208
fffffcdc
00000364
000005e1
fffffe86
00002723
ffffeb55
00000008
fffffd6e
fffff34f
00003288
ffffeab1
0000084a
fffff753
fffff979
ffffdbdf
000013d3
00000fb7
00000582
00001a2f
000011fb
ffffea2a
000002c2
ffffee13
fffff8d5
00000ba3
000002d2
0000237f
00004098
ffffdc90
000007db
ffffe11e
00001cd0
00000442
ffffe0f7
00001a9e
00000b67
ffffedf8
fffffef6
fffff0bb
00001094
fffffb48
ffffec76
00003bb5
fffff2cf
00000eb8
ffffcb3c
00000268
fffff92b
fffffd24
00000145
fffff903
00000a99
00000b97
ffffff7c
00000c14
00002129
ffffd885
00000243
000006a0
00001fab
ffffeef4
ffffe654
ffffff5c
ffffe865
ffffff92
00000b16
00001969
fffff846
ffffeca1
00001f80
0000145b
000007cb
00000d16
00001497
ffffe6e3
ffffdfa6
000018b3
0000120e
0000078c
00001348
ffffffc0
00001605
000009c9
fffff0a0
00000e8b
00000136
000013d3
fffff6de
00000d78
00000134
00002613
000002f8
ffffe56a
ffffea7c
000013cb
0000058c
fffff876
ffffeaf4
fffffafb
ffffe2e6
00000637
000017f9
fffff35e
00000767
0000110c
ffffe8eb
fffffe1f
ffffe7c0
000029b3
fffff5fc
ffffffb0
00000a65
0000006d
ffffef68
fffff411
00002501
00001814
0000085c
ffffca37
ffffe1a7
fffff980
fffffd59
0000040b
ffffdb6a
ffffecb5
fffff7ca
fffffea1
000010b1
ffffee15
00000b15
ffffdb49
000005e5
fffffc93
ffffede9
00002362
00001348
0000130a
fffffe80
0000024c
00000db6
00003767
ffffd491
fffffad2
ffffffdb
ffffe537
fffffbc6
fffff3a7
00000bd7
fffff1a5
0000023a
00000d50
000017c8
fffff8df
ffffff73
fffffc84
ffffe35d
fffff7f5
000017c2
000000a3
ffffeadb
ffffed0c
fffffa66
fffffcfd
fffff665
00000f42
00001d68
ffffe01e
fffff997
000007c0
0000094d
ffffeb34
fffff372
fffff8fd
ffffe0be
000008c5
00000ba1
00002b0e
00000be3
00000ec9
fffff6a2
ffffe6b2
fffffb3a
fffffd7e
fffffb3c
0000154e
ffffe6e0
00001449
000004b2
fffff668
ffffe043
fffffc01
0000398a
ffffdbdd
fffffe4a
fffff110
fffffc86
fffff4d1
fffff847
fffffa7a
00000a6c
000004f5
fffffc85
ffffe98a
ffffefbf
00002a77
000003dc
ffffe569
00001645
0000093b
ffffc1a7
00002a39
0000010a
fffff582
000010a9
ffffc68f
00001848
00000dc8
000014c5
00000429
fffff41e
fffffd6a
0000048c
ffffdd58
000024cb
fffffbc1
0000002e
ffffe4d7
00000ba4
fffffbe7
fffffc50
000002a7
ffffedb8
ffffed10
ffffe6d2
ffffef4e
00001011
ffffd35f
ffffecca
fffff863
00001999
00000e49
0000047e
ffffec92
00001e3e
00002091
000010d0
00000c2c
ffffe924
ffffef65
00002761
ffffede9
ffffffab
00000353
ffffff23
ffffff51
000033e9
ffffe887
fffff0b3
000035e2
00000735
ffffeedb
fffffa95
00000db4
ffffee9f
ffffef44
ffffca28
000012be
fffffe0d
fffff54f
ffffeabc
000001fd
fffff97d
00001d50
0000157f
000004d6
00001bdd
00002ffa
000005ae
00002c01
fffffaca
fffff293
ffffeee8
0000073d
fffffc9f
00001469
000002eb
0000051a
fffffd16
000008b7
000006c1
0000052e
fffff4dd
00001cf2
00000e54
0000070b
00000a91
fffff370
000005d3
ffffd81d
fffffe79
00000102
00000b08
00001304
00001115
fffff91e
00001253
fffffa43
0000074e
0000025a
00000f36
00001522
fffff7cd
ffffedf4
00001ee6
0000023d
fffff956
fffff4b1
0000086f
fffff454
000007a2
00000c47
000007e8
00000924
fffff1a1
ffffe752
fffffa56
00000f26
00000fb5
fffff054
000013ee
ffffef58
ffffe997
ffffec3b
00002117
fffffc10
00000e3c
0000054d
00000c26
ffffeec7
ffffd353
fffffb44
fffff9c5
0000198e
fffff48f
0000281e
ffffecc7
fffff94d
fffffb57
ffffeea9
fffff2a4
ffffeb58
000018da
00000363
ffffd8e4
ffffec29
00001749
ffffed08
ffffeb2f
fffff266
fffff6dc
000001a5
00000199
00000d05
fffff2df
000009ca
ffffcfa7
ffffffb7
ffffee95
ffffd53d
fffff990
000008b5
fffff396
000014d2
00001f1f
fffff53e
ffffe59f
0000010d
fffff1e2
00000b79
00002954
fffff5a8
ffffe9e2
00000b22
00000279
ffffe1fb
ffffdb45
fffff050
fffffba4
00000243
000005cd
ffffe2c7
fffff9e2
fffffb12
fffffb70
00001b15
00000cd5
fffffb67
ffffffab
fffff527
ffffe7b7
0000003c
fffffb47
00001bb6
00001ad0
fffff0c1
fffff129
fffff551
fffff615
00000bd2
0000202b
00001e40
00001610
00000cc4
00001c11
00002150
ffffe2d0
ffffe319
000004fa
fffffca8
fffff24f
fffff0b0
0000048a
fffffcde
fffff58d
fffffbb6
ffffd812
fffffebf
000004f3
fffff8f6
ffffebc9
ffffe8fc
0000052b
fffffcd0
fffff59e
ffffef8b
000004ee
ffffe3b5
000031ea
000002f3
00000279
ffffeee4
00002908
ffffe99d
fffff0e1
fffff715
00001a5a
00001405
00000908
ffffff42
fffff15f
fffff3e7
00000ec0
0000111a
fffffdd4
00001088
00001ba5
ffffe614
00001bcf
000002bd
fffffc0e
00000a7e
00002eb2
0000064b
fffff1f2
00000929
ffffe494
00000575
fffffd52
ffffecbb
00000bd5
ffffff2e
ffffee0f
fffff460
00001483
000005f5
ffffe94e
00000273
ffffdb7d
fffff82b
ffffe036
00001a57
fffff075
fffff3c0
000024e1
000002a8
00000ebc
ffffff91
ffffe25f
ffffdd4d
00001556
ffffe3d3
ffffd7e8
ffffe0d4
fffff445
00000596
fffffc72
00000391
ffffef2c
fffff041
000021b6
0000043b
fffffd79
00000b0b
ffffec8c
ffffec01
00000240
0000160d
ffffd83e
fffffa43
fffff7be
00000867
00001214
0000147d
ffffd481
00001ed2
ffffeb05
ffffdb0a
fffffb21
ffffeac6
00000481
00000633
fffff9ca
00000b6b
ffffff17
fffff888
00000f62
0000039f
00000b47
00001870
0000072d
00000902
00002c7c
00003c78
0000039a
ffffefd9
fffff04e
ffffeadd
00001237
ffffe8e2
000022e2
ffffee2f
fffff91e
0000031c
00000c23
00000eee
00000b2c
ffffe1e8
00001441
00001a26
fffffd96
fffffe29
00001608
000008a9
0000110d
fffff41c
ffffe6d0
0000175f
000012b9
00000ef3
fffff8c8
00000e1d
000006db
00001c29
fffffadd
fffff155
000000c4
0000076c
fffff8bf
00000b61
fffff954
0000168b
00000d90
ffffdc00
ffffe0ae
fffff5ac
00001129
00000b97
00003928
00001e7e
000002e2
000009a6
ffffc887
ffffe904
ffffdb43
00001eca
fffffded
000008b6
ffffe672
fffff107
fffff294
0000181c
0000202f
ffffe5c1
00001a8c
fffff0a1
000026d1
0000014a
000015eb
fffff158
ffffedd8
fffffad1
ffffe134
fffff063
ffffdb94
00000abd
0000200c
00001400
000009f4
00002e45
fffff007
000009b5
ffffff0a
fffffabb
fffffc04
fffff01d
fffff7e5
00000718
ffffe4da
00001f80
000003f7
0000059e
00000eb5
00000cf5
ffffff76
fffffc2c
0000031b
00000b53
ffffe204
0000197b
00000f6f
ffffd872
fffffd6e
000011a3
0000167b
fffffe1e
00000eb9
fffff89f
00001ad2
00002091
00001572
00000962
000016be
fffff345
ffffcbcd
00001436
0000025d
fffffd09
00000182
ffffebfa
ffffd89c
fffffd46
00000758
00002268
00000ce5
000005ff
fffffbc7
fffffafe
00000a67
00003091
00000738
0000187c
fffff281
00001833
ffffeb12
000003a4
00001633
fffff1de
000007fd
ffffe4f8
fffff969
ffffe686
ffffe3b0
00001494
ffffdd32
00000d63
00000891
ffffeed1
00001efd
000010e1
fffffad9
ffffee64
00002370
00001a53
0000120d
ffffead5
00000722
ffffea27
000001ec
000008d1
000026b2
fffffc8d
ffffef2a
00000407
ffffff01
00002dac
00002d26
00001f9b
00000d2e
ffffdb07
ffffee57
00000214
00000f45
00001222
00001b90
00001e0b
ffffca12
fffffd9f
000005d7
000007ed
fffff6ab
fffff287
ffffcffe
00000c48
ffffea0a
ffffdf47
fffffb1c
00000fa3
fffff0de
ffffebfe
00001b73
00000da5
ffffe114
fffff04c
00001c51
fffffddf
00000e07
fffff44e
fffffe67
000015b1
fffffc7f
ffffe8f0
fffff049
0000162d
00000b2a
fffff368
00003bb1
00000e24
00000772
ffffe88d
ffffe934
fffff63c
00000e42
0000154c
ffffe891
ffffc914
00000cf8
0000029c
ffffe184
00003161
00000207
00001a0b
00000c78
ffffc4a2
fffff524
000006fd
fffffd50
fffffab6
00000c25
ffffef0e
00001773
000001c7
000000ee
ffffec4d
fffff5c8
00000be0
ffffdbab
ffffdbf8
ffffef7a
ffffef2c
fffffab9
00001a77
ffffd999
00001910
00000ad4
000000b2
ffffeb7f
00001fbc
ffffebe8
fffff8b9
ffffd75c
ffffce7b
000033ee
00002f7b
00000deb
ffffe65a
fffff288
00001519
fffff8f9
00000dd0
fffff90d
000000d4
000013a9
00001f35
ffffe9c6
fffff479
fffffbe3
000008c5
0000076c
0000162f
000002c3
00000a64
00000280
00000c72
fffff386
00000200
00002309
fffffda4
fffffd24
ffffd495
00001bae
0000030c
ffffff18
000032c3
ffffca9b
ffffbfe1
00001570
00000b32
ffffef22
00000b35
fffff360
ffffc540
00000037
000033d1
fffff744
ffffeac8
00000618
00000eaa
fffffb50
fffff295
ffffe52e
fffff1d1
fffffd63
00001382
00000e4f
fffff3d3
fffff7e2
00000ad0
fffff849
0000162d
ffffd7d8
00000c35
fffff967
0000184e
00001456
000009ab
ffffd602
ffffde0b
ffffe7ba
fffff8e2
fffff0c3
ffffe141
fffff608
fffffe68
fffff167
fffff16f
000005bc
00001363
fffff2bc
ffffe31c
00000273
000011f1
00000922
ffffe6e8
ffffd781
0000298b
fffff303
ffffffd8
00001fc5
000035ca
fffffbfe
fffff149
fffff0f0
ffffc1c3
00001bf9
fffff340
ffffed4a
00000c11
00000da5
00003958
ffffc1b6
00001676
ffffd511
fffff2b7
fffff0fb
000028df
fffffaf9
00000048
00000ce6
fffffeba
000020b6
ffffe553
fffff535
fffff9bb
00001337
ffffea35
000007df
0000100d
ffffe1e7
ffffda2b
ffffc934
fffff039
00001b74
ffffeb86
00001779
ffffe2be
ffffcfeb
fffff85f
fffff273
00003957
00002d7d
00001b5b
ffffe579
000007c1
00000bf0
0000459e
000011f8
ffffeeae
0000076e
ffffe4bc
000024ac
ffffe190
00000220
000004fd
ffffea62
fffff88e
ffffe37c
fffff21a
ffffe43a
ffffed3b
ffffce51
000018e3
ffffd05a
ffffebf5
ffffeb1d
0000058b
ffffec30
00001192
ffffdffc
00001de7
000019ac
fffffa72
00001edb
fffff51b
ffffdf6d
fffff612
fffffba4
00000829
00000f3c
00001830
ffffea48
00002d86
0000174e
000005df
000007f4
fffff89d
ffffe408
00002fbd
000001bb
000001cd
00000ebf
fffff38b
ffffeb54
ffffe3a4
00000b2b
00000927
ffffec7c
ffffe208
00000f53
00000089
00000700
fffff1c5
000013d7
ffffcc38
fffff078
ffffea2d
000021e2
00000d34
ffffffd6
00001b84
00001481
ffffff23
ffffd40b
000006fd
ffffc627
ffffe5ac
ffffcc3f
00002066
ffffedd5
00000345
0000027f
000002bb
00003214
ffffe7f7
0000121f
ffffefc2
ffffd9d0
00003190
ffffe377
fffff8dc
ffffda5d
000001bf
000014ef
fffff4a4
ffffebeb
ffffe42d
ffffef44
000015dc
00000684
00000f7b
ffffc437
000037cb
fffffd1c
00000d9e
fffff185
ffffd9f1
fffffb69
ffffd165
00000ef1
ffffe516
ffffe560
ffffff46
ffffeeba
fffff2c5
000002aa
000000ea
00000bbd
00000d3e
00001ce3
0000046f
000009b3
fffff5fb
00000f9f
fffff2d2
fffffb6d
00001c34
000020c0
000042ed
00000267
ffffe376
00002386
ffffd581
0000184e
fffffb6f
00002107
000003ec
00000854
00000357
00001815
00000720
000019e7
00000670
0000028c
0000014f
ffffdb32
fffffd2f
fffff733
ffffea2a
fffffbcd
fffffc8f
00000bef
fffffb04
ffffeaf6
00000121
fffff622
0000040b
0000043e
fffffbff
00000240
00001efd
ffffe84b
00000f12
000026c7
ffffe25c
00000aa4
00001dd9
fffff285
ffffe6a4
00000615
fffff15b
ffffe687
ffffffa1
000009fe
00001085
00000764
000010ac
00001704
fffff9de
ffffff8d
ffffe54d
fffffcbc
ffffda30
ffffe039
fffffa53
00000c36
ffffe041
00001709
0000011b
00001c04
00000c8e
fffff5bc
fffff992
00001986
fffff447
fffff55b
fffff0a7
ffffe9ad
000015de
00000038
000015b0
fffffae9
000004f3
fffff9f4
00000896
00003f4b
ffffe7e9
fffffc95
ffffeaee
fffffdcb
00000888
0000174f
ffffeeaa
00001a8f
ffffeed8
00000809
fffffa75
ffffe7d0
00001b87
ffffea1a
00000d48
fffff994
fffff0a5
00000c2b
ffffeebc
fffff6e1
fffffc00
fffffdf8
fffff694
fffffb34
000012f8
fffff044
00002143
ffffef98
ffffed36
fffff4ac
00000dea
00000c8f
fffff2ce
fffff9ae
fffff7d5
fffff10d
00000b26
ffffdfcc
00002d06
0000040d
ffffec41
ffffd628
00000aec
ffffe382
ffffccc4
00001e4b
fffff5cb
00002202
000005b0
00000356
ffffe725
fffff4a0
00000d7f
00001c79
00000fbc
0000056a
ffffd3e9
00001b24
00002aae
00001cab
ffffec25
ffffe6f1
0000112e
fffffd15
00001a8b
ffffef5f
0000111b
ffffe7ef
000018bb
ffffef6c
fffff96b
0000271a
0000367d
fffff296
000003bc
ffffdddb
00000aa9
00001405
fffff1c8
fffffbfb
ffffebc8
000006ac
00002111
fffff0a1
fffffbb5
fffff331
ffffed8b
0000101c
fffff0f7
ffffe3ab
fffff51c
fffff594
fffffb32
00000130
00000de6
00002744
00001ee8
00000e62
00000ace
ffffd83b
fffffc90
ffffffec
00000cc5
00001c88
fffffe1e
00000484
000021b9
fffffc67
fffff1a6
ffffece6
ffffe991
00000664
fffff0f1
00000428
fffff2e2
ffffe66c
00000aba
00002c71
00001928
0000222a
fffff71b
fffff7c8
00000be0
00000a2d
0000037b
fffffeca
00002af6
fffff8a0
00001de2
00000160
00000b03
fffffc2a
00000f21
00000d39
000021b0
00000ec7
ffffe8d9
fffff602
0000036b
fffff1a0
000009ce
000016ae
00000cbf
ffffea0e
ffffdd02
ffffed2a
fffff4d5
000005ca
ffffe720
00003668
00001a3f
000007c1
fffff920
0000077a
0000079b
ffffd234
ffffc47c
fffff67a
000023f0
000001ef
00002460
00001ddb
ffffed1a
0000154e
00002bd1
fffffc41
fffffd45
fffff0f5
00000a0e
0000059f
000002ef
00000794
00000690
fffff610
fffff288
000002ac
0000150d
00001255
fffffef9
ffffe16d
ffffef48
00001bdd
00000e05
00000e01
ffffe17a
fffff6eb
ffffe1fa
ffffeebe
fffffac8
00001bfe
000022a5
00001886
fffff2b2
fffff2ed
000004c7
ffffe313
00000d83
ffffeaab
000009fd
fffffede
fffffe15
ffffda41
ffffee10
0000241d
ffffdb9f
00002a83
00000b6d
ffffe666
ffffdeb7
00000363
000009cd
00000c51
00000de4
00000dbd
ffffed20
ffffe561
000013a4
000011b5
fffff1dd
00000fe8
fffff4ae
fffffc25
fffffc93
000001cc
fffff3d0
fffff22e
00000316
ffffe3d1
00001270
00001ccc
ffffdcad
00000128
00000099
ffffc3bc
000009ca
00002208
fffffd91
ffffe2b1
000005f8
000001ef
ffffd9c2
00000292
ffffe1d7
000006e6
000009ca
00000f37
00001757
000013c3
00002209
fffffd6e
00000ce5
ffffff22
ffffd855
00000411
000001a6
00001599
00000c2e
0000193c
ffffedb1
000017be
00000975
fffff983
ffffff72
00000913
ffffea59
000011ab
00001e8c
fffff487
ffffff5d
000011e0
00000c26
000019cc
fffff38c
0000102d
fffff6dc
00001c38
fffffaf4
ffffefac
00000c81
ffffc8c7
000003b9
fffff556
ffffe4b1
00000923
ffffec09
fffff31b
fffff546
00000f2b
fffff7c5
00001f7a
ffffed5a
fffff7e7
ffffdf1e
fffff917
fffff77c
ffffe5e8
fffff23a
00001344
ffffe96b
00000cca
fffff1e3
ffffd9f2
0000174e
fffff69c
fffff1bd
00000708
ffffff63
000008eb
00000739
000003be
ffffe2f1
0000384c
ffffe0fe
ffffe6c8
0000126b
ffffe425
000011bf
ffffe501
fffff54d
fffffd11
00001774
00001196
fffff2ec
0000167e
000010df
00001e88
00001945
000009d0
00000ca1
00001401
ffffd7fe
fffff286
0000022d
00001e09
fffffc0f
00000e1a
00001ce3
00000fb2
ffffffe9
ffffd3c7
ffffde43
00001786
00000f1d
fffff207
00000367
fffffdfc
fffffa68
fffffa7d
fffffcf1
ffffd641
000010bd
fffff121
00000051
fffff713
00000fa8
fffffa1b
ffffd7bc
ffffe98f
fffff2ff
ffffdfc4
fffff914
fffff0cb
fffffea7
fffff6e8
00000f57
fffff9e2
fffff52e
ffffe5b0
ffffec4e
00000645
ffffee30
000020e1
00000e03
fffff412
fffffe5e
fffffbe9
ffffedb6
000001fb
fffff0c9
0000136d
000009ba
00000509
00001463
fffffaad
fffff581
ffffe32f
00000824
0000072a
ffffef1d
0000036f
00000297
00000ecb
000001af
00000513
ffffed7f
fffffc63
ffffdee6
fffff8a7
fffff3cb
00000078
ffffede6
ffffeec6
ffffedf7
fffffc92
ffffef19
ffffeb5f
fffffdc6
000005e8
fffffb8e
ffffecd5
fffff786
ffffe31a
ffffeb15
00002b6b
00001c6a
00001ba5
fffff53b
00001234
000009d7
00000afa
000005b8
fffff707
ffffd0de
ffffef37
fffff902
fffff70d
fffffe57
fffff115
fffffae8
000016e0
00001349
00000f69
000014fa
fffff234
00000591
00001f7e
0000130f
fffff746
00000572
000036b6
fffff870
000008e0
0000085a
ffffe57a
00002911
0000030b
00000c48
00001998
ffffedda
0000168f
fffff1aa
00000cd5
ffffebf5
00000577
fffffe1a
000003c4
0000189b
00001a18
00000b8a
00000fad
000025ee
00000822
fffff872
000001b8
000019c4
fffff5ab
000014b7
00000fed
0000124c
fffff325
00001c3c
000021b0
ffffedbe
000042ca
fffffab8
0000079c
00000264
000029a2
00001364
ffffe888
ffffd54e
ffffee23
000017a4
fffffdf6
ffffe3af
fffff902
ffffec86
00000181
fffffe89
ffffe1f0
0000154b
fffff666
00001cb1
fffff239
ffffe586
00000be3
fffff8c4
000015ad
fffffe62
00001126
fffff312
0000129c
fffff955
0000113e
0000066f
00000f6b
000011f7
ffffe1a3
fffffff9
ffffeff4
fffffde8
000017fe
ffffe79a
ffffd83c
fffffe0b
000008c8
00000a8e
000019a1
000003cd
ffffe556
000018f7
ffffd665
00000f44
000013a3
0000114d
ffffe324
fffffa7b
000000a4
fffff12e
fffffe99
ffffb578
fffff69d
fffffa3c
00002116
000001b1
ffffe0af
ffffcf76
ffffeabb
00000349
ffffb516
00000041
fffffa7a
fffff406
ffffefed
00000749
fffff8e3
fffff8ae
00001ec2
000004c1
ffffde0d
00002c8e
fffffb21
fffff31a
00000a2a
00002421
fffffd4e
fffff2ce
ffffefc3
000028a6
00002c30
ffffd058
ffffcffe
00000170
ffffeeea
fffffc33
ffffee57
00000260
fffff610
fffffa8d
fffff08b
00000178
00000a0c
00000650
ffffee84
0000078b
0000139e
ffffe663
0000189f
000015da
000005e8
fffff674
ffffe4d1
ffffff9b
0000244f
fffff7e4
00000d1d
000009ec
00000ecd
000031df
00000656
000013bf
ffffca06
000022a2
00000599
fffff69c
ffffe0e0
000016dc
ffffeb46
fffff8f6
fffffc37
fffffa22
ffffe65d
fffff3f5
0000100c
00001a85
ffffd9dc
00001f32
ffffeecc
fffff014
ffffebec
00000e61
00000d46
fffff768
00001303
ffffe402
fffff50e
000018c6
0000036a
0000027f
000025bd
00000c47
fffffa14
ffffdb34
ffffd19a
0000108d
00000340
ffffeb1a
ffffeaae
ffffdf79
000001e2
fffff8d5
00000b47
ffffe87d
00000850
fffff6f2
fffffd8a
fffffe47
fffff24f
fffff402
fffffd13
0000091a
00001b7a
000002f2
fffff001
fffffb53
00003b0a
ffffec43
00002d2b
00000d6d
00000713
ffffe847
00001c22
00001bbb
ffffc5ee
000004c2
fffff520
00000dd3
00000cb7
00000c8d
000014d4
ffffff04
ffffff50
0000331d
fffff531
00000c29
ffffe9f3
0000147c
00000900
000026e5
0000004b
00001dd8
fffff5f8
fffffd34
00000a17
00001555
0000145d
0000107a
fffffda8
ffffeebb
00000a84
00002a8e
00000e27
fffffdd1
00001af2
00001b9c
00002c50
000021ba
00001a29
00000e61
ffffedef
ffffee08
fffff387
000009ed
ffffe884
ffffe590
00000cd3
00000b10
ffffdf75
