ffffda06
fffffb5c
00000b4b
00000f3c
00000d36
fffff795
fffff8eb
00000384
fffffe73
fffffdbd
ffffeea9
fffffd48
ffffd829
00000570
fffff126
000004ad
000004a9
00000565
fffff330
00001c94
ffffdb73
00001997
000002a9
ffffefc1
00001872
000018bc
fffff1e8
000035dd
fffffcc3
ffffef57
fffff789
ffffe047
ffffe9a1
ffffdcf7
000017a4
ffffff7c
fffffc7e
ffffe471
fffff3d4
ffffdc66
ffffeb8e
ffffedc5
00001566
fffff39b
00001da5
ffffe341
fffff009
0000087d
fffffc67
fffff896
000003e0
fffff818
ffffd1ea
ffffd0c8
00002f0a
000020c1
0000121e
00000803
fffffff1
00000d53
ffffefdc
fffff8cc
000016a0
00001450
000002d8
fffff5c7
00001c21
fffff00f
000007c4
00002c74
000008e5
fffffff8
ffffe5fe
00000b59
ffffea60
ffffde2c
fffff989
fffff7b9
fffff23a
000000b6
000004cf
00000c96
00000f92
00001b35
fffff9c0
00000a5d
ffffd66a
0000042b
fffffb1f
ffffe029
fffff66e
fffff930
000009f9
ffffff8c
fffffa48
ffffebaf
00001888
0000385a
fffffe3b
fffffe57
00000a95
ffffe20c
ffffe8b9
00000bb0
0000134b
fffffd89
000004df
fffff6e4
00000bb4
fffff645
fffffa32
00003ecc
000004c7
fffff6ce
00000ec3
ffffe376
ffffe364
ffffec2d
00002678
fffff87b
00000574
fffff8e6
00001814
fffff3b9
ffffea1f
00000a26
fffff07a
fffff9f1
fffffe07
00000426
00000329
ffffd4df
ffffe3f6
ffffea64
00000b60
00000ee9
00000001
ffffe00d
00000bc6
00001a80
00001022
00001662
ffffe630
fffff84b
000026b5
ffffee9c
000001eb
ffffdc3f
fffff046
ffffe393
ffffe856
00000841
0000101b
0000161d
fffff67b
fffffbf6
fffffb6d
00001e9f
00001cc6
00000c87
000001e5
000000e7
000002b6
ffffe686
00000253
ffffd97e
fffffc5d
fffff917
ffffeeb8
fffffac3
00002703
ffffede7
00000685
00000e6b
ffffd398
000011a0
fffff057
ffffebc9
00000811
000008df
00001ac3
ffffe9b7
ffffe83c
fffff483
0000126f
fffff987
ffffc799
fffffa97
fffff95c
ffffec58
00000b47
00000563
00000572
fffff3f0
fffff09b
ffffe630
00000803
0000163c
00000ae1
fffff864
fffffcf2
fffff8f2
000007b9
000003a1
00000d96
00001812
fffffc16
fffff0fa
ffffccb1
00001163
ffffe920
fffffcf4
fffffb13
ffffc369
00001595
000017b8
00000404
ffffe3d5
fffffd4d
00000bae
fffff357
00002550
00000159
00001f4f
ffffeb96
0000195e
00000ef5
fffff16b
000001e0
00000fd1
ffffe536
ffffd3b9
ffffe08b
fffff682
fffffac0
fffff6f0
ffffe34e
00001784
00001034
00000d0b
fffffc90
000020e9
000009c6
ffffe34b
0000115d
ffffef79
ffffd93d
000024cd
fffff6dd
ffffe5b5
00000666
000009d9
fffff581
ffffdab1
ffffefb3
00000d44
000019ba
00003d9e
ffffd57c
000000da
fffff34c
000001be
ffffdb1d
00000b12
fffffa3f
00000a8c
ffffbf47
00000d95
ffffda57
000003fe
00002d63
ffffda1a
fffffafa
fffffa09
ffffffe8
ffffdf5e
fffff9b8
00000a17
00000894
ffffea19
ffffe013
000002cb
00000413
00001924
00001143
00002630
fffff6f9
fffffae7
fffffa57
ffffeafd
00001714
0000153f
fffffc2c
00001a9b
fffff483
ffffedce
000021cc
00000c71
00001811
00000413
000003b7
00001343
fffff804
000007f5
00002b70
00000926
ffffdaad
fffffb31
fffff802
fffffbff
fffff836
00000c48
ffffeb0b
fffffe8d
000003ce
00003a21
000005ab
ffffe71a
ffffe34e
0000133d
000026a7
ffffdfbd
00000d9e
ffffe81f
fffffe16
00001d1f
fffffcc6
fffff480
000040b2
00002bbf
ffffff8e
000003d1
fffff708
00000a91
ffffe0ab
0000125e
ffffcd71
0000150a
00000726
ffffe364
00001ca4
fffff352
00001a39
ffffd314
ffffe3d7
ffffeaf6
fffffe44
00000589
000005dc
ffffdd30
ffffea8a
ffffefed
ffffd8f8
fffff9d0
ffffe32e
fffff3c2
fffffd6a
00000508
fffff7e8
fffffc49
ffffff4d
000004a0
ffffb170
fffff0f8
00000f03
ffffd68e
000018ce
00000255
00000560
00000d27
000009ed
000014dd
00000f20
ffffef9f
fffff2d5
00001cbe
0000115e
00001804
fffff1f8
ffffee68
000008fa
00000581
00001393
0000104d
fffffaf3
00002e6b
00000743
00000787
ffffc6c0
fffff796
ffffd37e
ffffd5fe
00000944
000002fb
00001325
000018fb
00000517
0000137d
ffffffa5
000021ca
00000457
00001653
000011d9
fffffce0
00001093
ffffff09
00001642
000001dc
ffffe744
0000025b
00000337
00000e36
00000688
00000605
0000355f
00000276
ffffc215
fffff78f
0000008e
00000e7b
000007f0
00000381
00000464
ffffeab6
ffffee64
00002502
fffff9e6
00000a6e
00000e84
0000044c
0000038b
ffffff80
ffffda0c
0000135c
fffffad7
0000013b
fffffd09
0000208f
ffffea75
fffff896
000006c5
0000169e
fffff9ee
fffff982
00000fa9
0000094b
00001261
fffff0f4
fffffd23
fffffdcf
000024c6
00002406
fffff969
ffffd65a
ffffd41c
fffffd75
fffff22f
00002081
00001bb2
000029a0
00000a27
ffffc989
fffff5ea
ffffe409
00001214
ffffeae8
00000a29
fffff7b4
fffff32d
00002ffe
000003e2
fffff6fa
fffff5b0
00000420
00001b12
00002f14
fffff755
fffff206
000012fc
000006a6
ffffe979
ffffdab9
ffffe3b2
fffff5d3
00001ffb
ffffddcf
0000055f
00000810
000017ab
ffffe624
fffff0c1
00000aa9
000014d9
000001c7
000005ca
0000102e
ffffd887
fffff3b4
ffffedac
00000183
ffffe1b5
fffff3bd
fffff97b
00000203
00001525
0000361c
000003f2
ffffe705
0000084a
fffffe20
00000980
0000030a
ffffea6d
00000c0b
00001758
00000743
0000167b
000002bd
ffffe8d2
00000720
00000006
00000433
fffffae9
fffffb0e
00000b9e
00001705
ffffdc1b
00000a17
0000222a
000012c1
0000010e
00000086
fffffead
0000241b
fffffe29
ffffecb8
0000009d
ffffec5e
00000fc9
ffffeb55
00002c1f
0000149f
ffffe52d
000000b4
ffffe169
fffff843
00002110
ffffdda0
ffffe53f
fffff8a6
fffffffd
fffffd1f
ffffe328
ffffc87f
0000189f
000004c6
ffffe211
fffff9fc
fffff5f7
ffffe1e2
ffffef85
ffffd80b
fffff4e7
fffffb3a
ffffceba
fffff4ac
fffffae9
ffffd246
00001d75
00001574
0000182d
ffffe480
00001b7c
fffff25d
00001e45
fffffba5
ffffecd7
ffffed41
00001c75
00001321
ffffe2c8
fffffadc
ffffe2ce
0000090a
ffffe87c
fffff6db
fffff92a
00002182
ffffde94
fffff50d
00001016
0000105c
ffffebc2
00000a09
00001861
00000f84
ffffefa7
fffff683
ffffe301
fffff55f
fffff944
fffffb93
000005b6
ffffff46
fffff70f
ffffd6ce
fffffc25
00001816
000010de
ffffdc60
fffff8b3
fffff943
000005d3
fffff74b
000026b6
fffffc62
ffffd3a8
00000fd8
00000993
fffff003
fffffda0
000007e9
ffffe510
00000bbf
fffff797
ffffe709
00000262
ffffea87
00001f09
00000630
00001157
ffffbfdb
ffffffa3
00001d0a
ffffe34b
0000185c
ffffef32
fffffb05
ffffeb73
00000b8e
000005bd
00000d69
ffffe291
00001507
ffffe78d
00000e53
00001970
fffff30a
00000396
fffff9fd
ffffc6fa
0000129a
fffff673
fffffbec
000017f3
fffffb3d
000002bd
00002e6f
00001128
00000cab
fffffda5
00000e76
000017d7
ffffffb4
ffffe450
000009e3
00001397
fffff6ca
fffff92e
ffffee06
00001354
fffff7fd
fffff68c
fffff89e
00000f26
00001249
0000084e
fffffdde
fffff2ef
0000034b
fffffde7
0000139d
0000115a
00000f17
00002920
00003565
00000991
000008d5
000011ac
000026b2
fffff486
fffff41f
fffff69f
00001cd4
000023b7
fffff3e8
000003df
00002a80
000008a2
000001b9
00001a97
fffff511
000034b5
00002708
ffffd88e
ffffec55
fffffa61
ffffefb0
ffffe28c
ffffe5e0
fffff7bc
fffff4d3
00001b4a
0000175f
0000027b
00000171
ffffef83
00001470
ffffe333
fffffb04
fffff07e
00003b8b
00000631
00002613
0000076a
0000179e
0000019b
fffff371
ffffe61a
ffffde66
000009e0
0000339c
ffffe2ad
fffff76a
00001426
fffffd61
0000242d
0000105f
ffffc835
00000180
000012fa
0000019a
00000c91
fffff45c
000017ab
fffff3d8
ffffc677
ffffeb37
fffff933
00000254
ffffe322
fffffe9a
00000bc6
00001f47
ffffcc9e
ffffea04
00002429
000000da
ffffe9d4
00000d6f
00000c1a
ffffc47d
00000522
fffff050
0000010e
00000498
0000169f
0000174d
000020ba
00000fdb
00001ad8
ffffe3c8
00001de1
00000f9f
00002df0
00001762
ffffee1b
0000102d
00000f1d
00000b25
00002b01
000011d1
fffffc7a
fffffe1e
000005d5
00000792
fffff137
00000687
fffff10b
ffffe2d2
00000273
ffffe36a
0000058a
ffffe98a
fffffa05
ffffeb67
fffffc90
0000166e
ffffeb14
0000089a
00000dc3
ffffe5ce
00001704
00000d4d
00001048
00000a20
fffffffc
00001243
00000502
fffff922
fffff0ac
ffffea5a
ffffe0b1
00000ef2
000021f3
000000f9
000014ea
ffffeb87
00002d0c
000029c7
ffffe12b
fffff56f
fffff2f9
000007eb
00001593
00000ca0
ffffe642
fffff832
00000707
000026c7
ffffdd79
fffffbae
ffffe4ff
000004f3
fffff24f
fffff6be
ffffd4a5
000007c9
000008d7
000005da
000006f6
0000088e
ffffc7f9
fffff86f
fffff68d
fffffc03
fffffb79
ffffe49a
0000073e
ffffe8dd
fffffb81
ffffdb6e
ffffd9c6
00001321
ffffef0f
00001aa7
ffffd330
fffff17b
ffffeabe
ffffe7a7
0000463a
fffff4a6
000032a0
000038b5
000005b2
00002963
ffffee62
fffff1c3
fffffd60
00001669
00000e9a
fffff3a3
000018db
fffff61a
000016c0
0000288c
fffff0d1
fffff878
fffffc54
ffffe657
00001372
000000ce
000005ab
ffffe71c
fffff79d
ffffec99
0000168d
000002a1
00001217
ffffe3e8
fffffdc4
fffff6ad
fffff4ab
0000293d
ffffff6d
ffffd980
ffffae51
00001411
000001bb
00000f81
00002b11
000011d4
000004b2
fffffa40
00000d4b
fffff6fe
fffff6b1
000008ac
00001f0b
fffffae6
ffffe030
fffff0c0
000007c9
fffff242
000008a0
fffff07d
000001f3
000008a4
ffffe0c3
00001d63
00002812
fffff526
0000134f
00001056
00000a94
ffffe944
000013a3
0000101b
ffffe9a2
ffffd6dc
fffffe26
ffffea1b
00000e68
fffff030
fffffa53
fffffe9f
ffffd552
fffffe8e
ffffdb28
00000c1c
000035fa
00002f59
fffffb65
00001959
00000116
00001a95
ffffe814
fffffd07
000000ad
00000f9b
fffffc64
fffffb69
fffff551
ffffe26b
00000b00
fffff78a
000001e3
ffffc4c7
fffffdb8
fffff66f
00001151
fffff2e7
fffff661
ffffe6ca
fffff6b3
fffff436
00000542
fffff41b
ffffd702
ffffef66
00000559
ffffe8d4
000027c9
0000320d
fffff2c5
00001886
fffff44e
fffffb07
00002ae9
00000a13
fffff80a
00000cb8
fffffb60
ffffe943
fffffda9
fffff4e6
00000ff0
fffffac7
0000166e
ffffec4c
ffffdebf
0000148f
fffffec3
00002e7f
fffffdb3
ffffff19
00000993
ffffec4c
000010d8
00000a94
ffffe6db
00001d89
ffffd15b
fffff2e7
0000207b
fffff353
00000a5e
00000b72
fffff436
ffffe6e1
ffffdf9e
0000043b
fffff581
fffff1a6
fffff5f1
00002bda
00001010
ffffec52
ffffe2b3
000007bc
ffffe5a9
00000197
00001aba
00001fce
ffffdae1
00000a62
ffffb028
ffffe92e
fffff57e
000007cb
00000c86
fffff977
00000eca
00001550
ffffe568
0000075b
ffffef55
00000f44
00001614
000005ac
00001728
fffff317
0000202a
ffffea9a
00000c45
000002f9
00000b3e
ffffefaf
00001829
0000237e
00001490
00000eb1
fffff735
0000430b
000011fa
fffffe68
ffffc102
fffff180
0000170d
fffffa03
fffff32a
00000f0d
ffffeed1
000003c8
000017d2
fffff1f0
fffff0cf
00000cbb
000011ce
ffffe884
fffff8f0
00002285
ffffffba
00000c81
00000400
0000185e
fffff210
0000214c
ffffee86
00001efe
00000dbb
00000335
fffff35f
fffff514
ffffeb4f
00000b55
ffffffcd
ffffee41
fffffd8f
00001840
ffffeedb
00002a07
0000019e
ffffc8eb
00002095
fffff31a
ffffe26d
ffffdde3
ffffe245
ffffec0e
00001d14
ffffc564
ffffef43
00004a71
000003e4
fffffa22
00000128
000020b0
ffffdda1
000021d1
000026d3
fffff600
fffff6be
00002af1
00002bbf
ffffef6d
ffffdb03
00001cf5
ffffc6f6
00000c91
ffffdef4
fffff782
fffff30f
00001319
000001b6
fffff9ab
000003e0
00002bf6
ffffef63
000015cc
ffffec01
fffff82a
ffffeaa6
00000243
00000e8e
ffffe891
00000502
000006a6
0000064e
ffffe033
00001c08
fffffa55
fffff933
fffff6c2
ffffe490
00000c1f
000003a9
00001451
000015cf
fffff6ca
00001686
fffff33a
00001d3f
0000196a
ffffeabe
00001801
fffffc37
ffffec06
00000925
ffffd38a
fffff5d3
00000edc
fffff4bb
fffff0d8
fffff8e8
00001565
fffff507
000002c2
00000cae
000006a8
ffffe803
00001c86
fffff110
ffffe715
00000c91
000012c1
000015e1
0000033e
fffff7e4
000006cf
ffffea9f
0000198d
000006fb
ffffff2c
00002eb9
000015ba
ffffe2e2
00000bd9
000014a0
000005f3
fffff685
00001bc6
00000bc9
fffff162
ffffec4e
00000e4b
0000187d
00000684
00000f62
fffffe40
000026b7
0000094b
00000cc7
00000cd3
00000bb9
00001445
ffffd660
ffffee46
00000f2e
fffff767
00000bf9
0000094e
fffff80c
000018c7
fffff889
00000eb0
000010f1
ffffeaf2
0000033b
00001338
ffffe41a
ffffefcd
ffffea4d
00001d58
00000625
00001b5d
fffff78a
00002536
fffff8a0
ffffe00a
ffffe06c
fffff1d7
fffffcb6
fffffa16
fffffe28
fffff7d2
00000973
ffffdad5
ffffe58e
00004117
00000cdd
ffffdde8
fffffd76
ffffe5d1
00000bca
fffff842
0000163a
ffffea95
fffff8ae
00001f8e
000011ef
0000162f
000006f3
00002a47
0000083b
000005aa
ffffeb44
fffff013
00001d43
ffffedda
fffffb2a
00001ca0
00001b5b
ffffef96
00001b44
00000a84
fffffd51
000012d0
000005ea
00000137
fffff8ed
fffff401
00000e01
000020ea
ffffdde3
fffff3e5
fffff9dd
ffffdaea
ffffcfcf
00001378
ffffe8ee
fffff4bc
ffffd879
fffffbef
00000f0a
fffffbc9
00001410
000010e5
ffffe0d6
00000cb7
ffffeaf3
000000c5
ffffefa6
fffffcac
ffffeca9
ffffff93
fffff43e
fffffbeb
000000db
000022cb
00001992
000007ca
ffffe289
ffffe86c
00001038
000006bf
ffffef9e
000027e5
ffffdefb
00000362
ffffed6e
0000203a
ffffecb8
ffffec3d
ffffddba
fffffee0
00000f4f
fffffcf8
ffffed18
ffffff42
000011d6
ffffff32
fffffeda
fffff73a
00000d76
fffffd2e
0000151b
00001ebf
ffffe7cc
fffffacd
ffffface
000012b8
00000e6e
fffffc2b
000011e3
00001825
fffff5ff
00001b4c
ffffd342
ffffd312
fffff521
00000516
fffff03b
fffffa67
000000c6
ffffe708
00000a4e
000003e8
fffff854
000040e1
ffffe6d5
ffffed3d
00001ec8
fffff0ee
000007fa
ffffee15
000005fa
ffffdbda
ffffeff6
0000110d
0000140c
fffffe72
fffff94b
fffff0ce
000002f7
ffffedb5
00001525
00002ab0
00001833
000001fc
0000117c
00001537
fffffc61
ffffe6ba
00002a3a
000008b7
00001c5e
00001fce
fffff4fb
00000847
ffffef16
ffffcab5
fffff192
00003812
fffff822
0000135b
fffff8d9
00003114
ffffd3b7
0000015d
0000299e
fffffd58
00001fcd
00000fb6
fffff669
ffffca3a
ffffe34a
fffffe1c
ffffe1cb
0000054e
fffffa73
0000161a
fffffbb9
fffff6a3
fffff311
fffff7cf
00001d93
00001e57
00000179
ffffec20
00003371
00001063
fffff33a
ffffef04
000003cb
0000102a
0000198d
00002805
fffff00a
ffffdb05
ffffee77
fffff419
00001b9a
fffff036
00001b24
0000087e
ffffda18
00000985
00002ae6
00000ef1
fffff4bb
fffffa7d
fffffc28
00000d04
00000980
ffffe803
fffff512
0000142c
00000a30
ffffea8d
fffff434
0000121c
0000108b
00001323
00000518
000005ce
fffff402
fffff1b8
ffffd398
fffffbfe
00000208
fffff17f
00000dff
00002727
0000053e
00001534
ffffec24
000010a9
fffffe07
0000066b
0000021d
fffff5cb
ffffdd6b
fffff5a2
fffff5e7
ffffe8aa
fffff57c
fffff3df
00000f81
00000d81
00002614
00003e61
0000113d
ffffd31e
fffff71d
ffffe646
00002db3
0000010b
fffffd7c
00001d8a
fffff886
000001aa
fffff473
ffffff98
00001d6a
ffffe93b
000028af
0000079d
fffff7cf
ffffeea8
00001531
000009ea
ffffef65
0000220c
000004ef
00001afa
000022d7
0000060c
ffffff8c
ffffe9af
000010d2
000005a6
fffffbc4
fffff08c
00000a08
00001ede
00001f3e
fffff045
00000556
ffffe4a8
fffff0ff
000008f1
fffff6e9
ffffe005
ffffe8c3
00002deb
ffffe542
fffffb76
00000d18
00000237
00000051
00001248
00001e56
000005e6
ffffde97
00000226
000013f9
000002b1
fffffdd7
00001c10
000020b1
000035d1
fffffd86
00000dcf
00001ff9
00000258
00001a1a
fffff613
00000071
fffff1c0
ffffeda7
fffff6e1
fffffbbb
00001f51
fffff92a
00000b25
ffffe5ab
000002e0
ffffdc63
ffffe767
000004a9
00000e67
000011e8
fffff406
000007b1
000006cd
0000073d
00002806
fffff60e
000009c0
000006a5
00001763
fffff5ca
00000b33
00001216
00001bc3
00000733
fffffb59
000003e6
fffff4e6
00001bdc
00001f08
ffffc241
000000d6
ffffff98
fffffdf1
00002da8
00001da7
ffffe7ff
ffffef00
00001687
00000fc2
000013ce
0000071a
00001106
fffff072
0000091c
00000320
000028f2
fffff5d5
00001a22
ffffe1b6
00001c8d
ffffe1b9
ffffec1b
00000080
fffff61c
fffff216
ffffe57e
ffffd4e8
00000941
00000f0f
000020f6
fffff937
000005c0
00001b62
00000474
00003741
00000c8d
fffff6d4
000002eb
ffffee5e
ffffcd7f
ffffe6cd
ffffbeb4
fffff742
fffff693
fffff6f2
ffffeb65
ffffee17
fffff37c
fffff595
fffff540
00000625
fffff62b
00002705
000008f3
00001cd7
00000536
fffff227
000009a9
00000187
fffff0b6
ffffe6fa
0000141c
0000186e
fffff639
fffff06c
0000181d
000000a2
000000b0
ffffdb55
fffffbfd
000005c1
fffff042
fffff723
fffffbff
ffffed91
00001048
00001b11
fffff540
ffffc98d
fffff1f6
00000329
fffff74a
00002802
00000189
ffffe7ba
000004fa
00002733
ffffead6
000002dd
00001d67
ffffff5c
fffffe7b
fffffef6
00001535
00001bb2
000030ae
00001e0f
000003d5
ffffedaf
000004cc
00001661
0000121f
fffff9d9
ffffd373
00001304
00001297
000005f5
00002153
fffff3a6
fffffb07
fffff0aa
ffffeb0d
fffff930
00000ff3
ffffffb7
ffffd6b4
ffffe71f
ffffe2aa
00001f1d
fffff247
0000081c
fffff538
ffffe37a
ffffd287
000013f1
00000dae
000025d4
fffffb82
00001a36
ffffe9a5
ffffdbe4
ffffe200
00002d16
fffffa2c
ffffd8e9
00000efe
fffffb87
fffff691
0000106a
ffffdbe2
00001bf4
00000d74
00001943
00002218
ffffe43d
0000078d
000016da
ffffedc6
0000110d
00000039
ffffda1c
00003bab
000014c3
00000ab3
fffffdfa
000004c8
fffff059
fffff5a5
fffffe05
fffff521
000001e8
ffffe2b3
fffff91b
fffff675
fffff89d
000003f5
00001185
00000fac
ffffd304
000008be
00001de9
000020c2
00000341
fffffb17
000010db
ffffdaa3
ffffee05
00000c60
fffff587
00000eb8
fffffa28
fffff346
00001d5d
fffff57b
0000018e
fffff5c8
00001af8
fffff34f
ffffeadf
00000103
ffffdf7b
fffffb50
fffffec2
00000445
ffffe23b
fffff989
ffffe9c1
ffffea68
fffff2cd
ffffe01f
fffffa73
ffffd4c2
ffffec23
000011e4
000004db
00001225
ffffeb09
00000814
00001eb9
00001470
ffffecc1
fffffe70
000007d2
000005e0
0000293d
00000c30
ffffe250
000007c5
00001016
00001002
000006fe
0000083e
ffffd6a2
fffff926
00000066
ffffeb7d
fffff625
000013c4
fffffbbc
fffff748
fffffaf6
000018eb
0000064c
fffff0e5
ffffebe3
fffff464
00001347
fffff760
000026d9
00000c09
00002cc4
0000043c
000002c0
00000701
ffffe692
fffff3fa
fffffc71
ffffec1e
ffffe9bb
00001448
00000892
00001074
00000c7a
ffffd653
ffffe500
ffffed0a
ffffdc1f
000019a0
ffffff2f
00000261
000016cc
0000050b
fffff865
fffff49f
00001b3e
fffff827
00002766
ffffd72b
ffffff7d
fffff6e8
ffffe5e3
ffffed08
ffffe982
00000691
ffffec96
fffff132
00000226
0000100d
ffffe119
ffffd412
fffff2e5
000008d7
fffffb9c
ffffea52
0000085d
ffffefa3
00000ce8
fffff7ae
ffffea88
00002350
00001f4b
000002c1
00001488
fffffca8
ffffe24f
ffffef82
00000489
00000c7b
00001d14
ffffeea7
00000c83
ffffe97c
0000070c
ffffe790
00001336
000005ff
ffffdfa5
00000a07
ffffca99
fffff317
00000a88
fffffc56
fffff03f
ffffe313
ffffd427
ffffedeb
ffffe2d4
00000721
ffffdf6d
ffffea4d
00000f3e
00002606
ffffe6a0
00000ca8
00001776
ffffee03
fffff614
0000027b
00000474
000005fc
00000956
00002a1a
fffffce6
0000161d
ffffc4a1
fffff1e7
ffffd102
00004009
000021f4
ffffe678
ffffedf2
ffffe03e
00000002
00000246
ffffe7ea
0000073d
ffffe8c3
fffff556
00000b36
ffffe955
ffffd381
000000ba
fffffa6a
000039fb
00001dfe
00000bcc
ffffe5eb
fffff7b0
ffffdf52
000002e8
ffffe396
0000203d
00000357
00000447
fffff913
ffffe0e2
00000aa0
ffffc0c1
fffffb15
00001e4f
00000ed7
0000120f
00000f72
fffffccf
fffffae3
00000269
ffffef93
ffffd4ec
ffffefc3
00001544
fffff18d
ffffe929
ffffff75
000003a7
000005ec
ffffebd5
000040b9
0000000e
00002fae
00003337
fffff667
00002712
fffff654
ffffe105
fffffaf6
fffff364
fffffc02
000010c9
fffffd55
000007cd
0000174c
00001296
fffffc06
000021f0
00000456
000011dc
fffff6a4
fffff552
000005a8
ffffe0ee
fffff439
fffff967
ffffe68c
000003f3
fffff08e
00001d2e
00000a24
ffffe267
00001e63
000010c1
ffffeb80
000018f4
00000a78
0000230d
ffffe39d
00002080
ffffe578
fffff53e
ffffef05
000003db
fffffcdc
00000a76
00001417
fffff9ae
000009b5
ffffdf81
fffff3e5
fffff252
ffffe057
fffffd1b
0000247d
fffffaf8
ffffdd72
ffffe107
00001559
00001acc
00001313
000007fa
fffff3f3
ffffeb67
fffff3d0
fffff223
00000581
0000348c
ffffd6b4
00001865
000018b4
fffff0a5
000005dd
ffffca64
00000b3a
000003a3
000016ff
ffffe239
fffff86a
00000101
ffffe89c
ffffeae5
00000d22
000023b1
0000107d
fffff1d3
00000e0d
00001447
00002e36
fffff81a
000006e3
ffffe83a
ffffefc6
ffffeaa7
fffff75e
00000519
ffffd854
00000b58
ffffed89
000020e1
00000129
00002082
fffff8e9
000017fb
00000bb2
ffffeaf6
000043b4
000002de
ffffdef0
00000232
ffffec41
ffffed73
ffffd4f4
ffffe3d0
ffffe25b
0000048e
000006ca
ffffe39c
ffffd189
0000045c
fffff5b7
fffff6f4
000015ed
0000141d
000012b1
000014aa
000020ff
000003a7
00001d38
ffffffe9
ffffed3e
000014ea
ffffeb55
000024a0
00002db3
000013f5
0000148f
00000e58
00000a31
0000208d
00001e41
ffffe2d3
ffffdb93
ffffd627
00001620
fffff871
fffff9b4
00001f4f
0000101f
00002106
ffffed17
fffffee9
00001363
00001bb7
000016f5
0000329c
000002d3
fffff7f4
fffff733
00000674
ffffde6e
000016ff
00001b41
00000f30
fffff0af
00000f50
fffffeec
000020e3
ffffefd5
00001ab6
fffff688
ffffe9ef
fffff2a3
0000068a
fffff827
00001142
ffffecc3
ffffe516
000003ea
00000838
ffffe626
ffffeb94
00002624
00000342
ffffc95d
00001e8c
00001d23
00000a74
ffffd87a
00000c89
00001177
fffff5ec
00000367
ffffe169
000005b1
fffff575
fffff092
000016d0
ffffeeb6
ffffe292
fffff15f
fffff4b3
ffffee51
fffffcb3
fffff417
00001381
00000b89
ffffe804
ffffe653
fffffba7
0000008e
fffffeb8
ffffd620
0000040d
00000dbc
ffffe18c
000027a2
00001d66
00000ddc
fffff296
fffff220
fffff676
000010da
fffff90d
fffff45a
00001444
000021db
ffffd112
ffffecb2
ffffd16f
fffff2e7
000009e8
000003da
000013c3
000008c5
00000175
fffff5e6
00001444
00000951
0000133a
0000174a
ffffea93
000008eb
fffff729
000029af
00000998
00002308
ffffdea0
00000233
ffffeaa8
00000e48
fffffb01
fffff0b4
000027dc
ffffe19f
0000097e
000015ea
ffffe539
00000f1d
ffffe7b3
000005c8
0000047c
000002aa
fffff63b
000017c6
fffff729
0000024c
ffffdfc7
0000043e
000013d8
fffffd00
00001b02
ffffd989
00001f92
00000280
ffffdf1a
00001ae7
000026f2
0000001d
fffffb6a
ffffd421
00000c76
000029f3
ffffef65
ffffd37f
00001b60
fffff784
ffffdfa7
000012e0
00000911
00000b25
00000858
ffffed58
000002e5
fffff079
000000ba
000036d1
ffffebf8
ffffead5
00000773
ffffefab
fffffecd
00000efc
000021df
fffff769
00001992
000023e9
00000198
ffffea21
fffff385
ffffff56
00001928
0000081e
ffffdf6f
00002cd2
fffff8af
00000122
00000a4c
fffffe02
00000386
000003c8
00000ea2
fffffdae
fffffe24
fffff7fb
00000bd1
000014dc
000006bb
00001067
fffff2a3
00001a07
ffffe1ce
0000046d
00000041
00001937
000003e4
ffffff48
00000202
00000af6
00000414
ffffe322
fffff34a
00001646
00000cd1
fffffcfe
00000461
ffffd141
00000ce4
00001410
00001437
000021c2
00002b3d
ffffeb76
000028ef
000007c5
fffff982
000028f4
00003773
0000206c
00000313
fffffbc5
fffffa09
00001a14
fffff914
00001a04
00000a45
fffffeb0
000007ce
00000d39
000004e0
0000147b
000013e2
0000192d
00000255
fffff1a1
00002e8b
ffffe978
00001033
000005d9
ffffff47
00001bc2
00000859
fffff744
ffffe777
00001406
fffff2d0
00000ee3
fffff8e4
fffff608
00000f43
fffff81e
00000df6
000006bd
000011b0
ffffe6cf
fffff0e8
00000f88
fffff2b0
00000b5e
00000885
00000956
fffffdff
fffff9aa
0000202f
ffffdcca
ffffe9b1
000016e3
fffffa91
0000080e
ffffefcf
ffffc8bc
ffffea2e
00000ff0
ffffec4a
00000a97
fffffea5
fffff498
000010a9
ffffe762
fffffbe9
000021e8
00000209
00000f17
00000062
fffffcfa
00001511
ffffc541
fffff15a
000002e0
00000ecd
ffffe724
00001775
fffffc4f
fffffff2
00002d23
0000102f
00000149
00000c2e
fffff2a1
00000398
000028da
00002d7c
ffffd957
00000898
ffffe51c
ffffe768
0000186c
00000d64
ffffe6c0
00000fbd
00000e89
fffff225
00002759
00000377
fffffb10
00003f7d
00001002
fffff88d
ffffff2d
fffff40a
ffffee38
00000df4
00000cab
000027e9
fffff344
00001b4b
ffffe7a8
000002ab
00000bc4
000006fc
00000105
ffffef65
ffffead5
ffffedc6
fffff9e6
00000622
fffff43b
00000117
ffffed21
00001063
00000bcf
00000df6
000003af
000022db
ffffeef3
00000902
fffffd1b
fffffafa
000020f0
00000831
ffffe98b
ffffe081
fffffc29
fffff86f
fffff86c
fffff679
ffffe8e3
0000010f
0000245e
000000d4
fffff4ca
fffffb3b
00000626
00001efb
ffffe819
ffffe557
000019fe
000016a0
fffff17b
000010bc
0000076b
fffffc83
00000192
00000c22
00003787
000015f3
00000f28
000010e8
ffffe5d2
00000a7a
fffff086
ffffd491
00001c49
ffffee4d
ffffd9b5
fffff537
ffffdc1b
00002dae
00002543
fffffa7f
000002e8
fffffcf9
00000223
fffff369
fffffdbc
ffffdf11
ffffef43
000020dd
0000294d
ffffff4b
00000880
000001db
ffffda20
fffff7f5
ffffed14
000000e7
fffff9aa
ffffd9d3
fffff6ea
ffffd1bf
fffffc4f
fffff6ca
ffffeb1b
00000224
ffffebba
fffff2c3
ffffd100
00001dd4
00000d23
fffffc48
0000090b
0000280d
00000267
ffffd553
00002afa
ffffef8e
fffff503
000008eb
ffffe533
000017ae
ffffffad
ffffffcb
fffffed8
000008fe
00001e6d
ffffe6ef
fffffd90
ffffea7b
fffff948
000002c4
fffff737
00001b92
00001877
ffffddfa
ffffff66
fffff460
fffff526
00001242
ffffea52
0000075e
fffffecf
00000c9a
00001df8
000021f8
00000e58
00001b87
ffffe1ef
fffff13f
000002c4
ffffe003
ffffee8d
00000784
00001b7e
00000cae
fffff5d9
00000d29
ffffe925
00000a6d
00000585
ffffcb24
ffffcf52
fffff5d9
fffffe3f
ffffe0fb
0000051c
000012da
fffffb77
00000769
fffffc8d
ffffe5be
00000ce7
fffff5a1
00001499
00000987
ffffe789
ffffdf75
00000a72
fffff589
fffff6e2
000003f4
ffffec5d
ffffdbd4
000023a6
000006ee
fffff667
ffffcf3b
ffffcb87
ffffeb79
fffffff1
00000e9c
000003b6
000008e8
ffffe6ab
fffff76d
ffffe408
fffff973
00000275
00001c95
ffffecd4
00000200
fffffd70
fffff6df
000024a4
fffff84f
00000854
fffff8cc
fffff41a
00001b05
00001562
fffff4b5
ffffe24f
00002823
fffff421
ffffef1b
00000552
ffffe324
00000c0d
fffffe81
000003a1
ffffd9d4
fffff4ee
ffffeac3
ffffe570
ffffe01e
fffffc7a
00000273
00001153
fffff0dc
0000182b
fffffd3c
0000217b
fffffa28
fffff741
00001e3c
ffffe3ef
00000abf
00000578
0000018d
ffffeec4
fffff257
fffffcbc
0000100f
000008ce
ffffc1f3
00000d25
000002cd
00001df2
ffffeef5
fffffcbf
ffffeee7
0000180f
00000ad5
ffffea65
00002415
ffffe8e4
fffffb8c
00002b56
fffffac4
fffff8f3
fffffcaf
ffffed10
00000e48
fffff29c
ffffed64
0000089c
fffff69b
fffff245
ffffed33
000006ed
00000549
ffffdf47
ffffe049
000006c4
fffffd50
ffffece9
000024a4
fffff51c
00003485
00000418
00001170
00000e04
00001267
ffffeeb7
000007b2
00002449
fffffabc
00001005
00000ec4
00001ddd
ffffe7a2
fffff21c
fffffcf9
fffff650
000008cd
ffffdeba
000015f4
fffffb14
00000e12
000000b4
0000015f
0000037d
fffffff0
ffffeed3
0000073d
ffffd52a
00000b5a
ffffffe0
fffffca5
ffffe939
ffffe3fd
00002539
ffffd584
ffffccb5
00000b89
fffff36c
fffff032
ffffc879
00001a18
00001a14
fffff442
ffffde69
0000110d
fffff7b1
00002686
00000ca3
00000f55
fffff829
fffffdc4
ffffeb1a
fffff7c6
ffffeed6
00000950
00000382
ffffe79c
fffff4d6
ffffeb66
fffff82f
fffff26c
ffffe42c
00001335
ffffd8d8
00000c4a
00001bf0
00000d50
0000181d
fffff159
ffffd7d2
00002436
fffffba6
fffff333
00000023
fffff04f
fffffef7
00000837
fffff3aa
00001368
ffffe046
00001b1c
ffffdc90
ffffe637
00000144
ffffe2e3
00000347
ffffc1f4
000007b6
fffff247
00000726
00003edc
fffffac1
0000081f
0000291a
fffff171
000011a0
000015b5
00000a68
ffffdd01
00001d1b
00000aa6
fffffb6b
000001af
0000041c
ffffd4ea
000003ec
00001233
fffffc2d
ffffed5f
ffffe12c
000019ec
00000d1b
000012d4
ffffed40
00000649
000003f0
fffff9e2
0000181b
00000be7
ffffd9d6
ffffec75
ffffef0c
fffff2cd
00001106
00001868
0000076a
0000193e
ffffdfb6
fffff442
ffffd691
00000f38
ffffffb9
0000007a
fffff4f9
0000052f
00000672
000004f9
00000496
00002616
00001741
00000554
00000d8f
00000979
0000164e
00000e3a
0000012e
fffffeab
0000031b
ffffe999
00000173
ffffe4a2
ffffe666
00000068
ffffe977
00002de3
00000949
00002342
00001cc9
ffffb8e2
ffffff91
000021a4
00000534
fffff204
ffffe041
ffffef1a
ffffe66c
ffffc324
fffff880
000003f7
00001116
000009b1
00000e6b
ffffde08
fffff1f5
ffffdab4
000027e4
00000534
000004ac
0000156f
fffffef2
00001ee8
fffff67c
fffffaf6
00000a36
00000553
000002c4
ffffed93
fffff5d1
00001587
fffff537
00000f1e
ffffec1d
00000b5a
000010b4
00000bb7
fffffd89
fffffb38
00002cb9
000019bf
00000124
ffffea5d
000017fa
ffffeece
fffffc25
ffffeba5
ffffecf1
fffffdfc
00000f90
ffffff10
0000324f
fffffb2a
00000fe0
ffffdb37
fffff6ad
ffffe497
00000969
00000788
00001a61
00001a7f
00000f50
fffffa7d
0000145e
0000086e
ffffddf4
00000caf
000006df
000000b2
00001046
ffffe9bc
0000073c
000008e2
0000264c
fffff21c
ffffccfe
fffffd81
ffffd539
ffffdd12
00000126
00001085
00001f29
00000fe9
ffffe912
0000008b
ffffe8c2
fffff985
fffff8db
00000cbc
fffff0ca
00001ffc
00000203
fffff239
fffff050
ffffe39b
fffff3d7
000023b1
fffffaa0
fffff64f
0000214e
ffffe122
00001be0
00000a5e
ffffffec
00002b56
0000124a
fffffeb4
ffffeb4a
ffffef83
00000ccc
fffff502
fffff2e8
ffffe848
0000109d
000010cd
0000004f
fffff46f
00000168
fffffc0e
fffff5f6
ffffe971
fffff9fa
0000088f
ffffc31d
000032b2
00000c78
fffff43e
ffffd067
ffffe6ad
ffffeb34
00000ff3
fffff64f
00000e35
fffff3c2
ffffef24
00001d3c
fffffeb2
ffffdc66
000023fb
00000ca8
ffffffa0
fffffd1f
fffffab7
ffffe654
fffff90e
00000c1e
ffffc741
ffffdd5f
ffffdec5
fffff689
fffff025
00000992
ffffe4be
fffffe31
fffff34c
fffff574
000015c8
00001258
0000182e
fffff558
000025da
00002377
ffffe390
ffffdd54
00002155
fffff359
fffff793
fffff868
000004d0
000023a2
fffff297
fffff690
fffffb91
00000fae
ffffffec
0000015d
fffff2a7
00000114
ffffeebd
0000125b
ffffdebf
00002147
00000172
fffff75b
000025e8
fffff0c8
00000ddc
ffffd7af
fffff58b
ffffe904
fffff4ff
00001b3c
fffffc5c
00001552
00001b3d
ffffff92
00004575
fffff7db
0000184e
0000133e
00000946
00000657
ffffe182
ffffdbb0
ffffd2c3
ffffee15
fffff20b
00002047
00001b34
fffffa24
fffff3c0
00004a8b
00000e17
fffff662
fffff274
ffffe4a9
ffffe71c
ffffeb80
00001780
00001ee8
000012f1
ffffe3a2
000004b3
00000420
fffffd8b
fffff171
ffffd545
fffffe04
0000046e
ffffe635
ffffe019
ffffe88c
000034c1
00001362
000009ef
00001796
00002b08
fffff8a1
000011b5
000006b9
fffff781
0000100f
ffffeec9
000008c4
fffffc9b
ffffdae4
00000564
fffffbdf
ffffed8c
fffff807
00000e84
fffff852
00000ad1
ffffe9e5
000000b3
00001c90
ffffeae0
00001279
fffff9e3
00000cdc
000012fe
fffffa9f
0000129e
ffffd703
0000087d
ffffee01
000006e2
00000905
ffffe8c4
0000298c
ffffcf43
ffffe078
000013a5
00001348
fffff89a
0000148e
000006dc
ffffde57
00001ea0
fffffc71
00000465
ffffe97f
00001bb1
0000052b
00001767
00000c74
fffff7a4
0000067a
ffffe7ac
ffffe1ff
fffff2f5
00001403
00000a03
ffffe419
fffffbb9
ffffff17
ffffe323
ffffdf8a
000022c1
00000623
00000047
ffffebfa
ffffe024
ffffd6d6
00002934
ffffe604
ffffea7e
ffffcd25
00000b72
000015c3
00000dfb
00002ae3
00002ab4
ffffcb8d
000001ba
fffff7c2
ffffe4a4
fffff8da
0000036d
00001dcf
ffffeb80
fffff6ad
ffffdb9b
ffffe87b
00001290
fffff993
00000a65
fffff18a
fffff969
ffffcd9d
000019ea
000000ce
fffff0d0
fffff80f
000008c2
00001d48
fffff705
ffffe4cf
fffff482
fffff132
fffff61d
000016be
ffffee7c
fffff0ad
fffff0eb
00001486
ffffdc1b
fffff43c
0000016e
00001b82
ffffee31
00002a9b
fffffc87
ffffda37
000002b0
fffffeb7
ffffec8f
00000bba
00000858
ffffff53
fffff27d
ffffe0a2
000018f6
00000e28
ffffd758
fffff2a4
ffffddcd
00000bc2
000007e1
ffffd3fb
00000a13
ffffe8e9
fffffeb7
fffff395
00003007
fffff407
000005bc
00001049
fffffca8
00001854
ffffed98
00000bd1
00002090
fffff08c
fffff2be
fffffbc4
ffffded0
00001542
00000287
00000315
000010be
000010ac
00000e7f
fffffe66
fffffd1a
0000015d
00000603
ffffebd5
fffff238
ffffec85
fffff099
fffff2e3
ffffeceb
00002124
ffffe1bd
00002102
000017c3
00000c73
000017e4
ffffdf7a
00002258
000007c8
fffff09b
00000853
ffffdb87
fffffe03
00000873
00000ba3
000005c4
00001ec5
fffff393
0000110a
0000053f
000007c3
ffffe1e3
00004aae
ffffe994
00001724
00000333
fffff349
fffff783
ffffdd11
ffffd213
fffffde3
00000994
ffffce13
000019a2
fffff4c1
fffff116
0000006d
00000f57
ffffea22
00001e1f
00002138
00000622
00001066
ffffffc2
0000047d
0000084c
000006f5
ffffffc3
fffff369
00000348
000035fc
0000079b
00000f75
00000e6f
fffff990
fffffd9c
fffff50e
00000bc0
000022cb
ffffdbfd
0000002d
fffff56d
00000684
ffffe2cf
000005fc
ffffff5a
00002ebf
00001dfd
fffff498
00000769
fffff93b
ffffde86
ffffed99
00001075
ffffec4c
fffff50a
00001491
ffffe04f
000021d3
ffffffcc
00000d7c
000000d0
ffffff36
00001f0d
fffff660
000011f7
000015f8
ffffff7f
000008ef
000021df
00000f17
000012b6
00001358
fffff678
00000f31
00000a40
00000628
ffffdee5
fffffc85
000010ec
fffff15e
0000287e
0000165a
ffffec86
fffff824
ffffec4b
fffffc3c
00001777
0000258b
fffff352
0000151b
00000504
00000a80
000009a2
ffffed31
00000b7d
00001367
ffffe99c
fffff1c4
fffffb51
00000f84
00001851
fffffcff
000023fd
fffff2e0
ffffd8fe
ffffdc45
ffffecae
fffff2a8
00001f72
000001b4
fffffdaa
000010df
ffffd762
00000739
000018f3
000016b1
fffff36a
000008ea
ffffe86f
ffffd8c3
00001367
fffffea2
ffffe3ed
00000a6b
00002d92
ffffc0f4
0000265d
ffffe29f
00001762
ffffde87
000004c2
ffffffa7
00000419
00001791
00002a52
fffff2ac
000023a7
fffff9b0
00002ae1
fffff332
ffffecbf
00002344
ffffda49
fffffda2
00000dc1
000015ef
fffff776
0000019e
00001f20
00001ab8
ffffe9f2
fffff286
ffffef3d
fffff8fd
000000cf
ffffea52
00001b46
fffffe7d
00001a2a
000000c1
ffffdf6a
ffffe586
fffff156
0000000b
0000091b
fffffe3b
000009ac
ffffff1a
ffffeaed
ffffefb2
fffff9fa
00000203
ffffeb2c
0000074f
ffffd675
fffff071
ffffe858
00002890
00000b30
0000036b
00001069
000007b4
ffffcc22
fffffe37
00000a75
00001b32
ffffe55f
fffff9e3
00000a26
fffff9bd
fffffd85
00000706
0000132b
fffff43f
00000fb6
ffffe3ef
ffffcdcc
ffffe482
fffffff4
00002b0e
000002e4
00002a51
ffffed85
ffffe555
fffff8bb
00000245
00001340
00000786
0000090a
00002f5f
ffffd4c3
00000c7f
fffff110
0000191a
000007a2
fffff9a6
000009a2
000007e3
0000060c
ffffd880
00001315
ffffd074
00000b03
00000c07
fffff6f0
000016cd
00000c7a
ffffff3c
00001ad1
ffffddf1
fffffe44
ffffe1b3
fffff3f4
fffff770
000013b5
000000b8
fffffdf1
000003cb
000001dc
ffffe279
ffffd632
ffffffbf
ffffe577
00000e4a
00001eb3
0000091a
fffffca3
00001847
ffffdb2e
000003b7
ffffe2b2
00001950
fffffbe8
ffffed57
ffffec11
fffff792
000012e0
00001430
0000110b
fffffdab
fffff8ab
fffffbf2
00001c36
000017de
00002560
00000476
000004dd
fffff0ab
000013a4
fffff95f
ffffcd9b
ffffebdc
fffff613
ffffffe8
00002f04
ffffef39
000002a8
0000075e
00002d07
fffff63c
ffffdd3c
0000247e
fffffcda
fffffe84
fffffb7b
ffffd96f
0000172a
00000fbc
fffff29e
fffffd62
fffff4a5
000013a6
00000c75
ffffff48
ffffff59
ffffef0a
ffffd7e8
000015a4
000020fa
fffff724
00001048
00001322
00000813
000011d6
fffff9f8
ffffea7b
fffffac7
000000d5
ffffe6f4
fffff632
fffffe8b
ffffe9c2
00000d44
000003d3
ffffe72b
000002d2
ffffdf2a
00000212
00000e4d
ffffec31
fffff9b5
00000959
00001c3d
fffffb35
fffffb5e
fffff400
ffffe6c5
fffff2aa
ffffdc5b
00000e8a
ffffe641
fffff35c
fffff69e
ffffeaa1
00001250
00000b28
fffff402
fffffafd
ffffffca
ffffe795
000016fb
00001bdb
00002c09
00000a87
ffffdd0b
ffffcec1
000005ec
00000653
fffffc5c
ffffdd52
000001e3
000015fc
ffffec67
00000735
ffffde27
00000994
00000462
00001c0c
00001011
0000121c
000000c7
fffffb4d
000016f7
fffffe90
fffff43e
00000380
00000299
ffffe6ab
fffff98b
ffffe4d3
00002137
ffffbff8
ffffe785
00001b3a
fffffe82
fffff1ab
00002360
ffffea30
0000001b
00003602
000008ae
fffff213
fffff3a8
000015d9
000024b3
ffffe08b
00001d27
000027b8
fffff807
00001525
000004a2
00001437
00002c3b
ffffe3f7
00001026
ffffe3ec
fffff3af
fffff47c
ffffc6f8
fffff6fc
00001ec0
0000058a
000002d2
00001035
ffffe1fc
000016b8
ffffd67f
000012e7
000006ea
00000ee7
fffffb3e
ffffd487
00000f4c
00000788
fffffc2f
00000f93
ffffd9ea
000010b3
fffffb6e
00001d36
0000020c
fffffa23
00000e6b
000021bf
fffffa01
000013b7
ffffffaf
00001b68
00001751
0000018f
000011e1
000000ca
000014c8
fffffd63
ffffeb85
ffffe974
00000577
00001f17
fffff7d4
ffffffb4
000011c4
ffffec0c
000020c8
00001aa0
00001b2f
00000241
fffff888
ffffeb50
fffff9a2
ffffe854
ffffe00f
ffffffdb
fffffef1
00002c06
ffffcbe6
00001cf2
000014e6
fffffb1d
0000120a
00002382
ffffe850
ffffe784
00000e88
00000cca
000012c1
fffff2d7
000009ae
fffff472
ffffe9f6
fffff82d
ffffe73c
ffffcefd
fffff1f8
ffffe332
fffff29b
ffffe14c
ffffea45
00000269
00000406
00002652
fffff20b
00002317
000007cb
ffffe3df
00001291
fffffe43
000023ce
000026d0
fffff589
000001b4
ffffd8b2
ffffde92
0000100d
ffffee19
000006f3
0000023c
fffff8b3
ffffeb73
fffff9f5
000002b1
fffffc3d
fffffe21
fffff3b8
fffff84f
00000a8a
fffff446
fffffe33
fffffcb5
ffffe348
00000e8d
00001fd8
000030fd
00000553
000025d5
00002900
000004ce
fffffb35
00001479
000001d9
00002c1a
fffffb31
000002ac
ffffff53
fffff47c
fffff832
00001c3b
00001bc6
ffffe156
fffffbb8
000020f2
ffffee43
ffffe2d3
0000003e
ffffff03
00000348
00001800
000011f7
000008f9
fffff350
00000c16
00000fb0
fffffaff
0000231b
ffffea18
ffffdec1
fffff28c
fffff8af
fffff63e
00002a20
00001bc4
0000223b
00001c45
00000f65
ffffe358
ffffe154
000024d5
fffff8d9
00000e48
00001037
00002d6c
00000884
fffff6d6
00001e40
fffff34b
000002ab
000000cf
fffff8d8
0000106a
000027b4
00000025
000004a5
ffffef14
fffffbe1
ffffeb92
ffffdee2
ffffe812
00000f2a
fffff2f4
00000c01
fffffc84
00000a99
00000387
0000139e
0000118d
fffff97f
fffff5f1
00000ee8
fffff80b
0000119b
fffff0ff
fffffdd4
000003e9
000014e9
0000013e
fffffc3c
00000eb1
fffff7a7
00000ac4
0000091f
00001c08
fffffd3d
000003d5
fffff9a0
fffffbbf
0000144a
fffffb94
fffff95f
00001753
ffffef8c
fffffaab
ffffcea7
fffff897
fffff420
fffff3f4
0000060d
fffff3b8
fffffc5c
00000b8a
00000e7b
fffffa8e
fffff7e3
ffffeb5d
ffffd957
fffffc6e
00000743
fffff57a
00000893
000014dd
00001009
00000dfb
00000446
00000418
000014ec
fffff6a4
00000614
ffffc07e
fffff371
00000e91
fffffaeb
00000ba6
00001475
00001478
fffff82a
fffffdb5
ffffe3a6
fffff624
00000b98
ffffee55
000005dc
fffffc5b
ffffdd1a
0000126e
000007ff
000012ba
ffffef96
00000eae
fffffcbe
00000d60
fffff292
fffffdfb
000009a3
fffff531
fffff33c
ffffee0e
fffff65d
00001333
fffffc15
ffffea39
ffffe70e
0000051c
ffffcbdb
000008af
fffff159
ffffdafa
0000044d
ffffc8ba
fffffee3
0000257c
0000040a
00000c65
000004b9
000001e8
00001e06
ffffd9b7
ffffd8e4
00000a2d
fffff9f1
fffff6d0
000028d0
00000b37
fffffd8d
fffff1ae
00002358
00000669
fffff0ec
00001734
fffffe3d
fffff5b1
ffffe30b
00001b7c
ffffe9e0
00000cb9
00000391
000003dc
000016b3
fffffff0
ffffff4a
00000930
fffffd81
00000a4c
fffff931
00000099
00000a32
0000099a
00000def
fffffe96
00000b50
fffff153
00002fe9
000016c0
ffffdcfe
fffff9cf
000004ee
fffff778
00001359
ffffe3b8
fffffb67
ffffff70
000037d3
ffffec87
ffffdf63
ffffe96d
000028fd
000012e8
00000b45
fffff18b
fffff957
fffff6f0
ffffee02
00000a19
00000d93
ffffe49f
ffffec02
00000f70
00002609
fffffb8c
00001d09
fffff606
ffffd7d5
000013f4
000000a4
0000028f
fffffc8b
ffffdff0
fffff0fc
000010d2
000013d3
ffffe9f4
0000085c
00000907
ffffd22e
00000774
fffff3e7
00000a51
0000061d
fffff59b
fffff1d2
00001cc1
ffffe313
ffffeb06
fffff004
000005fa
000000e3
fffff80c
fffff0ff
00000b67
00002562
00001e40
ffffe430
00000066
fffff0ed
00000613
00000f49
000014bf
00002614
00000b93
0000005f
ffffdaaa
00000ccf
00000e20
00002793
00002187
00000105
ffffef25
ffffe962
00001c1f
fffff0ca
fffff4bb
ffffe608
000034fd
00000b25
000006dc
00000a84
fffff19b
00001af8
fffffc98
00000435
00004472
fffff136
00000d43
000033f1
fffff932
fffff25d
000001eb
ffffebb7
0000278c
00000595
00001124
000003b7
000002f0
fffff632
000031af
ffffff8b
ffffe5a3
000001fd
00000fcc
000003de
00002617
ffffc244
ffffdff9
fffffaaf
ffffe735
00001b7b
0000059b
ffffe95c
0000169f
000018f1
000008d1
ffffe6e3
fffff016
ffffe962
0000040f
000010c7
00000935
fffff5c7
0000273d
00000650
ffffee84
ffffef06
00001439
00000894
fffff9eb
000013f3
000006a6
fffff450
ffffea76
fffffcd7
fffff6a6
fffff6f7
ffffd981
0000083c
00000f09
fffff8db
00002238
fffff6d7
000013e3
000002cc
ffffe832
ffffee85
ffffe9e6
fffff5f1
00000a02
ffffe0af
00001bb5
0000096c
000005f7
ffffdb62
0000227b
00001dd5
ffffe9f8
00001bce
00000238
00000f22
ffffe7a6
000005f5
ffffe425
00000a19
ffffe584
000016b4
0000176e
00001436
fffff3f7
ffffff15
fffffb8b
0000021e
ffffe7bf
fffff2d4
00001ced
00002409
fffffa22
000016e9
fffff700
00001f5b
000011d5
ffffd522
ffffef75
000012f8
00000c57
0000111e
00001677
00001bb2
ffffe325
000001f3
ffffec98
0000049a
ffffeb90
fffffaf2
0000138f
ffffe7aa
00000af1
00000a93
000005b4
00001375
fffff0f9
ffffe97d
00001098
000009c7
fffffcc8
000011d6
ffffe8f0
00002016
ffffea85
ffffe75f
ffffff31
ffffcc5d
ffffed26
fffffc84
ffffdbf7
fffffd0d
fffff938
00002841
000015e7
00000d64
ffffe45e
fffff164
00001b71
00000246
0000049c
000003d0
fffff6e6
000005d4
00000329
ffffe342
fffff6de
ffffecba
fffff951
00003722
fffffd97
00002c87
ffffeb37
fffff3a0
ffffdbb0
fffff8f0
00000c9f
fffff158
ffffe205
fffffe6c
000001d6
00002eb5
ffffd74d
ffffe891
fffffb93
fffff3af
fffffc64
00000a56
ffffeb2a
ffffed2f
ffffea1a
ffffe793
ffffdc6b
ffffc0c9
000016d4
00002163
00000355
00001d94
ffffe5fb
00000925
fffff612
ffffea51
fffff1f7
fffff05f
ffffecc9
ffffdc6c
00001611
fffff342
0000034b
00000c12
fffff7d0
0000087f
ffffed42
fffffdc5
000006e9
000009e6
fffffb8d
00000ce9
fffff665
fffffb32
fffff6e2
000010f7
ffffcc2e
fffffe93
00000c80
ffffe5b3
000015cb
00001098
fffffe59
000037ea
ffffeaae
000009b9
000002cf
fffff334
000000cc
00003425
fffffc5a
fffff993
ffffebd3
000005dd
fffff6b8
ffffeb24
fffff5de
0000195c
ffffde3b
000004ee
ffffdc32
ffffdb26
fffff233
fffff40e
0000276d
ffffe3c3
00000ac4
00000e9b
fffffc42
00001d19
0000016d
00001041
fffff349
fffff0ad
0000300b
00002453
000015ee
00001571
00001409
ffffe76f
fffffed8
000030fe
00001234
ffffe3e9
000009d1
00001108
fffff367
fffff81f
ffffec28
000005c7
fffff22f
00000725
ffffee19
fffffe17
00000ffc
ffffe946
0000308e
ffffe967
ffffd677
000005d6
0000266d
ffffdb2f
ffffefa0
ffffe9b2
ffffd639
00000386
00003a28
00000a01
fffff0e6
00000c99
fffffad7
ffffe57c
00001039
000034cc
000017d2
fffff679
fffff569
fffffde6
00000460
0000145c
000002df
000009fd
ffffe6c2
00001a6e
fffffb25
0000168b
0000057a
ffffe186
ffffecf6
00001bee
fffff234
fffff5d5
00002b33
ffffdef5
00001241
00000dd2
ffffeba7
fffff1eb
00001496
000005a3
000016ac
fffff889
fffff20b
0000061b
00000ce6
00000456
0000073e
00001743
000003e6
fffff6e4
000008e5
ffffeecc
ffffcfec
fffff0a0
0000228a
00000cd5
0000215b
fffffbc1
00001bbd
fffffa08
ffffe6a4
ffffee0a
ffffef18
00000226
00001dd3
fffff723
fffff5a2
00001158
00001345
00000455
00000213
fffff75d
00000736
ffffe4bd
00001096
fffff3ff
fffff0d5
000002f4
000001e5
000025c0
00001a2f
ffffe165
fffffad3
fffffa49
000015c6
00001990
fffffab3
ffffdb7a
000005c9
ffffe88e
ffffe1cf
fffffeeb
fffff646
fffff66c
000007c1
fffff040
fffff376
ffffde74
ffffec66
0000127d
fffffe1f
00001bba
ffffea45
ffffe97f
ffffcbda
0000147d
fffff7ee
ffffffcb
ffffe8b8
ffffdda6
fffff6b0
fffff696
0000189f
ffffdee9
fffffb9e
00001a9b
ffffe5a3
ffffecb4
fffffd60
00000cf5
0000068a
00000ccd
ffffee11
0000062f
00000e00
ffffe21c
00002843
fffff885
ffffd5ee
000015dd
fffffc2f
00000e65
00000f1d
000006f7
00001b1b
ffffecd9
000020cd
ffffdb86
000010da
00000613
00001ca0
ffffe877
000003ca
00002a4c
ffffed1b
ffffeeb9
00002494
0000277e
00000151
ffffd69a
ffffedb8
ffffe30f
00002b6a
fffffc75
ffffed41
000002b2
ffffea22
fffff743
ffffffeb
ffffea10
ffffd60b
0000068e
000018ac
ffffe729
000019c0
ffffeb98
000003f7
000003ae
ffffde8b
ffffeb9f
fffff04a
fffff79d
00001027
0000156a
ffffeb40
000027f4
ffffe202
fffff462
fffff860
00002673
fffff6ac
ffffd3e6
fffff677
00001474
00001353
ffffee6e
fffff59a
0000129b
00000b16
0000026a
ffffd34c
fffff706
ffffff12
00000a9e
fffff5c4
ffffe13a
00000875
00001261
fffff287
ffffe3b3
ffffe95e
ffffdb6b
fffff323
ffffff36
fffffae4
00002bc4
000006aa
fffffd31
fffffd70
000016b2
00001c6e
000010f9
0000310f
000008fb
00000a34
00001b7b
fffffc95
ffffee0f
fffffc1d
00000efb
00001985
00000c7d
000013ed
00001090
000011c5
00000f1c
ffffe4c8
00000076
00000ef0
ffffeee8
fffffbec
ffffd89d
fffff939
0000118d
000038fe
ffffef2f
fffff3d2
00003118
00002dde
0000299c
ffffe5dd
00001a3b
00000c85
0000232b
fffffe37
0000193e
000004bb
0000149e
fffff495
00002545
0000078f
ffffe6f8
00000593
ffffca0d
00000398
0000061a
000002f8
000028a8
fffffa9e
000006ae
00002c72
00001b0c
00001473
fffff1f0
000028dc
fffff6f1
00001b56
0000124b
000016bb
0000164c
0000051d
000016ca
fffffe95
0000079f
fffff271
0000012c
ffffea27
00000275
00000393
fffffa59
ffffe090
fffffff2
fffff413
00000957
0000060e
fffff57a
fffff079
ffffddda
0000157b
00000212
00000aa4
fffff0d3
00001483
ffffea76
ffffe87d
fffff253
ffffed10
ffffe955
ffffe3f8
ffffd154
00000b9a
fffff408
fffff902
0000308c
00001fdd
fffffd3f
00001531
fffff7f6
000007d1
ffffdffa
ffffeb9d
ffffe9b3
ffffff6b
00002c45
00000767
ffffdc5f
00000138
00000fcb
ffffe98f
fffff9aa
0000089b
00003002
00000801
fffff805
00000935
00002845
0000094e
00000591
fffff935
000009f7
ffffdd85
000006f3
ffffc378
00001b71
00000c81
00000e8f
00003b5c
fffffbbb
0000150a
00000f11
ffffef82
ffffecbd
00000f1f
0000177a
fffff560
fffffe57
ffffffef
00002b02
00000772
fffff0b1
00000361
fffff319
000002f6
fffff313
ffffd397
000010a3
0000067d
ffffc121
000014cd
fffffa2e
000003f9
000021d4
fffffe97
00000829
000007cd
00000850
000003e1
fffff8fd
ffffe989
ffffeb2d
0000058f
00001819
ffffedc4
000000eb
ffffee3f
0000094a
00001567
00001539
ffffffcc
00002271
fffff6f4
000013c0
ffffeb7f
0000004a
00002016
fffff016
fffffdc5
0000067b
fffffce1
00000b99
fffff9f1
0000002e
00000569
000020ef
00001326
000001ec
00000c68
ffffe835
00003026
00000bff
00001349
000005fb
00001cb8
ffffea9e
00000122
fffffd59
00002041
ffffff65
fffff68e
ffffe702
000000eb
fffff0c0
ffffeb83
fffffffe
ffffe723
ffffdb33
fffff0d0
00002895
000013e9
fffff645
000009e8
000012db
00001996
ffffe59b
0000092a
fffffbc6
0000108f
ffffed53
fffffab6
fffff95e
ffffe065
fffffdda
fffff9a5
fffff389
ffffefce
ffffdfba
000007aa
0000063b
ffffef73
fffff1c2
fffffd7c
00000de1
00000a04
fffffca3
fffff724
00000d18
00000ce9
ffffeaf0
0000165d
ffffdeec
000010ad
00000431
fffffe46
00000fff
000002a4
fffff96e
000020eb
00003186
ffffd3f5
0000065b
0000047c
ffffedcf
00004f78
00000142
ffffe802
ffffff56
000028f5
00002930
000042a1
000016bb
ffffd8f5
ffffefbd
fffff7e7
ffffffa7
ffffe5c8
ffffe33f
fffff4f2
000006fd
000028f6
00001cd3
00000a79
fffff859
0000020a
000008fe
ffffe9b7
ffffe150
fffff5c1
fffffabf
ffffeb7c
00000571
fffffdba
ffffe9bc
ffffedf1
00002537
000016a2
fffff57e
fffff53c
0000126e
00001275
ffffe2c4
ffffe9a1
fffff7d3
00000421
fffff57e
00001a5e
000012a6
ffffd93d
00001bf8
00001571
0000195b
0000087f
00000b62
000003de
00002616
000009d3
fffff51b
000013e6
fffffad4
ffffe8ad
fffff611
ffffd54c
00001204
000016c6
ffffe004
fffffc09
ffffdf5b
fffff6b6
ffffe66f
00000859
000002df
fffff811
ffffdd3c
ffffe6db
fffff4e1
000005ce
000008d2
00001581
00000861
00000c5d
00001235
ffffdb80
00002295
00000498
fffffc32
00001c4a
00002056
00003a7a
ffffcd2a
00001a14
000003c3
00003131
ffffe406
ffffd883
fffffdd8
ffffdb9c
00000ded
ffffc027
0000051e
fffffccf
00001154
000004b2
fffffdfe
ffffe67c
00000e24
fffff76a
00002eb8
fffffe4e
00001c30
fffffde2
00001d2e
00000716
fffffafa
fffff597
00000009
00000332
fffffbaa
00000835
ffffeef3
ffffd5cb
000002c0
000004ec
00002d35
fffff8bf
00003367
ffffe2e5
00002844
ffffe2a1
00001fbd
ffffff6e
ffffd780
ffffe5a4
ffffffa4
000009c9
fffff983
fffff5d2
ffffc688
000001db
00001141
000000bf
0000188a
0000248d
ffffdbaa
00000105
ffffe867
00000a43
00000f8c
00001419
000010c2
000004fe
000025e5
fffff507
fffff5a1
ffffef94
fffffd21
fffff2f9
00002cd3
0000336f
000003e2
ffffd669
00000681
00000bd5
000009ff
ffffde25
00000efd
00001511
0000048d
00002c19
ffffd226
0000072a
fffff1c7
fffffebe
00000e75
fffff688
00000c43
00000907
000001cf
0000022e
000018ce
fffffff3
ffffe266
ffffffee
00000484
000012c7
00001500
0000066a
000009d0
00002675
000001bc
00000c0c
00000d9b
ffffee3d
fffff398
00001b13
000013ee
000017b2
fffff417
ffffe565
0000200c
ffffe394
0000059f
000000eb
00001c9a
00000aed
fffff6b9
00001558
00000c9c
00000f6d
00000fa9
0000002d
fffff1fa
0000000d
00001934
00004821
fffffff4
ffffcda4
ffffe691
000004d8
00000fde
0000127f
fffffd86
00005c8a
0000028e
fffff307
ffffef19
000016e0
fffffcd8
000013ac
000000f7
fffff84b
ffffd1d6
fffffe71
000000b6
000023f0
00001429
00001713
000011f8
ffffe418
fffffc41
fffffe54
0000144c
fffff324
ffffff41
ffffe7de
fffff2c5
00000e17
fffff03d
000016a0
ffffd768
fffff64e
000008b1
000027ce
ffffff1e
0000091b
00000174
000018cb
fffff0eb
00000ef1
00000117
ffffe1a1
00001818
00000182
0000141e
fffff8a6
0000038f
fffffb6e
00000187
00000673
0000051d
fffff5f7
000004ce
000008e1
fffffce2
000014ce
fffffa77
00003899
fffff8ba
0000293c
ffffdb3c
00001211
ffffefb2
0000367f
ffffdad2
ffffe551
000007ee
ffffe621
fffffb15
0000030c
00000f7e
ffffdd84
fffff2a2
000000de
00001c52
000024de
fffffc9f
000008e0
000021bf
000007f2
ffffefa0
ffffe40b
00000502
0000048f
ffffed63
fffffe2d
fffffa32
fffff55c
000010b1
fffff57f
0000068d
ffffe3da
00001c90
0000152b
00000d3f
ffffe3a2
fffff1da
0000027a
ffffb3e9
000018b4
ffffe827
00002030
ffffe06d
00000117
00002c61
fffff65e
00002ae7
fffffbbc
ffffed31
fffffffb
fffff10c
ffffdb0d
00002499
fffff114
00001610
00001895
000005c4
000006e9
ffffef96
000022cc
0000164e
000027d7
ffffe324
0000235c
000011bc
0000398d
00000c56
fffffed2
000015b7
00000609
ffffe29d
000011c4
ffffd5c9
000005ca
00001c78
fffff040
00001079
00000604
00001072
fffffad2
00001ac4
0000091f
0000246a
00002618
fffff92b
fffffd3a
0000116f
0000054b
00000548
ffffd8b5
ffffd911
00002481
000026b7
000000cb
0000242e
fffffd8d
fffff934
fffff307
fffff871
fffff926
ffffd73e
ffffdc77
ffffe569
0000155b
00000847
00002256
ffffebe5
000012de
0000026f
fffff597
fffffdb6
fffff59d
ffffed41
0000165b
ffffe580
ffffe99c
fffffbeb
000000c3
ffffeea0
000001d2
fffffdaf
ffffe469
00000319
000036f5
ffffed8b
00000cc4
000007a4
fffff4f5
ffffefe5
fffffc06
0000066c
fffffeff
00000258
ffffed6a
ffffdf99
000003ad
000007c1
00001655
00002623
000020c2
ffffecbb
00000f24
fffff554
000004c9
000011fe
00000226
00001150
000011ea
00002968
ffffe696
ffffee71
000015a1
ffffe5a1
00000873
ffffff9d
0000159f
fffffe67
fffff439
00001564
0000017d
fffffba0
ffffef65
00001391
ffffe884
00000e8f
00000b82
000001fd
ffffd289
00000a1b
00000cef
00001d7c
00001a1a
ffffec8f
ffffe6cc
ffffe8f3
00000cd5
0000136b
fffff860
fffff19a
fffff3d8
ffffe830
fffff3e8
0000036d
ffffe599
0000017e
000009f2
fffff047
00000273
00000042
00000842
fffff2d5
0000149a
ffffe402
00002151
00002ce5
00000953
00001158
ffffef64
00001f88
ffffedbd
fffffca7
00002892
00000618
00001032
fffffca3
0000059b
00001314
000011e4
fffffcea
fffff1e0
ffffecb6
ffffffc9
00000c3e
000030eb
0000171e
00000f57
fffff606
00001295
fffff232
00000f18
fffffbbb
fffff347
000013d5
fffff988
00001cf4
fffffaa3
00001d16
fffff623
ffffe19c
fffff622
fffff921
fffffe09
000029be
fffff01d
0000164c
fffff1ff
ffffec38
00000117
00002124
ffffe2f1
000007aa
00000cbe
000003d7
fffffe1b
ffffcaba
0000066a
00000f40
00001bd6
ffffdc85
00002bd0
00001b5d
fffff476
000017f4
000011ed
fffff869
00001580
fffff0a8
0000032b
ffffbe27
0000194b
fffff3a0
ffffee90
000005c7
fffffd16
fffff19c
ffffecce
fffffb90
fffffddb
000004c5
fffff1d3
fffffd7c
00000093
0000225c
ffffd92e
ffffd6da
00001a65
00001b36
00001e5b
0000099a
0000111d
000003a7
000003e7
ffffffd5
fffff851
00000913
00002b6a
ffffd90c
ffffff9b
00000a4a
0000056e
fffff524
fffff577
00000a28
fffffc05
00001dc4
00001052
ffffe5ec
ffffec0f
ffffeff4
0000077e
000010c4
00000725
00001320
00002594
fffff0bc
000004b5
fffff63b
fffff7fe
ffffe219
00000080
000012ab
00000f9b
fffffcd5
00002610
fffff10b
fffff773
ffffe222
000018db
ffffe968
00001079
ffffc35b
fffffc04
ffffd963
00000738
00002329
fffff193
fffff0d6
ffffec4c
0000150f
ffffebf3
00000790
ffffe74b
00001674
00001e26
00000155
00000c8d
fffff48f
0000036d
00000572
00001783
fffffaf1
000008ac
ffffe014
ffffe591
00000806
ffffffba
ffffff62
fffff9ab
ffffff66
fffffaf3
00001d21
fffff1ba
000000fb
00001305
00000042
00000b0e
00001153
00000b1c
ffffda7a
ffffe395
00001b2d
0000070f
000026a5
000003ec
00000e32
00000a3a
00000bdc
000019d7
0000032f
fffff38c
fffff619
00000254
fffff128
000001cb
ffffedee
ffffefae
00002b27
000016e0
ffffd046
00000dbf
fffff3c3
000005a6
ffffe959
ffffdf37
000007fd
00000488
00000f4c
ffffe819
000000a6
ffffe010
fffff0b5
ffffdff4
ffffef94
00002085
ffffec6d
00000092
ffffdee7
ffffe65f
fffff760
ffffebec
ffffdcb3
0000177a
fffff457
ffffd1d2
ffffe2e6
000007d3
00001d99
00001d77
fffffa8e
00000cbd
0000081c
fffff471
000000c2
ffffd845
ffffe7b3
0000083b
0000162a
00000abc
00000d74
fffff3d3
00000d78
ffffec4f
000017ec
fffffce2
ffffe904
000020c7
00000429
ffffe424
00000991
00001435
00000e9b
fffff7e9
fffff15b
fffff745
00002ccb
fffff855
ffffeca8
000002af
fffff5bd
ffffe8b2
ffffeff5
fffff2df
ffffccd3
00002af8
00002889
00000cb7
ffffec06
000004b6
00001dae
fffff5ec
0000327b
0000290e
ffffefa7
fffff9c7
000014ee
00000598
0000018e
00001ca1
00000257
fffff674
00000046
00000ddc
fffff393
fffff01c
000018b7
ffffd0e9
000001b5
fffffaf9
000012ff
000004d2
00001656
ffffe3c2
fffffb8f
fffff480
00002c0d
ffffd45e
fffff9e1
fffff5df
000003cd
000020a2
000008ab
fffffec0
ffffd850
00001f9f
000001ae
fffff697
ffffe7f5
000017d3
00001405
00000b05
fffff99d
00000b52
000003f2
00000e1c
ffffe664
00001469
00001867
00000c9a
fffff770
00000380
0000270c
000032e3
ffffe398
fffffa43
00000c87
fffffb4f
fffffa62
00000dca
00000efa
00001351
00001173
fffff847
ffffec62
00000a6b
fffff632
000010ac
000006f7
00001725
fffff8f1
fffff500
00001256
00000c8f
000006bd
00002056
fffffd8b
fffff82b
fffff442
fffff836
00001bd1
fffff096
00000f55
0000134a
ffffecdd
000012e3
ffffe2ba
00000936
ffffe69e
000001aa
000013db
ffffebba
00001309
00002a69
ffffe423
ffffe02b
ffffe1a4
fffffd0b
00001273
000009e4
ffffd485
fffffa6b
ffffefb3
ffffe01e
ffffefd9
fffffd17
fffff307
fffff34a
ffffeca5
00000abf
fffff1d3
fffff560
0000171f
00000aa7
ffffd385
fffffda1
0000104c
00001132
ffffee81
fffff801
00000bd0
fffff4cc
fffff61e
00000634
000018de
00000b16
0000099f
0000020b
ffffd70b
fffff45b
fffff7a5
ffffde2c
00000331
fffff44a
ffffc510
ffffffea
00000f0f
0000120e
fffff6a9
ffffffdd
ffffe4c4
ffffe0a3
00000cbc
fffff71f
0000158b
ffffed48
00001a7a
ffffe241
fffffba5
fffffe1c
000004e1
00000a9d
000001a4
ffffdbd4
00001b24
00000adc
fffff37d
fffff395
000003cc
00003617
ffffdadc
fffffaed
00000263
ffffc725
ffffef08
00000ba5
00000b74
00000385
ffffffa6
00001d2e
00001735
ffffd7f1
ffffea1c
00001014
00002913
00001c60
ffffff41
ffffe761
00001f81
fffff21a
00000a84
fffff4c3
000004ab
00000f64
fffff7ee
fffff4bb
00000420
00000089
00000146
ffffe66b
ffffe964
0000153f
fffff5c1
0000073a
00000d01
ffffeb2d
fffffab0
000008a5
ffffd804
fffffb3e
fffff848
0000002d
ffffe6ac
0000189d
00000ee9
000019ed
000002d9
fffffd5e
ffffef25
fffff56f
ffffe91d
0000052d
ffffe5c6
fffff957
ffffc890
ffffbcc5
00000d4b
ffffdb43
fffff16d
ffffffc8
00000e1d
00000aa6
00000a87
fffff576
fffff123
ffffffdd
0000137d
fffff13c
ffffccf5
fffff643
00002735
ffffdc88
00001baa
ffffc264
ffffe617
00001147
ffffef70
00000226
ffffff45
00002722
ffffedf2
000022af
fffff2a2
00000178
fffff8b5
00000843
ffffe86f
fffff923
fffffa22
0000212a
ffffdd48
ffffde63
ffffed52
fffffc2a
fffffd15
ffffea34
ffffed16
000001a5
fffff678
00000b21
fffffc3b
ffffed97
ffffcab8
00000fb2
fffff923
00001aab
ffffe7b1
ffffe592
00000927
0000011c
fffff2d7
ffffffb9
fffffb74
00000632
0000134c
fffff1b7
fffffe5a
00002c78
0000138c
00000950
000000f3
000027c8
fffff14a
000001bb
000009df
ffffe0f9
fffff3f5
00004022
00000269
00000484
ffffffbb
ffffd81a
fffff700
000004eb
fffff2f6
000008d4
ffffe2a3
00000ab8
00001a48
fffffd19
ffffe9e3
fffff94b
ffffecd1
ffffdb8c
00002367
ffffe4e4
00002595
00001202
00002150
fffff870
ffffed09
ffffeeee
00000682
fffff6e4
fffff1cb
00001af3
000004f1
00003060
ffffeff8
ffffed03
ffffe4aa
00000032
000017ce
00001564
00002678
0000197f
fffff970
000008e1
00001b2b
fffff0f1
ffffea2a
00000698
fffffcf1
00000ce1
ffffec10
00000336
fffff71f
fffff846
000000c9
ffffd55b
fffff423
fffff5a1
00000461
ffffead5
000001f4
ffffe409
fffffa07
ffffcb00
00000cb9
ffffd823
fffff167
fffff8dd
00000b80
0000019a
ffffff5d
00001365
ffffe942
00000255
ffffede0
ffffba17
00002117
ffffeb22
ffffe985
fffff9d4
ffffdf32
ffffdd72
ffffe01c
fffff45c
ffffdddc
000013f8
ffffe844
000000d0
00000655
00000fa3
fffffd74
ffffffa9
ffffe112
000016fd
fffffd01
ffffedc2
0000368e
00000ebb
000015e1
ffffeafc
00000f25
fffffd1f
ffffd58f
fffff671
fffff064
fffff9e1
fffffa20
fffff3e0
ffffda1c
0000095e
000000be
000011c3
ffffd6b9
0000157c
000013f9
ffffe5c7
0000064e
00000d5b
fffffd37
00001405
000029c7
00000817
fffff508
fffffdbf
0000170f
fffffdc6
fffffe78
fffff2ab
000002e2
0000282c
00000361
00001421
ffffec4b
00002b5b
fffff9c6
00000944
000010bc
fffff526
00003ba1
fffff78a
000001a3
ffffe22d
00000b45
fffffc05
fffff2dd
00000b3f
00001a8e
ffffe66e
fffff443
ffffeab5
ffffdff4
000031c2
00001050
ffffd673
000009bc
ffffd8ae
ffffe823
000002c7
0000109a
0000128d
00000ab4
00000cb2
00000bb0
0000154d
fffff9df
ffffef04
000009cf
0000263b
fffff6e2
000000c8
000012aa
0000170c
00001a5d
fffffa51
00001a70
00001b8b
fffff136
fffff265
00002dae
00001d1d
fffff07c
fffff854
ffffe924
ffffdaaf
ffffeede
000005f1
00001d82
ffffc544
fffff8df
0000044d
0000054e
0000126f
0000127f
ffffe5c2
00002185
00001f22
00000460
fffff053
ffffd077
000005af
ffffeb09
fffff491
fffff7b9
ffffef6b
ffffef49
ffffdb1b
00000e6e
fffff6dd
fffffc50
00002557
ffffe4b5
fffff4e2
000008f0
00000d0d
fffff666
000001c6
ffffc813
ffffe65e
00000c0f
fffff51c
fffffb94
00000731
00000c2a
ffffee43
fffff856
ffffea81
0000037b
ffffdd40
00000bba
fffff31d
ffffffaa
fffffee8
00001769
00000cb0
fffff641
000003d1
ffffe87f
ffffe181
00002199
fffff288
fffffeb1
00000188
00001f10
000025c0
fffffc51
fffff42f
ffffe34a
ffffedc9
00000125
ffffe3a4
00001048
00000a62
ffffe81c
fffffdc2
fffffce6
ffffef24
000012ab
00001fe3
fffffffc
00000a3e
fffff0eb
000025c3
ffffffc1
00003437
fffff368
0000097b
fffff71d
fffff9b7
00001064
fffffca7
00001957
00000ab8
fffffbfc
000016a7
fffff79d
000005f4
ffffef4c
00001bc2
00000f02
0000017c
fffff6de
00001241
ffffedea
fffffb77
fffff70d
ffffee6c
00000a15
00000312
00001dca
00000618
fffff800
ffffff67
000000a2
fffffbe8
00001f4f
ffffe947
00002088
ffffe417
00001770
ffffe5cb
00000a63
00000830
fffff871
00000dc7
fffff65f
000012f4
fffff8bc
fffffa04
00000a33
fffffbbc
ffffdb94
ffffd129
00000732
00001e6b
000014aa
ffffeff4
fffff4d8
fffff733
000006f2
000028bf
0000051c
ffffe920
00000ff0
00002109
fffff6b9
000017ca
ffffd073
000013fb
ffffdae0
fffff904
0000026a
0000206f
fffff6cc
fffff8cd
0000017b
ffffd657
00001647
000011dc
fffffff3
00000b3c
00000390
00001338
fffffb3f
000004e1
000007c8
00000edd
ffffd64e
fffff511
00001085
ffffffda
00000290
fffffdd4
00000b7c
ffffee19
00001416
fffff39b
000003c5
ffffe6ff
fffff83b
00001e38
000007aa
fffffe4c
00002aef
fffff8c4
0000082a
00001518
ffffeb3a
ffffece8
000007e7
000009f8
0000161b
fffffa35
ffffe71f
ffffeb3f
00000ad9
000025a3
00000a8e
00000cf8
fffffcaf
ffffed7f
00000020
00000267
fffff584
00000990
000019a2
000004fe
00001ce4
fffff193
fffff1ef
000026fe
00001d7c
00002732
ffffd5cd
ffffff5d
00000a96
ffffed0a
ffffdd76
000026f0
ffffebb1
fffffd19
ffffdd48
ffffef30
ffffc4d8
000022e1
00001293
00001e8c
0000146b
0000178e
00000576
ffffe159
00003c1e
fffff5f5
ffffdda9
00001d90
00002b81
fffffd45
00000290
0000206e
fffff663
ffffe67e
00001995
00000255
0000219f
00000e94
fffff840
ffffff6d
fffff0c4
ffffeec1
00000ef6
00000c1b
0000113c
ffffed0f
00000c65
0000050f
ffffdf67
000015f3
000002d3
00001daf
fffff647
fffff27e
ffffefbe
ffffff75
0000179b
00002634
ffffee05
ffffe4ca
0000132d
00000fdc
fffff96d
000000ab
00001a05
00000acf
fffff503
fffff72c
fffff204
0000025a
ffffda98
fffff720
0000055b
00000385
00000258
00000fde
0000173d
ffffca2b
ffffe119
fffffb14
00001529
00000004
ffffd7a3
00000216
0000016b
000000b0
00000735
ffffed9d
fffffc1f
0000171e
fffff41c
00000388
000013f6
0000088c
fffff74d
0000094a
fffff359
00000c68
00002644
00001954
00000707
ffffe83f
00001a33
00001eef
fffffe2d
0000074e
000009b9
00000bce
00000adc
0000105d
fffff985
ffffcd93
fffff6eb
00000173
000008b3
00000905
fffffa2e
ffffe039
ffffef90
fffff041
fffff45e
ffffebb7
fffff89c
ffffe086
ffffffd9
ffffedb7
ffffeca6
00001634
00000ac6
ffffebc1
00000f0a
ffffea1e
0000068b
fffff416
ffffe5d2
fffff1c4
000007ea
00001893
fffffeec
00000c2d
ffffee55
00001498
00001f93
00000f34
ffffd824
fffff522
fffff318
00001cd9
000005be
00001b4a
ffffda45
00001140
00001680
00003574
fffffabc
fffff6a8
00000c19
00001246
ffffed7f
00000cd3
fffff423
fffff0c7
000003e9
ffffee50
ffffe532
00000208
fffff332
ffffd1da
00000481
ffffd775
fffffac3
000002f0
ffffe057
0000308c
fffffb8c
000002fe
ffffe622
ffffe99c
00000fae
00002b1d
00001c8e
fffffead
fffff410
fffffc71
000006af
000006d3
ffffeeba
000009df
000006da
ffffdd36
fffff208
ffffc8fd
00001066
ffffd9c4
ffffe94a
ffffecf5
ffffbc73
0000168d
fffff97a
ffffe32e
fffff6d1
00002669
00000511
ffffe328
0000103b
00001f23
00002736
ffffe623
ffffe17d
ffffde3e
00002010
0000063f
ffffff28
000033e1
ffffd112
ffffd7ad
ffffc79d
00000b03
fffff3e5
00002504
fffff3ab
0000037e
000015e9
fffffa55
00001252
fffffe61
ffffdfc6
fffff6df
fffff5ae
00001f0f
ffffee70
000013ee
000022d0
ffffec4a
00003550
ffffe6b1
0000181c
000019a2
ffffe43b
ffffe46e
fffffca4
ffffd694
00000d7f
0000003a
fffffadd
000033db
ffffe866
00000b40
000009b6
00000301
fffff44d
ffffcc9a
ffffeca5
ffffffa7
0000103c
ffffecb1
000016d6
fffff59f
fffffca6
fffffdb6
fffff762
ffffea42
0000235b
00001def
0000012d
00001d6a
fffff4c3
fffff4f8
00000833
0000051a
000009a4
ffffebc9
fffff456
ffffdec2
00002a8f
fffffd3b
00000392
00001221
fffff4cd
ffffeaf1
ffffce88
0000124f
fffff7f0
00000ac7
ffffd8ab
fffffcbf
ffffde56
ffffd730
fffff027
fffff0ea
00001c74
00000fa5
00000c20
fffff609
fffffac0
fffff822
fffffb54
fffffc3d
00002b3d
000004a9
fffff8bb
fffff9dc
fffffeb0
00000f3b
ffffe0d4
fffff100
fffffb9a
0000133d
fffff288
fffff019
fffff876
000012a7
00002d55
ffffdcbd
00000647
0000081a
ffffef0c
ffffe168
ffffe078
fffff421
00000124
fffff44d
00000070
00000cb4
fffff569
ffffea1d
000026d6
ffffff38
fffff58f
00000f9f
00001e83
ffffff68
00000140
fffff3b9
ffffe90d
000008af
fffff7f5
ffffecdf
00001308
00000810
ffffd4c3
0000157d
0000189a
ffffe85a
00000baa
000009de
fffff920
fffffd55
ffffe423
fffff4c5
ffffddbd
fffffa3e
fffff84a
fffffbed
fffffbd6
ffffec64
fffffe0f
00002cbb
ffffcdb5
fffffbf5
fffffe92
0000029c
ffffe647
00002553
ffffc4a5
0000152d
000004a5
0000183a
ffffecf3
fffffbf3
00000b24
fffff2d0
00000d76
ffffff16
ffffe671
ffffe0a1
00000222
00000912
ffffe4a9
ffffd6bf
00002df7
00000fd4
fffff666
000018df
0000382e
00000d24
fffffe5c
000008ee
00001512
0000073f
fffffb8f
ffffe05c
00001084
ffffff73
fffff8ee
00000859
fffff579
000018f9
fffff5e5
ffffec6d
00000525
000003b6
fffff4bb
0000104d
00001d6f
0000130b
000019ee
ffffd640
ffffdad8
00000963
fffff49d
00000b6a
000026b8
fffffc3f
000012ed
ffffdcb9
00000b11
ffffecfe
000014a7
00001991
00001432
00000901
00001b35
fffffcc2
000012fd
00000382
00001e30
ffffe00e
000006aa
00000185
0000092f
00000a10
ffffecc5
fffff0ca
000015e9
00002166
ffffec74
ffffe84a
000039de
000006d8
fffff7ba
fffff0f2
000010a2
fffff5e2
ffffffa5
00004198
000007d3
ffffddae
00000170
00001a4a
fffff6d9
000022fd
ffffe4e6
000038b6
00001229
0000288d
000005d4
fffff0be
ffffd624
ffffe972
ffffd420
00000341
0000013d
00002b05
000006b2
00001243
ffffecd7
00001ebb
fffffdb0
fffff620
ffffe111
fffff5d9
ffffda07
ffffe6f1
00000ce7
fffffeeb
000004e7
fffff4eb
00001408
ffffec5a
fffffa53
fffff0e6
fffff32b
fffff7d1
fffffe8b
00000d6a
fffff177
000008a4
00000274
ffffe7e6
000010a8
00000a7e
00000bde
fffffa36
0000152e
000015f7
ffffd40b
000018be
fffff392
ffffd663
00001e0b
ffffe100
fffff867
00000128
ffffe49a
00001770
0000022c
00001ae3
ffffea74
00000092
ffffeb25
ffffee62
ffffe5a5
0000175f
fffffbd7
ffffeb21
fffffc73
00002070
fffffd9a
0000173a
fffff8fe
00001438
fffff87b
fffff45f
ffffee1e
0000128a
00001917
ffffe9bb
0000113d
ffffdf44
fffffb49
000007e4
ffffe9aa
00000ea4
0000008c
fffffb7c
ffffe772
ffffded6
0000091e
fffffa51
ffffe530
fffff5ed
00000e06
fffff9a0
ffffff6d
ffffeebf
0000112b
ffffe3d6
00000215
fffff4b0
000007fc
fffff939
fffffdf6
ffffff37
ffffca6e
fffffdb1
fffffeb0
00000fa0
ffffd8f7
fffffb84
ffffee60
00002d7b
ffffefe7
ffffe715
00000749
fffff7a9
ffffdcee
fffff1fc
00000916
fffffe06
000006f7
00000504
00000548
fffff839
000019b6
ffffec8b
00000085
000004a4
00001c83
ffffd760
000016c4
ffffd49c
fffff53f
fffff506
000032ee
00001f38
ffffff1d
0000112a
ffffd11e
fffffb90
fffff066
ffffecd1
0000112d
ffffcfcd
00000da7
00000c02
00002178
00000d68
ffffd6d4
00000b98
fffff3f7
fffffb20
000002f7
0000158b
000021ee
000023fd
00000ed2
000002b8
fffff649
00002b1a
0000078c
fffff999
00002483
00003252
ffffdd72
000034bf
00001a7f
ffffe0a1
000014d9
fffff270
ffffffb5
ffffe6d2
00002cfe
ffffda53
ffffd832
00000138
000006a9
0000141d
ffffd957
ffffe24a
00001182
ffffdc11
ffffec41
00000530
fffffe12
00002543
ffffe6d9
0000235d
00001192
00001007
fffff6c6
00001889
00001391
000012cc
000009fd
00001268
ffffeb77
00000133
ffffe394
fffffdef
fffffd57
ffffee85
00001980
00000523
00000189
00001c98
00002c3b
ffffe481
ffffd62f
00000fd7
ffffe7e3
ffffd167
00002460
00001fde
0000014b
ffffeba8
fffff5e9
fffffeae
00000331
0000349e
fffff774
00001ce3
0000033f
ffffe79c
0000196c
ffffed2c
fffff310
fffff59f
00001589
ffffdbf8
00000d02
ffffbdde
000028de
0000239f
ffffe793
000005a9
00001781
ffffee3b
ffffcad6
00001ae5
000007e3
fffffcac
00000f09
00001b21
fffffe17
00000713
ffffe9e6
fffff5ef
00001957
0000200d
ffffe6f1
00003c5d
fffff950
fffff632
00002095
0000079f
ffffeb27
ffffed00
000012bf
fffff0dc
ffffe9a0
0000051c
ffffec4e
ffffe1f0
ffffe74f
000010f3
000005df
fffff46d
ffffe58b
ffffd5a7
fffff1e8
00000ad8
ffffeb85
fffffada
00001814
00000202
fffffe88
00001505
00002670
fffff07f
00000537
00000e29
ffffea8f
000012ec
000000bf
ffffee5e
fffffb00
ffffe8b8
00002de1
00001ff8
000005c9
fffff6e5
ffffea7f
00000ecc
0000176a
00000a34
ffffe711
ffffde8a
ffffe6b7
fffff549
ffffdd44
00001478
00000781
ffffe553
00000f40
00000040
000033b6
fffff213
fffff783
fffffe0a
0000054c
000011c8
fffff62b
00001246
fffff820
0000097a
0000363a
ffffef90
ffffe9ac
ffffe250
ffffd4f9
ffffe378
00000ea2
fffffe6a
fffff181
000010eb
ffffcefe
00001d44
fffffd5d
fffffa38
000013bc
fffff1e7
ffffffe2
000000e6
00000f56
0000440e
00000163
00002db3
fffff64c
ffffebe6
0000340a
fffff9cb
00000acd
0000000d
fffffbc2
fffff768
ffffe2f9
fffff257
0000168b
fffffa8e
fffff81d
000022a8
fffff84c
00001cc5
fffff471
fffff313
000004d0
00000bf9
fffff470
00001fcd
fffff0f5
00000437
00000d23
00000ebc
fffff7ce
ffffebbd
000013e9
fffff136
000010fe
ffffe69b
fffff610
ffffea30
ffffef56
ffffe2bc
00000b4d
ffffe945
00000e81
fffff8e4
fffffb48
000006aa
00000bc3
00000fa8
00001740
ffffd90b
00000840
ffffdeea
ffffea60
0000156a
ffffed89
fffffc88
00000d7a
ffffebd8
ffffe2e0
00000665
ffffed7d
ffffe45b
00000acb
000027d5
ffffe104
fffff856
ffffdbe9
00000273
ffffe85a
ffffe8b8
ffffef6a
ffffe9ab
fffff3a6
00000210
ffffeedc
00000107
000012ae
fffff786
ffffddea
0000175f
00000bc0
00000f9c
ffffefe9
ffffff71
fffff233
00001d8a
fffffdda
fffff45b
00000d65
00000405
000008e2
0000004d
fffff392
ffffefef
00001ba0
00000968
000025dc
000002c6
fffffcd2
fffff7a4
00000086
fffffb08
0000267b
fffffc37
ffffd4c3
ffffc0aa
00000a0c
00000b34
fffff3da
ffffe98a
fffff8b9
00000838
ffffe473
fffff006
fffff86b
ffffef44
00000566
fffffc70
ffffc357
000048c4
00000834
00000c8f
00000596
fffffccd
0000037d
00001bf5
000000a2
ffffdc7a
00000202
00000490
0000092f
00000a29
000021c3
00001b93
fffffeed
ffffe7f8
ffffffb7
ffffe125
ffffbda9
00000d33
ffffe60d
ffffff16
ffffda72
00000fdc
ffffe2f1
00002aa7
000006ca
fffffd4c
00001697
ffffec78
000014cc
fffffa6c
00000980
00001376
ffffd74f
ffffede5
00000245
ffffe6cf
0000116f
fffff0b2
fffff634
0000009b
0000181f
000029a7
ffffee9c
00000e9a
0000074f
0000037e
fffffa38
ffffe94b
00000d63
ffffdc61
ffffdf29
ffffb81f
fffffbca
ffffe118
000002fe
fffff194
fffffe3b
0000081c
00000f27
ffffe60b
00000083
0000010c
0000025e
fffffcbf
00000b22
000019c1
00001f72
00001a6a
ffffec7b
00005760
ffffd62c
0000087d
000004cd
00001987
ffffdbfc
00002e92
fffff805
fffff852
000013a9
ffffe745
fffff67e
000003b0
0000144f
ffffef30
00002aff
0000166a
fffffbb1
00000a48
fffffffd
fffff18b
000020a8
00001eed
000008c1
fffffd20
00000530
ffffe8f4
00000733
000013b2
00000fec
ffffdbee
00001450
ffffe28a
00002fcc
00000391
fffff4ac
fffff84c
00000c8d
00000737
ffffcdf9
000027e1
00000b2b
ffffee4d
ffffce09
000027dc
000002d7
000005af
ffffef1b
ffffe53a
00001597
00000b3c
fffffa23
00001797
fffffcf8
ffffe2e6
ffffe12d
ffffeb48
fffff8c0
000005c3
fffff9bc
0000230a
0000000b
00001336
fffffd9e
00000856
000008ac
0000016b
000016da
ffffd9a2
00000076
fffff4ce
fffff728
fffff6a4
ffffee26
ffffe77f
ffffdc91
fffff0c6
000017e0
0000069f
00001b93
fffff3be
00001920
00000d3d
fffffaaf
000014ae
00000a36
00000198
00000da1
0000061c
ffffd9a7
00000311
000000f4
00000494
0000155c
0000194a
000004f1
0000063b
00001f18
000007ae
00001ee5
00000afc
ffffe2fe
000005f4
fffff500
00001028
ffffff98
ffffcb62
000008fb
000006f5
fffffe9e
0000219f
ffffffa7
fffff5f2
00000afb
ffffe236
fffff2f2
00000909
ffffe5e4
000008ce
ffffd937
00001d88
ffffe50e
ffffee3b
fffff465
000014fb
ffffe897
0000059e
00000232
00000d93
00000e76
000007dc
00001845
ffffef34
00000997
00000826
000027ba
ffffee69
000011ba
fffff061
fffff80f
fffff9eb
ffffeb95
fffff7a9
ffffde20
00000571
fffff0cb
ffffd659
00000125
000002b1
fffff637
ffffd5da
ffffe2f2
000013bf
0000041f
ffffd17e
00000d13
fffffffc
000028ab
fffff67c
fffff3c2
00001d6d
00001cda
000019b7
fffff978
00001b8f
000009f2
ffffeb44
00000c61
fffff320
ffffd6c4
fffffdfe
0000067e
000000ad
ffffee31
fffffb96
ffffd0f7
fffff517
0000145f
00000877
00000800
00000882
fffff1df
ffffff61
ffffe41c
ffffdf99
00000d4b
00000f0c
ffffec8c
0000085f
ffffe0be
ffffee76
000019e7
00001176
ffffbf3a
ffffeeef
00001976
00000e61
fffffe3d
00001fac
ffffdecd
ffffff7b
00002081
fffff4b1
ffffeeda
ffffe801
00000a82
000005a4
00001003
fffff1d6
fffffd3b
fffffeb5
ffffe3c5
ffffed6c
00000e2f
ffffe7bb
00000a75
fffff305
fffff104
fffff886
00000ba9
00000693
fffff0b7
ffffec36
ffffe800
00000ed6
00000187
000002f6
fffff23b
00002214
00000613
fffff7b9
0000085f
00000446
fffff979
fffff531
00000906
ffffecb5
000006a0
00001209
fffff95a
ffffe886
00000b57
fffff9f5
ffffe1ef
00003437
ffffea37
ffffe8d5
ffffd322
00001163
ffffcf75
ffffeee4
00000b49
00000715
000018a5
fffffa12
000014b3
fffffee6
ffffed62
00000350
00000acb
000008e2
00002705
00001b1b
00000c86
fffff13e
fffff041
000014c2
00000fde
0000102c
00000fb6
ffffebb9
00001a4e
000010a9
fffffb2c
0000380a
00000a9f
fffffad9
000007ef
00000438
000019a6
ffffe801
0000046c
ffffe11b
fffffd26
fffff4ec
000026fa
00000241
000021e5
fffff67c
fffff78a
ffffd59d
00002911
fffffc2f
000021d3
00000545
00000d06
00001b6c
ffffda76
fffff37b
00001cfb
fffff12e
ffffee2e
fffff39a
000013bc
ffffea39
00000140
fffffe8d
ffffec7a
00000af9
ffffe5ea
00000593
ffffdeb8
ffffdbef
00000d46
00000514
00000cd6
ffffd59d
000000e4
00000675
fffff2b4
ffffed64
00001664
00000872
fffffe4c
ffffecb4
fffff2b6
fffff619
000033cd
ffffd3eb
ffffeb17
ffffd443
0000327f
ffffff46
00001791
fffffab0
fffff906
00001c4f
0000134d
fffff0dd
000025d5
00001908
000002b0
ffffe105
ffffdd91
ffffef00
00000252
00000d4a
fffffe89
00001af9
fffff186
ffffd4ae
00001b39
00003c6c
ffffed74
00003101
0000000a
00000dc2
0000041c
fffff00c
0000247b
00001a46
0000192e
ffffe7d8
fffff8ff
00000396
0000030e
00000cc5
fffff801
00002552
ffffea14
00000e29
00001212
ffffebca
fffff18a
00000be8
0000002d
00000c92
0000100e
fffff30b
fffff86b
000001ba
000018ad
0000078b
ffffecdd
fffff047
fffffe40
0000140a
fffff9de
000006b8
ffffdfc3
00000a9a
fffff81d
ffffeb9a
fffff219
00001e66
00001749
00000b39
fffff36f
00000584
ffffff87
00002998
ffffeccd
0000088b
00000ead
ffffe9e4
ffffe162
fffff984
fffffaac
00001f70
000001df
000008de
0000194f
ffffeb01
ffffeb4e
ffffcd12
00001db3
00000c96
ffffef84
fffffd6d
ffffdf79
00000a75
ffffd6f2
fffff868
ffffff67
00001df9
ffffffdb
00000807
0000243c
fffffaf7
fffffd91
00001bcf
fffff475
ffffdf24
ffffec70
fffff7e4
00000680
00000370
0000069f
ffffd7d2
ffffea31
fffff6c2
ffffe762
fffff60e
fffff457
000003a7
fffff7aa
00000aa0
00001e3b
ffffeb1c
0000034a
ffffefbe
ffffdb24
fffff404
fffffaf1
ffffe559
fffffcb7
ffffe5d4
ffffec71
0000093f
000008e2
00000f4d
000028c8
fffff03d
ffffe853
00001a62
00000594
fffff70b
ffffdcc1
ffffe7a2
0000078c
00000c87
00000a18
0000280c
fffffe8b
fffff4d5
ffffd1e8
ffffe7ac
fffffdcd
000013c7
fffff365
0000020b
00001781
00001412
00002169
ffffd8fc
00000379
fffff536
ffffe665
00000071
00000d5f
0000060a
ffffdf4d
000020d2
00000d49
ffffe186
ffffec35
00000b53
000007a4
00000fb8
fffffd15
fffff5ce
00000fda
00000995
ffffe819
fffff4f5
ffffedb2
ffffeb85
fffff950
ffffee52
ffffebe8
fffffe55
ffffe6f5
00000782
ffffedb3
000017c3
0000214a
00000fc1
0000334e
00000549
00001185
00001334
fffffd0d
fffff3fb
fffffcff
fffffa98
00001f26
00002624
00001a75
000008e2
fffff5eb
ffffe861
fffffd58
ffffdd57
0000057d
00000900
00001dd5
ffffc857
ffffe31b
ffffe2ab
00000987
0000220c
fffffb0e
ffffef7a
00000b3b
000010f4
ffffcc0f
ffffd61c
0000150d
fffffbc7
ffffef15
fffff901
ffffdb6b
ffffedeb
fffff649
ffffd37f
00000204
0000019d
ffffff4a
00001a01
00000746
000018a6
0000050f
00000828
ffffef44
0000074b
000007e9
000016e2
00001d51
00000597
00001c04
ffffd7a0
fffff131
ffffd067
ffffdfc3
00000c41
ffffef4c
0000067c
000018d6
fffff0bc
00000564
0000114e
000006b8
ffffffb4
ffffd7ba
000000b1
00000713
fffff66e
fffff1e0
ffffdcfa
fffff6b3
00000eb4
ffffff6e
00000f44
00002f04
00000335
00002073
000007c5
00000146
00000034
ffffc733
fffff061
fffffe64
ffffffa9
ffffdd49
fffff48d
00001883
00001526
00000c63
00003926
0000176b
00001d3a
00000f85
00001dd2
00000830
00001c82
ffffe163
00001066
00000be6
000000ce
000028f9
000011ab
ffffff18
00000215
fffff684
ffffe5de
ffffebc2
ffffd1f9
ffffef59
00000c34
00000921
fffffe2f
ffffe253
000028c3
ffffb037
00000406
00004328
000011e4
ffffef03
00000ded
000008ea
000004ef
000034c4
00001433
000005a9
00000f18
fffffe32
fffff0da
fffff397
000012b4
000009e2
fffff11c
00001bb1
0000013c
00001784
fffff3d1
000001f0
fffffe3e
fffffd2c
fffff52d
00000a42
000000ff
fffffd09
ffffce45
0000097f
000001a3
ffffef23
fffff89b
ffffdfad
ffffff08
ffffff47
ffffeba3
ffffe906
fffff434
000027df
00000216
fffff82c
ffffe1f3
ffffe222
fffff3d0
fffffa21
fffffbf6
ffffe549
000002c8
ffffce9e
00000514
ffffe224
ffffefd5
fffff575
000026ed
ffffe5b7
00001d11
00000522
0000028b
ffffe287
00000160
00000242
ffffe874
fffffa8c
ffffed4f
fffffcb0
0000132f
ffffe57c
0000004c
ffffe722
ffffeff1
fffff0c7
ffffe013
00001945
fffff621
00000721
ffffec67
0000189c
fffff7ee
ffffeda3
fffffd17
fffffc28
000007d1
0000015e
00001880
ffffdb82
fffff903
00000ab5
fffff728
fffffafe
00002fe5
ffffd64f
00001e20
ffffe512
ffffe680
000006f1
ffffdbd1
ffffe575
0000041d
00000994
ffffde02
00002e0d
ffffcd16
00000140
000000cb
00001535
000039ed
000018eb
fffffed2
fffff517
0000147a
000000a1
000008c5
fffff94e
ffffec34
fffff27a
fffff301
00002811
00001262
000007d3
ffffec38
000012a6
ffffeeed
fffff023
ffffe8bd
fffffc10
fffffdf6
00000a9b
0000076f
000021a8
00001368
fffffbe1
00000b80
00002638
000000d7
ffffffae
fffff08d
00000bb9
fffffe84
00001451
ffffe486
00000840
fffff99f
00000a41
000021b4
fffff66c
ffffe726
00000c3b
00000fc4
00001f41
ffffef6b
fffff181
00000851
ffffe7bc
ffffed94
00000b93
0000194a
ffffe787
ffffee7a
ffffb7d3
0000177c
00001e6b
000001bb
ffffd473
00001250
00001cbc
ffffe464
00001449
ffffe593
00001186
ffffeb5f
fffffebb
fffffe81
fffff72f
ffffee55
0000097d
00001934
0000278c
00000a83
00000521
ffffe365
0000001a
ffffe804
fffffe34
ffffce6c
ffffef87
fffff796
000017d0
fffffdb2
fffffa0a
00000b53
fffff734
00001030
fffff187
fffff178
00000f04
000001f3
00001661
00001537
00000d3e
00000265
00000f6c
000006b5
fffffd08
ffffe7b4
000009bf
0000049b
00000585
00001aa9
00000a17
fffff22f
00002da2
fffffb1f
0000121e
000013a5
00001a7d
00003952
00000859
ffffefd7
00001687
0000199a
fffff2d2
0000048b
00001129
000000e0
00002a5b
000012d0
ffffeb74
0000042b
ffffefa4
ffffde74
ffffed59
00001aa2
00000b43
fffff4e8
ffffe3e1
fffff109
00001b66
0000174a
0000230d
fffffe1d
ffffefa4
00000524
00001d7b
000033d5
00000cd8
0000108a
000014b0
00000e63
00000bb6
ffffe81a
00001a66
00000e9f
ffffffd1
00000606
ffffe7a6
fffff2c7
00001e70
0000154d
0000087d
fffff244
ffffea84
ffffe62a
00000e92
ffffff70
000003ef
ffffff89
fffffc99
fffff4b5
00000dfb
fffff318
fffff3b8
0000077d
fffff716
ffffe8c9
00001b8b
ffffee8d
0000026e
ffffea72
ffffe2d2
00002712
00000157
ffffba46
00002196
ffffe4cf
ffffec0f
000014f8
00000120
0000224f
ffffecce
00000bd2
000015a7
00002217
000001a8
ffffe8ee
ffffd114
000026a9
00000599
fffffaae
000009fb
fffff733
0000062b
00001a3a
fffff9a3
ffffdffd
000000d6
00000389
fffff996
0000194e
000005be
00000b71
00001b3b
000018f6
00000b44
00001849
ffffd7c1
ffffe0a1
ffffee46
fffff956
fffff334
000010b1
0000070b
fffff27e
ffffd785
fffff7dc
00002a82
00002887
00000e4d
00000341
0000156e
00000027
ffffecb9
fffff426
fffff55f
0000109c
000005fb
0000062f
00002de0
00000840
fffff9d2
ffffe2d3
000008b5
fffff91d
fffff8a6
ffffdc84
ffffe81a
0000282f
00001196
fffff9d5
fffff013
fffff553
00001569
ffffe696
0000087b
000014dd
0000002d
fffff582
00001724
fffff5fe
fffffd92
fffffe29
fffffeb5
00000a0c
ffffeb4b
ffffee9f
ffffef30
00003e5b
ffffce27
fffff507
ffffefcc
fffffbf0
ffffedde
000018a7
00000097
000016f6
ffffd055
ffffe776
ffffeee1
000020ec
00001da9
fffffc3d
00000ffb
ffffd97a
000014c9
00000099
000008ef
00000227
00000f89
00000451
ffffffb0
fffffd33
fffff497
fffff688
ffffec19
00000f3a
00001d23
fffff5cb
ffffe73f
ffffeaf8
ffffd5e8
0000094b
ffffe6d9
000007b5
ffffffa7
fffffbd2
fffff6c1
0000009a
0000151d
00001907
ffffea2a
000004de
ffffe8ea
000001a9
ffffa822
ffffe773
00001db2
ffffba55
000027a6
0000180d
00000450
00002295
ffffe1f9
ffffea73
000004ed
fffff0a0
ffffdd30
00001e04
0000033a
fffff56f
00000a45
fffffdad
00000b5c
00000551
ffffd89b
00000ec4
fffff54d
fffff9c5
00000762
fffff9fb
ffffdf9d
00000c8c
00001029
ffffe6ac
ffffe431
ffffeb0a
00000d48
ffffef81
000002a2
000029aa
0000039b
fffffcfa
fffff3da
000019a7
000007c4
fffff937
ffffe726
ffffde0b
0000101b
fffffb2e
00000caf
ffffe8be
00002945
fffff0fe
fffff19d
000010e2
00001550
ffffe266
ffffdc2b
0000013e
0000002f
0000060f
000018a4
000017d4
ffffebca
00001e79
fffffbb4
fffff1f6
00000ace
00001285
0000045c
0000140f
fffff909
00002e00
fffff573
00000aa8
00000133
00000622
ffffec0d
00000808
00002a34
ffffd8f8
00000928
fffffe32
00001c7a
000023f3
fffffccc
0000015f
00002938
00002bbe
0000318f
fffff287
fffff1ec
00001a1d
000014f4
00000369
00001f6f
ffffe875
fffff29f
fffff92a
00000b77
000019fa
000007be
ffffe5a9
0000171b
00000822
00000134
ffffe835
ffffefb7
fffff336
00001c8d
000018b1
ffffe7ce
0000174e
0000098a
ffffef34
000003a8
0000204d
ffffe2c7
000003bf
ffffebfb
00000d41
ffffe100
fffff82b
fffff3c4
fffffd7f
fffff901
0000169a
ffffea07
000011f4
000006c4
00000ee6
ffffd85f
000002e2
0000201a
000007d0
000007d0
0000049a
00000af8
ffffe445
fffff356
ffffdd63
ffffc7c8
000001a5
fffffae0
0000005c
0000042b
ffffe7f9
ffffd5a3
fffff9ea
fffff447
00001e18
ffffe87f
0000128e
ffffe92d
fffff362
ffffef6b
ffffdf2d
ffffe94e
00000be2
00000761
000006b5
fffffee8
00000cc0
ffffff4e
fffff94f
fffff9f6
ffffcd0a
fffff47a
fffff6c7
fffff22b
ffffe9e9
0000085e
ffffdbad
fffffb3f
000003d8
ffffe230
ffffe483
fffffcad
ffffeab0
ffffdc24
fffffcca
fffffbf5
fffffde3
0000145e
00000f46
ffffee5c
ffffed89
ffffe92f
00000b5b
0000091c
000008d1
000009c3
0000087f
00000021
000027d5
fffff3b8
ffffed6b
ffffdb11
fffff9f6
fffff3cf
00000d87
ffffe62e
00001393
00000512
ffffea35
00000bec
00001d52
ffffe83c
000019a9
00000675
00001795
fffffe45
fffff717
00000af6
ffffe9ea
000003f7
fffff9be
ffffebff
ffffd48e
ffffe3e7
fffff03a
00000a95
ffffe6b1
fffff2c9
ffffcdbd
fffff572
ffffd1c7
0000148a
fffff967
00000af2
fffff167
00001c8b
ffffd895
000013a6
fffffe48
fffffeaa
ffffea74
00000137
00001411
ffffe4ba
ffffe01c
00001aca
fffffc39
ffffd6d5
ffffe904
ffffeb75
0000016c
ffffe4a5
000004f4
00000ceb
00000631
00000042
00000afc
fffff6e3
000001c6
ffffef38
ffffd312
fffff89b
0000071f
00000991
00000c20
ffffdc66
00000a5a
0000213d
ffffed74
ffffee76
00001d9e
0000064a
000016f8
fffff515
00001f61
fffffbb3
ffffefef
ffffdb48
ffffd15b
000019a0
ffffebff
00000e3f
00001bcd
00001268
fffff0ec
ffffdcb3
00000c3e
00000d05
00001cf3
ffffdc39
00000d7c
000021b3
fffff509
00002417
00000180
fffffe4b
ffffd81b
00000dab
fffffd75
00001736
000010ec
0000031d
0000107c
ffffd70f
fffffaf1
ffffda6b
000016f9
fffff6d6
00000315
0000289a
0000074b
00000fd5
ffffe0ff
00000ab1
fffff05b
ffffc351
ffffeb1f
00000d46
ffffd3fd
00000adc
00000a72
00001a1e
00001567
fffff568
fffff803
fffff57f
000010c5
fffffe89
fffffea7
00000fd7
ffffcfbd
000005e4
00000e23
ffffddce
00001658
fffff7f1
fffff044
00000f56
fffff88f
00002866
0000369a
00003247
ffffe866
00001305
00001b2f
ffffdfc1
ffffce5c
000006cb
ffffe397
00002b58
00000097
fffffee5
00000716
fffff5d9
ffffebef
ffffefd7
fffff5f0
00000023
fffffddd
000020ef
00000ab9
ffffed23
ffffff0e
ffffe238
ffffe221
0000235e
ffffe251
00000043
0000070c
fffff3a5
fffff987
000009c5
0000076d
000011cb
fffff2d7
fffffdc5
00001102
ffffcc3c
000022bc
00003a7e
000024ce
fffff822
fffffdda
fffff6ba
fffff71b
fffffd67
fffff5d5
ffffdefc
fffff060
00001110
000024fb
ffffdf32
fffffea2
ffffe8de
ffffe3ca
fffff2f6
fffffd74
00001c19
ffffd988
fffff98e
ffffe147
00000712
00000c8c
00000297
fffffc8c
000009b0
000005b3
fffffb82
ffffe6ed
fffff407
fffffe78
00000c2d
00001f11
000003e0
00002a7b
fffff369
00002625
fffffc34
ffffffd3
fffff574
00000570
fffff252
ffffddf6
ffffe3ab
00001c7f
00000afc
00001053
fffff829
00002032
fffff577
000005cb
000007c7
00002e99
ffffec02
0000154e
000013c2
00002816
00001f3f
ffffe880
000020ca
ffffe8a8
ffffdfcb
0000004d
ffffd0ca
ffffff62
ffffe591
00000738
fffff34e
ffffd88f
0000058b
000004e5
ffffebb8
fffff79b
ffffecca
ffffebbd
000024ca
000005c3
000032f7
fffffa17
00000815
fffff7d2
fffff38c
00001b3c
0000144b
fffff56a
00000b84
ffffdd0e
fffff562
00000ca6
00001abf
000022f9
ffffe7bc
00000354
00000d4c
fffff6a1
fffffa94
ffffe284
ffffeff3
ffffefd1
fffffbf6
ffffee89
000005be
ffffe0c5
fffff6e0
ffffe9f7
000020fa
ffffea5a
ffffe403
ffffea68
fffff3e1
0000044a
fffff3e0
000027f2
00000c75
00001a08
00001a29
ffffe33c
fffffb55
ffffef3e
fffffbab
fffff259
00001f67
00002669
ffffed03
00001064
fffff8ca
0000039e
000001d6
00000871
fffffa77
00000554
fffff853
00001349
ffffebf7
0000011b
00002a90
000038d5
fffff7d8
ffffe51a
ffffe7a8
0000132b
fffffddd
0000107a
ffffffb7
0000053f
000019d3
000000f2
ffffecd6
00001654
0000169f
ffffdb7f
fffffb49
ffffff5a
0000179b
00001068
ffffe92a
ffffe832
000004ea
00000cf1
ffffeccd
fffff2ec
00002ae4
ffffffd9
ffffed14
0000237d
ffffe353
ffffed92
fffffa53
00000a03
fffff5ed
0000092b
ffffd4f5
000017b8
00001628
ffffb0a1
ffffde58
fffff25f
ffffe803
ffffef44
00000fd5
fffffa6d
ffffe933
000001b9
fffff5b0
000000ec
00001a18
ffffd8f0
000004f8
ffffc09f
ffffefff
00000b68
00000f77
fffff2bf
00000038
fffff6cf
fffff669
fffff247
0000132b
ffffdb3c
000007be
ffffd5a5
000006c9
0000011e
fffffc57
00003e76
00001631
00002d53
fffff43a
ffffc60d
fffff295
000006e8
fffff818
00001a08
00000dd3
00000715
00000665
fffff648
fffff1b4
ffffdb54
00000b8f
fffff024
00002e42
ffffdc00
ffffd19d
00001f0b
00000f33
fffff054
ffffece4
ffffe324
00000d97
fffffe4a
00000d49
0000019b
ffffee7c
ffffec33
00000198
ffffe4f1
00001608
ffffea5c
000010a8
fffffe07
00000725
000001c2
ffffeb20
fffffef6
ffffeb70
000012af
fffffa64
0000035c
00001685
00000a79
fffff53f
fffff4ba
0000213d
00001373
000038a3
00000deb
00001960
ffffef3e
00000b2a
fffff972
ffffd451
ffffe3ac
00000c0d
00001e8d
ffffffe6
00002a41
0000033e
ffffed40
fffff139
000023ac
0000078c
ffffff9f
fffffdcd
00002643
00000704
fffff584
ffffede4
fffffce2
fffff5ab
00000e9f
ffffdd9f
fffff62e
ffffe469
ffffe9dc
00002050
fffff851
ffffe9f5
ffffdb4f
00000591
fffff549
00001a1d
0000189c
000004e0
fffff0bc
0000126d
000000ee
000002c5
0000008e
fffffa49
ffffe5e0
00001314
00001277
0000170e
ffffddf8
000015d0
fffffccb
000002f1
00000314
fffff7c0
00002772
ffffef86
ffffdef2
ffffe3e3
fffff252
ffffe7f2
00001290
ffffdd68
ffffce42
0000088c
00000738
fffff403
fffffcdc
ffffe320
fffff5f9
fffff6fd
ffffec40
00002a8e
000010a1
00000c1a
fffffa4c
fffffdb0
00000f20
fffffc14
00001f25
ffffe8b2
0000082d
fffffead
ffffd805
fffffc8a
fffff63f
fffff562
ffffca46
000011fc
0000039e
00000b0f
fffff169
000004b7
ffffedae
ffffe933
ffffd644
fffff681
ffffe14a
fffff553
ffffd93f
ffffcd05
ffffdc90
000007e1
fffff51d
00000b38
ffffee9e
ffffedd5
00000a0f
00001222
00000db4
00000bed
fffff8bf
000015f0
fffffa8f
ffffee3c
fffff9e9
ffffea98
000004d0
00002fbb
fffffcc7
fffff2cd
000016fd
fffff5cf
ffffe9e9
000010b9
00000c61
fffffcee
fffffaf8
ffffe83a
000002bd
fffff0e3
000010e8
00000f10
fffff2e2
0000085d
fffff8c2
ffffdb6a
000017c1
fffff563
ffffddc9
ffffd9cf
000013d5
0000052b
ffffdede
ffffeb05
ffffed88
ffffceac
00001279
000001e5
fffffaef
fffff660
fffff215
ffffef41
000015fc
000008cd
ffffefcf
0000066e
ffffdb62
fffff3c5
fffffd40
ffffb8d0
00001457
fffff4eb
00001042
ffffe0f5
00000f30
ffffefbe
000017c2
00001cbf
fffff64b
000010be
ffffe27b
00000e10
fffff512
fffff6aa
0000080b
ffffecc4
fffff978
00000466
fffff796
ffffdb55
fffff58e
fffff8d6
00001fd4
00000ba4
0000154a
ffffdfc1
ffffe795
fffff3a1
fffff284
fffff827
000005a6
00002180
fffff242
fffffc1b
00001406
000004ce
fffff080
ffffeaba
fffffa18
00001973
000013b1
fffff49b
fffffc97
000011c2
00001c5d
00002c94
00000d25
ffffec0b
fffff5c7
00001032
00001b8b
ffffca3c
0000005d
000010a4
fffffcf7
00001d1f
ffffe54b
ffffdfbd
000022bf
00001903
00000664
ffffefa5
ffffe811
00000393
0000190a
ffffff98
00000c90
fffffc69
ffffe986
ffffdde2
000013b6
00000d60
0000066b
00000d95
ffffd22c
ffffe7c4
00000861
00002a5a
fffffc49
fffff2f9
fffff19d
fffff7f3
00001621
00000f9b
ffffe8ad
00000cd1
000008da
00002914
fffffa56
000009c2
ffffded4
000010ee
fffffc6d
00000d92
0000078a
0000140e
000004ff
0000144a
0000233e
00001d61
ffffec33
00000ea3
000015ee
00000aad
0000037c
fffff76e
fffffbc2
ffffefd5
000003bf
00002af8
fffffb0a
00001d86
000011c5
ffffffe9
00000b7c
000018f7
fffffdc9
ffffe906
ffffdd66
fffff6f7
fffffeb2
00000ba0
00000e43
fffff1f8
000002ff
000021e8
00002e95
00002fbb
00000f2d
fffff77b
000013e5
fffffe52
000028b6
00000567
000009b3
ffffcf2b
ffffda3f
00001af3
00000436
ffffde0f
00001207
00001a7f
ffffe69f
00001d89
00000c5a
ffffef40
fffff2f6
00001b6a
000004c7
00000129
ffffe88e
00000f81
ffffe4ae
00003612
0000385c
00002098
00000781
fffff64f
fffff016
00000012
ffffe760
00002ac4
00000bff
000002ec
00000073
fffff837
00000ed6
00002523
fffffffd
fffffab0
fffff330
fffff9b7
fffffe4b
ffffc78a
00000899
ffffe62c
00000b07
ffffdad0
0000110c
00001354
ffffea04
00001494
ffffd9db
00001aba
fffff6d9
00000c97
000001f2
000001d5
0000139a
fffff66e
00000bed
fffffee1
00002059
ffffee6b
0000182b
fffff8ba
0000062e
fffff396
ffffde04
fffff96d
fffff10d
00000b8f
fffff1cd
ffffe694
000029fa
00000442
00000eb9
0000226e
ffffeb65
ffffe994
00002be9
fffffa24
00000f4a
ffffff58
000008df
000005d7
00001248
ffffe4f5
00001090
fffff187
000014b0
ffffd5d8
fffffd45
000011f8
fffff0fa
00001c0c
ffffef1b
ffffefa3
000015b9
fffffd11
00001dd0
00000491
ffffeb85
00002129
00000cc9
fffffcc0
fffffa44
ffffff2c
00000524
fffff363
00001b7d
00001b74
0000068c
fffffc81
000000f7
fffff406
0000052f
00000d4c
00000fc9
000001a9
fffff685
ffffe69c
ffffd863
00001e98
00001816
00000205
000000cc
ffffddf2
00002e40
00000fd6
0000000f
00002055
ffffd697
fffff6da
fffffea4
fffff39e
000034d0
ffffee81
00000171
00003013
00002326
fffff38f
ffffef6a
ffffe4f4
000025f2
fffffe82
ffffe162
ffffea66
ffffe057
ffffe120
0000122f
fffff118
ffffd8a9
000007dd
fffff3d0
00000016
fffff6aa
fffffa98
00000925
00001664
00001f11
fffff582
fffffde7
00000257
00001530
0000080f
fffff065
00000049
00001c8c
fffffa22
0000001f
0000034a
ffffdf24
000006c9
00000170
000020f7
00000b81
ffffdeab
00002350
00000baf
ffffcfda
fffffe4b
ffffee51
ffffe5e5
000011e3
ffffe960
fffff143
000012ed
fffffc6c
ffffef4e
fffff09e
0000051b
00000c02
fffff4e2
fffff9f5
000007fa
0000095a
ffffd5e0
000011f2
00001052
ffffdc53
00000276
000011e4
ffffe518
000012aa
000008c9
fffff3ac
00000f4f
00000c2b
ffffd51f
fffff0ef
00000169
00001735
000011e7
00000f8e
00001c54
00000e38
ffffedac
ffffdadf
ffffdcfb
fffff1ff
00001324
0000003a
00001ab9
ffffef1f
fffff7f1
00001c1d
00000671
00000c02
0000023d
00000217
ffffcb82
ffffef8f
00001444
fffffe00
00000b62
ffffeb64
ffffff9c
000002ed
00000c4b
fffff49d
00000eff
00000fef
ffffc21a
00002ca7
000026a7
0000058e
ffffefbe
00001651
000015a8
00000cee
00000fec
000019fc
00000d3d
0000159d
00001ae7
fffffe99
0000000a
fffffbf9
ffffdebf
00000bfb
000011a7
ffffeb3e
fffffe71
ffffe885
00000f46
fffff87c
ffffc296
00000e67
fffff594
fffff48e
ffffff79
0000168a
fffff174
00000c19
ffffc78c
00001dc9
00000329
fffffea4
ffffe66d
ffffe346
fffff9de
00002074
fffff2a5
fffff9d9
fffff64d
fffff380
ffffe7c0
ffffedd1
ffffeac3
000029ef
fffff2e2
ffffd631
fffff62a
00000983
00002240
ffffe996
000004ac
00000f3e
00000ccf
ffffdf5c
00001c59
ffffeb56
000013d5
0000265b
fffff30a
00001c51
00000987
fffff033
ffffcae5
00000c1b
fffff007
fffffbbb
00000105
ffffff56
ffffee52
000003ab
ffffc12b
00001f3e
00001054
00001fb2
fffff193
000013f6
000025c6
00000346
000017e7
00002bf5
000007f9
00000451
00001852
00000869
ffffdf9a
00000489
00000561
00000607
000010fd
ffffff77
fffff94a
00000747
fffffb84
00000040
00001500
0000165f
fffffd91
00000ec6
ffffec09
fffff261
ffffeb32
00000c40
fffff29d
fffffd2b
fffff99a
fffff2cd
ffffb1c5
00000d47
000006ad
0000004f
ffffd91a
fffff9c6
0000074c
fffff501
fffffbbf
fffffa5e
00001509
ffffeef7
fffff2ab
fffff9fd
0000027f
ffffe260
0000233f
000033ab
00001037
00001ee0
ffffd9f5
00001706
ffffd631
fffff702
0000103c
00000e3a
00000975
ffffd6c5
00000c74
00000e0f
ffffddaf
fffffa8a
ffffde3e
fffff4b3
fffff404
ffffe0d7
00000600
fffffb2c
00001b06
fffffa41
ffffee94
ffffe9fe
0000144d
0000049f
00000df0
00001693
00000524
00001166
fffff996
00001013
fffff59a
ffffdb85
ffffd692
000007ba
00001517
00000532
ffffe192
00000783
ffffd82e
ffffdd13
ffffdcf4
fffff926
00002e83
ffffe7de
00002137
00001324
00000d6a
00001319
000015b4
000025b0
ffffdeab
fffff4ea
00001111
fffff616
00000e39
fffff8e9
fffffb86
0000239c
fffff354
00001111
ffffffe5
ffffe80d
ffffe909
000020eb
00002515
fffffb6d
ffffe699
fffffcfb
000012a4
000025ba
ffffdbc2
00002254
00000bc1
fffff6bf
00000221
00001f19
fffffcf6
00000625
ffffe26d
fffffb22
000003f0
00000c5e
fffff96b
fffffcc4
fffff91b
000000b0
fffff1f6
ffffefa7
00001557
000012e2
00002e24
0000018b
000004ef
000010c0
ffffde76
fffff6e0
ffffeb56
fffff9d6
000012b1
ffffe0dd
00000d32
00000f36
ffffd825
ffffebe2
00001702
0000286d
fffff8ac
fffffdae
fffff383
ffffdc8c
00002d82
fffff212
00000196
ffffeccf
ffffd35a
00000c64
ffffec2f
00000d4d
00000a7f
000011fc
0000167f
000002db
0000091d
000009d1
fffff3f5
fffffe59
000018ce
fffff541
ffffef92
00000072
ffffea51
ffffef30
ffffef2c
fffffa27
00001979
fffffa27
0000179d
00002222
fffffc1f
00001931
00001506
ffffefca
ffffe926
00001c74
000003c4
0000118f
000021ee
fffffb28
fffffff8
ffffdc2d
00000730
00001db2
00000b2d
ffffecb0
00000121
00000639
0000041b
000026ea
fffff579
fffff39d
00000856
00002033
00002da9
000009fa
fffff8b0
ffffee6c
ffffec83
00002587
00001ebd
ffffe343
00001030
fffff72b
000015ef
00000581
ffffee72
00001ce0
fffffe94
000016e1
ffffee6d
fffffd02
ffffd2fb
ffffe5f9
fffff409
ffffd702
00002aff
000003cb
fffffb55
fffff9b1
000006a0
00000dcb
000025bf
00000e4f
00000057
ffffff76
00001364
fffff519
fffff103
000001ec
00001796
fffff19b
00001147
ffffe92c
ffffdc85
0000292c
ffffed78
00001a27
00000fc7
000027bf
ffffe098
ffffe574
fffff83f
ffffccbc
fffff41f
000017dd
0000122c
fffff715
ffffe540
ffffd79b
fffff88c
00000fc0
00000363
00000b7f
00001b2d
fffff960
fffff82d
000007dc
00001714
ffffd969
fffffc3d
000002b1
ffffe1fe
00001d25
fffff9fd
ffffe42d
00000919
fffffdd2
ffffeb73
00000c5d
ffffdb4b
fffff9e2
fffffdfa
fffffaed
00001cfd
00002151
00002a13
ffffea0a
ffffec41
ffffe83d
ffffff96
ffffe620
0000025f
ffffd9b1
ffffdf52
fffff912
000000ae
ffffd6bb
00000703
00002857
00003a7e
000001cb
fffff5e2
00000713
00001630
0000119d
000027d9
fffff699
fffff7a7
ffffffb1
ffffd1ef
fffff24c
fffff4fb
fffff58d
000005ed
000016b0
00002930
ffffeb29
00000480
fffffa77
00000177
fffff943
fffff4b2
fffff7b6
fffff0a2
0000089e
00000997
ffffd93f
ffffe764
0000002f
ffffed16
ffffef28
000018b4
00000558
00001077
ffffea8d
00001e77
ffffecc8
ffffd278
00000041
fffffcc4
ffffe780
000002f4
fffff2f1
0000177a
fffff1a6
fffffc36
ffffd983
00001377
000010a2
fffff9e9
ffffe950
ffffed3e
fffffd31
fffff177
000000f6
00000817
00001428
fffff1c3
ffffebc8
fffffe39
00000246
ffffddf2
ffffe93e
00000a51
ffffe446
0000108a
000027ca
000001a9
fffff8f2
00001cb5
fffffcec
0000078c
fffff50f
0000398e
ffffe7b1
ffffffaa
ffffe60c
0000052a
00000fe9
ffffec3a
ffffe4fc
ffffe56c
00000342
00000cdf
00000714
000003b6
000004a0
00000fcd
000005b0
fffff6b0
ffffffbb
fffffc51
ffffedd8
fffff4b5
ffffe11c
fffffa83
fffffc16
0000057b
ffffe1c5
ffffe441
0000136d
000016ce
ffffe86d
fffff97a
ffffe504
00001835
00000999
fffffff3
fffff184
00001690
0000091e
00001d3b
0000125c
fffff8fd
ffffdb57
ffffff87
00000713
fffff9a1
fffff223
0000040a
00000855
ffffe810
fffff086
ffffea31
ffffec56
000020a4
fffffcaf
ffffdfd0
000014c5
ffffedec
fffffbdd
000011fb
0000068b
00001ad3
ffffd517
000006e1
00000f92
00000759
ffffd88b
00000837
ffffdac6
0000123a
00000791
000032c0
ffffe2a4
ffffc826
ffffd09e
00001541
ffffd8bf
fffff623
fffff17f
000019dd
000000b8
00000f74
fffffbd7
fffffbb1
fffffaf1
00000a48
fffff6de
000015ce
fffffff7
fffff583
00000219
0000072a
00000c94
ffffecdb
00001018
fffff8f6
0000261d
00000103
fffff75b
fffffcca
000019d1
000016ea
000015e1
ffffd312
fffff1ad
fffff7ce
000016d1
ffffe74b
fffffdcf
ffffe405
fffffe63
00000715
0000122f
00001510
fffff9eb
ffffd57c
ffffef08
ffffe4f3
000014ad
00001444
00000c80
00003558
fffff823
00002eaf
ffffe5e6
00000eda
00000038
00000493
fffffbb7
ffffdff3
00001423
ffffedc1
0000267c
fffff688
0000082b
0000158a
000035c8
fffffbf6
ffffdc9c
fffff255
00000e14
00000026
00001733
00000045
000005f9
0000134a
00000839
ffffeb8b
ffffff8f
00000803
ffffecbc
ffffe050
ffffe006
ffffed94
0000177e
ffffedf0
ffffea91
ffffff0f
fffff382
fffff5ed
000025b1
00001666
fffff2b5
00003a5c
fffff847
00002c26
ffffc4d8
0000031f
00000325
ffffffeb
ffffb703
fffff90d
ffffd7c8
000015e7
00000724
000000cb
00000ffb
000003c4
fffff374
ffffff3d
00000468
0000113a
ffffdf32
fffff14a
ffffe0ba
00000dd2
00000b87
0000045f
fffff32b
ffffdac7
00000294
000008d0
00000907
ffffbc16
00001127
00001ba3
000011b5
ffffccbd
fffff8cb
00000dff
ffffe7bb
ffffe4b1
0000108c
ffffd3ea
00000495
00000f8a
fffffe5f
000007d9
0000046e
ffffffcc
ffffec30
00000340
000008ee
0000115f
00001492
00000e83
00001ce2
000001ff
fffff1a3
00001513
ffffd8e7
ffffedbd
ffffd2ba
fffff64d
0000041e
fffffb33
ffffea2a
fffff043
ffffff9d
00002213
ffffe570
fffff312
0000222b
00000682
fffffb9b
00001c3a
00000823
fffff75b
00002cc3
00001552
fffff3ec
0000052b
00001884
fffffc1c
ffffd4c4
00000b65
000024c0
0000050b
00000a18
fffff362
00000431
ffffda0b
00001bd6
0000064d
ffffefb8
000001cb
0000095d
00000aac
00000605
000024e6
0000271e
00002b49
00000eb8
ffffdf09
fffffe89
ffffffd6
0000050a
ffffe8ad
ffffdb1b
fffffe9f
00000b15
00000054
000006a5
000013d9
00002145
000007f1
0000010a
00000a48
fffff332
fffff625
0000202c
0000010e
fffff969
00000b8b
fffffddc
fffffa3f
fffff739
ffffe5bb
ffffe6ba
00000ffd
00000b59
00001bdd
ffffe51e
00000662
00000ac8
fffffb07
ffffc7bd
00000e37
fffffbc6
fffff689
ffffe8f7
00000b54
fffff6b6
0000387d
fffffc44
00001653
000002f2
ffffeee5
00001177
ffffe41f
ffffed74
fffffb26
000007e3
ffffdd25
00000631
fffff387
0000021a
0000069e
ffffefe0
fffff7f6
ffffeaa1
00001296
fffff840
00000459
ffffc949
0000035b
00002571
00000eeb
fffff7e5
0000019f
00000a27
00001482
fffffb83
00000bf3
ffffdd02
ffffd8af
fffff5f7
00003321
ffffedc6
00000d2b
00003320
fffff7c4
00000f11
00000219
ffffee8c
000003ce
fffffd54
fffffc40
ffffca67
ffffe4c7
fffff01d
00000d84
0000063b
000008a3
fffff608
00000e48
000022f2
0000174f
fffff137
000002d0
000019e0
000005c2
ffffeb13
fffff7e1
ffffe5c0
fffff7eb
00000914
fffff105
00000881
00000813
0000105d
00000b41
00000eb1
ffffec75
fffffac8
000007cd
000029be
000015c4
fffff7bc
fffff618
00000f49
0000017f
00000150
fffff67a
fffff243
ffffec68
0000167b
00000689
fffff1a0
00000233
fffff995
fffffe43
fffffee1
fffffb98
fffffa44
00000792
00002260
ffffef75
ffffd2d7
fffff42f
00000ad9
0000036c
00000e0b
ffffe887
00001a96
00000f8a
ffffd6db
ffffd9d2
00000230
0000042c
00001b3f
00001da9
ffffdbdf
00000959
000002e0
fffff87c
ffffe1c5
ffffc903
00000c03
fffff168
fffffd57
00001d29
000002eb
ffffe01b
00000b63
00000b12
000018e8
00001284
fffffb9d
000016c7
ffffe8e5
fffff777
000001ff
ffffedae
fffff7f0
ffffdad9
000001ca
000006a7
ffffbc08
ffffeaf1
00000780
00001e6f
0000166f
fffff3e5
fffff957
ffffec5e
ffffe6de
00000f2a
fffff57c
ffffe604
0000256b
ffffd3f2
fffffa2b
000020d3
00001943
00000ad3
00001910
ffffef99
fffff010
00001064
00001b8f
000024b1
0000075c
fffffb6e
00000b63
ffffe10e
fffff42c
ffffec03
fffff19b
000006d5
fffffc95
00003cb4
00000ff5
00001015
0000166e
ffffe8d1
fffff496
00000199
ffffee8f
fffff7ed
00002119
ffffee3e
fffff700
00003808
00002289
00001d44
ffffffe1
ffffd908
00000cb5
00001ed0
fffff46f
ffffe2a1
0000045f
000010f2
ffffff02
000029da
fffff215
ffffef97
000007b0
00000660
00001c9e
fffff90c
0000216c
000028cf
fffff868
00001af4
00002bad
000021ad
ffffe8be
fffffb9d
fffffd82
fffff60f
ffffef95
ffffe867
00000ec1
fffff3d9
fffff6bf
0000183a
000010a4
00001795
00000ca0
000004a2
ffffe675
ffffde14
0000013c
ffffe20b
000049e0
00001517
0000081e
ffffff3c
00001b9c
00001854
ffffea9d
0000226b
ffffe74c
ffffe2ce
00000e09
ffffcb62
00002414
00000790
00001f18
ffffe2cf
00000da1
0000077e
ffffe9c2
00000a99
fffffd31
ffffed63
00000797
ffffe51d
fffff74f
fffff93a
00000295
ffffe84e
fffff94c
00000b57
fffff77d
ffffff1b
ffffe732
0000000c
0000234f
ffffe45e
ffffff66
fffff805
000017da
000016f4
00000e95
fffff14d
fffff6e9
0000213e
000005a9
ffffe919
000013ff
fffff7f0
ffffee62
ffffe951
fffffe69
fffffdf7
fffff778
00000d36
ffffe7e6
ffffdcfc
0000217d
fffff57f
ffffdffe
fffffb26
ffffe95f
00002e9c
ffffe177
000009dd
fffffc77
00000ac0
ffffed73
00000772
000001c0
fffff45b
fffff873
00000815
00000816
fffffc2c
0000074d
00000d0a
fffff1e8
ffffea22
ffffcb1b
fffff82f
000013f1
00001454
00000abd
ffffe4b0
00000f1b
fffff79f
00001b87
00000147
fffffd25
00001242
0000160d
00001810
00001348
000001e1
fffffb79
ffffff41
ffffcda7
ffffea5c
fffff343
00001701
000009ee
00002e55
0000061a
ffffe79b
000019e1
00001ac8
00000cf8
fffff777
000027a2
0000140d
ffffd749
00002732
00000d45
ffffc00b
00001eb2
00001c76
ffffff06
fffff6d0
00000d2a
000001a0
000030ed
0000086e
ffffe679
fffff3cd
ffffe876
fffff76d
000026a3
fffffd4b
fffffebc
fffffbc9
00001716
ffffd771
00001f4b
0000137a
00002137
fffff618
0000135b
0000075e
00000375
ffffffcf
00000553
000004a1
ffffd30f
fffff230
000003fe
fffff159
0000306f
fffffd27
000028f6
000025b9
000003c9
00000884
fffff533
fffff51d
fffff977
0000137f
fffff730
ffffe5d2
000021da
0000054b
ffffebdd
ffffe947
00001464
0000050f
0000110b
fffffa95
ffffecae
fffff48e
000010c6
000002f1
fffff167
00000804
ffffd9ff
fffffccf
ffffef04
0000256a
fffff392
0000350a
0000090b
000021cc
ffffe49b
0000186a
00000284
00000ae0
0000072f
ffffeeb1
0000058e
fffff0ed
000007a3
000011d4
ffffed84
fffff2ec
0000312b
00000fda
00000dfa
ffffeca4
fffff866
000020a0
00000f6e
00001687
fffff0b4
000010c8
ffffdf04
ffffc5b2
fffff70a
00000a22
00000edd
00003773
fffffe3b
ffffe919
00001246
ffffdd8c
fffff275
ffffdb57
fffffb5a
000026fc
ffffff0a
000000ce
ffffece2
000002cd
00000060
fffff277
ffffdbc6
000001c9
0000190b
00002b0e
0000265c
fffffbc4
ffffec5f
0000079f
fffff585
00000ef1
00001571
ffffedd7
000012f6
fffffec7
000000fa
ffffebfb
00001f30
ffffd599
0000041b
fffffe95
fffff4fc
fffffdf3
ffffdde6
ffffe2bc
fffff9e3
ffffe4a7
ffffeacb
00001460
000019e8
ffffeaa0
ffffe76d
ffffc513
fffffb4c
00000c91
ffffef0f
00000747
00000a74
0000140f
fffffe56
000003fd
fffff730
00000144
ffffde42
fffffd35
ffffef12
00000f68
00003523
00002544
00000f57
fffffb9d
ffffff11
000001fe
fffff3f1
00001190
00000828
ffffd77b
00000b36
fffffd29
ffffd865
00002669
fffff1b2
00002388
ffffeb48
fffff918
fffff0bc
fffffa9e
000012af
00000846
ffffe6fb
ffffe9e2
0000063d
fffff260
ffffeb39
fffff97a
fffff753
ffffdfa0
fffff59a
00001d36
ffffdce2
00000110
fffff86f
000010fd
0000255d
000020fc
ffffd9ae
fffff050
fffffbfa
00002900
ffffca96
00000283
00001afe
ffffee22
000028be
fffff54c
00000cb4
0000246b
00000d70
fffff10c
000022ca
00002205
0000048f
00000ab3
fffff2c3
00001802
ffffd83c
fffffbf7
00001612
0000000d
00000848
ffffec30
00000d48
00000b04
fffff44c
000017ea
00001b6d
fffff563
0000120d
ffffeb28
fffffd65
fffff348
ffffe0a8
fffffbea
ffffd1f5
fffff18c
000009d9
000010ae
00000897
ffffedbc
000009c0
fffffb4d
00000582
ffffe734
00000439
fffffb1f
fffff2f2
ffffff54
000021f6
00000d68
ffffe529
00002053
000022a6
00000098
00001910
ffffe35c
fffffd50
fffff2cf
00000853
000001d3
ffffe2c0
00002f69
000019a7
00001a9d
00001465
0000094c
fffff7e7
00001aa9
00000546
00000fb1
ffffe406
fffff65e
00000e35
fffffdc6
ffffd8eb
fffffca6
ffffcb34
00002b8f
00000ade
0000000e
0000001e
ffffe056
000035b3
fffff8f1
ffffff7f
fffffb07
000013ea
000009c8
00000407
00000948
fffff9ab
00001f09
00002981
00000601
ffffcbc6
00002a15
0000054c
000024c6
00000994
0000046b
fffffac0
fffff0a8
0000031a
00001ba8
fffff6b3
00000173
00002fdf
fffff084
00000007
ffffdb43
0000185d
00000ead
ffffebeb
ffffed4e
0000165e
00000f5f
0000013b
00001815
00001562
fffffd96
00001826
00001a5e
0000025e
fffff7d5
00001650
000003ed
fffff286
ffffde48
ffffdc9d
00000bf8
00000dbb
ffffe678
00000098
ffffef62
ffffe469
0000109c
fffff8e9
fffff151
00002b09
fffffca6
ffffd44a
00000d9f
000011e2
0000175e
ffffebf9
00000744
fffffe44
00000681
fffff3f6
ffffea7c
00000b86
00000304
fffffcc5
0000093b
fffff4a0
000012f3
00000977
00000d69
00000477
fffff7e2
000006cf
00000666
fffffda4
fffff924
00000989
000009bb
0000278e
ffffedd1
00002028
00003331
00001f3b
00003434
ffffe521
00000899
00000485
fffffe36
fffff933
fffffefb
fffffb6c
ffffff4d
ffffe3d0
fffffc45
000017a4
00001766
00001260
fffff450
ffffe23c
ffffe2be
ffffd7f9
ffffd939
000006c2
00001a1f
ffffe691
ffffdbf5
ffffeb49
ffffdd50
fffffa48
0000003f
fffff0e7
00001e5f
fffffee7
ffffcca2
000020e8
0000108d
000024b8
fffff8b7
0000127b
ffffe67c
fffffa2a
00000a0c
0000002e
00000753
fffff96b
00001aa7
fffff22e
fffffcac
ffffec5d
ffffa444
fffffd1a
00000d56
ffffed06
fffff5e1
00002bc7
ffffe9ec
00001a46
00003122
00002392
000008a7
00001e14
fffffc0c
fffff751
fffff628
00000411
000008a3
00001f74
fffff1f2
000007a4
ffffe00c
00001875
00001259
00000dcf
000007f9
ffffdf4f
fffff917
000009ea
00003362
0000066d
ffffecc3
fffffc8a
fffffc04
00000082
ffffdc49
fffff6d3
00000766
fffff90a
ffffee85
00000f08
0000088b
00000518
fffffe14
fffffd80
00000f04
00001c5b
ffffef2e
00000bb6
00001241
00000e9d
fffff58e
ffffd115
ffffe51b
ffffe894
00002172
000007dc
00000561
ffffe912
fffffb2f
00000910
fffffc83
00000a47
00000901
ffffebbe
fffff0a4
000014c6
0000035a
ffffee48
00001869
00001c3d
ffffe06e
0000053b
00000374
00000c94
00002f08
ffffeed4
ffffe638
0000167e
00001032
ffffd010
00001073
ffffd472
00000a86
00002f0f
fffff85d
fffff5ea
00001655
00001bad
0000067d
00001751
fffff601
000010d4
ffffffc1
ffffe558
00000ef7
fffff7b5
ffffff1f
0000038e
ffffffc4
00000bfa
00000ec6
fffff6f8
00001510
0000108d
fffffd15
fffff88b
0000149c
fffff36c
fffff924
0000187d
00000f74
fffff1af
00000ef2
00001575
00002d74
00001392
000006c9
fffff047
00001905
ffffcf64
00001502
ffffffad
00000bd6
ffffebf6
000004b1
ffffe4a5
ffffdf86
fffff766
0000124a
000006a2
000022dd
fffff6b5
00001fc9
000001de
000001eb
00002184
000005f0
fffff97d
00000fe4
ffffec80
00001afd
00001879
fffffe38
000000b7
00000256
00001bc4
fffff111
0000112a
ffffca0f
fffff638
fffffa66
fffff21b
000017df
0000098a
ffffe045
ffffe032
0000019d
000015ce
fffffdaa
00001a4a
00000c12
fffff818
ffffe073
00000e0c
fffff811
fffff5e1
0000092d
00001030
0000061e
ffffe2a1
ffffed3e
ffffee8d
00001fee
0000072a
000011a1
00000e81
000009de
000009d3
00000aad
ffffe8d9
00001916
00003ee5
ffffe65b
fffffebb
ffffec8a
00002e64
0000079e
ffffc3cd
000006bc
ffffeee7
00000e2e
00000c4d
0000076e
000007c2
000023d7
0000021b
000006e7
00000a3a
ffffe46f
ffffeb39
00000ed8
00002130
ffffee97
0000144c
ffffe892
000027cc
fffff3b0
000005c6
ffffeba2
00000e4d
fffff90a
fffff0c2
fffff83a
fffff2a9
ffffed11
ffffe181
fffffeed
