00000370
ffffed29
0000049e
00000cc8
ffffe000
ffffeb31
0000035b
fffffbd4
fffffddd
fffff255
00000b5f
00000a0f
000000db
00000e93
0000060b
fffff4e4
000004c5
fffff39a
00000b5c
ffffff5b
fffffd9c
fffff732
00000fcf
fffffe00
fffffa76
fffffb72
000006e2
000004ba
00000556
00000592
00001bb1
fffffabf
fffff960
fffff57a
000007f7
00000e97
fffffe82
fffff51c
fffff54e
00000868
00000995
000006ff
fffff75f
000002fb
000001b4
000002e1
00000b3c
000002dd
000008c1
000000dd
000003bc
0000082a
ffffed29
fffffbde
fffff9eb
fffff7bd
fffffc71
00001354
fffff4ce
00000c85
ffffea3d
fffffbaa
0000021a
0000078f
00000922
000009fa
fffffb37
fffff9e4
00000b08
fffffd86
ffffef99
fffff12e
fffff3c5
000005dd
000001cd
00000963
fffffa70
000001f1
00000806
fffffbfb
000005e6
fffff771
fffffb4e
fffffb10
fffff08a
0000064c
fffff9ee
00000029
00000634
000005ba
00000887
fffffe9c
fffffa16
fffffe53
ffffe996
ffffed6a
ffffeeea
fffff254
000003fb
fffff25a
fffff9a7
00000f6d
fffffa4f
00000923
fffff3eb
fffffd9c
fffff390
fffffb85
00000ad3
ffffe9aa
0000059e
00000313
fffff851
ffffed4d
000000ef
fffff926
000002f8
0000002a
00001491
fffffca7
fffff1dd
00000052
00000088
0000103b
0000086e
000000f0
00000edb
ffffebfe
fffff373
fffff058
fffff763
ffffeb51
00000565
fffffb90
ffffebc4
fffff105
00000342
00000ad0
000019d0
000025ad
0000055c
fffff335
ffffe46e
0000036b
fffff561
fffffa87
fffff7db
fffffd2d
00000c50
fffffdea
fffff8cd
ffffebb2
ffffdf5f
ffffed35
ffffec63
00000228
ffffecbc
fffffbaa
ffffecea
ffffeac3
ffffec15
ffffec63
0000151c
fffff176
00000a66
fffff429
00000c02
000004f9
fffffdfa
ffffff79
fffff787
000005ad
fffff9d2
ffffefc5
ffffeed8
fffffedd
00000fe3
fffffc0a
fffff61e
fffff9ad
0000039b
ffffec84
ffffdfaa
fffff0a9
ffffe6bb
fffff9ea
fffff135
ffffe458
ffffe23e
00000754
00000c88
fffff996
fffffaa4
000012ff
fffff18f
fffff464
00000850
fffffae3
ffffffe4
fffffdac
00000433
000011af
fffffdc3
000004ae
ffffe135
fffff96b
ffffebf6
ffffe354
ffffe410
ffffe684
fffff02a
ffffcf29
ffffe37e
ffffe1a5
ffffe97b
fffffeb8
fffff6bc
ffffff62
fffff1b1
fffff045
fffffc64
00000356
00000203
fffff1f3
0000012b
000002ee
00002072
0000181e
fffff4d8
fffffacb
ffffe8ce
fffff2fe
00000105
0000096b
ffffe9a5
ffffe743
ffffd0dd
ffffe7a4
ffffdaa1
ffffe0a5
ffffdb4e
ffffe91e
ffffda33
ffffdc8d
00000aec
ffffddd2
ffffe4b3
00000ded
00002148
fffff067
fffffb1f
00000468
00001659
fffff32f
fffffcb2
000009c6
00000577
fffff8cc
fffffad3
ffffea5c
fffff5eb
ffffec7c
fffff22f
ffffe6d6
fffff0bb
fffff617
ffffec5e
ffffed8c
ffffea8f
ffffebba
ffffe6aa
fffff40f
fffff0aa
00000f80
0000080c
fffffacf
fffff1e3
fffff18c
00000f57
00000362
00000635
ffffe963
00000bdb
00000592
fffff0f4
fffff791
000000f6
fffffa80
ffffefe3
ffffefb2
ffffed22
ffffeddb
fffffd29
ffffc9e4
ffffec4b
ffffed46
ffffec96
ffffe3c8
ffffd71e
fffff38b
00000c99
ffffe4aa
ffffffd8
fffff149
fffffaad
fffff261
fffffba5
000010ce
00000789
0000165c
00000f1e
00000569
000015cf
00000388
00000779
fffff229
fffff46e
ffffe960
fffff965
ffffd96c
fffff474
ffffea56
fffffc0c
fffff280
ffffffa5
fffff292
ffffd7c1
fffff164
ffffe9b1
fffff278
00000946
fffffe81
fffff314
fffff2db
00000065
fffff044
fffff752
00000404
00000ed9
00000855
ffffe2c1
0000028d
fffffc52
fffffa49
00000a45
ffffd696
ffffe3ab
fffff54a
ffffdb40
00000174
ffffefdd
fffff2a8
ffffe084
fffff50f
fffffda3
fffff98d
fffffc95
ffffffa0
ffffec2b
fffff4da
fffff7d9
000004d2
00000ce8
fffff24e
fffffe62
00001326
fffff656
fffff639
0000034d
0000082b
fffff6af
00000556
fffffe1c
fffffa36
fffff633
00000cd4
ffffece5
ffffd1f0
fffffc58
ffffe041
ffffe9fb
ffffffa4
ffffde19
ffffe800
ffffe5f0
ffffeff4
fffffc13
fffffe94
ffffff6c
ffffed98
ffffe21f
000000b4
fffff9e6
000005f0
00000911
000002a0
0000093e
fffffdac
fffffa8c
ffffe886
ffffed66
fffff079
fffff8e0
ffffebc4
fffff435
ffffe69d
ffffe4c5
ffffefe0
ffffcfa8
ffffdf57
ffffddf4
ffffd9ec
fffff1b9
0000016b
fffff2f3
fffffb85
00000a54
000010fa
ffffff18
00001180
00000131
fffff52b
fffff84f
ffffec5c
fffff33d
fffff24a
fffffd24
000005c6
ffffde0b
fffff3cb
ffffe264
fffff738
ffffec8f
ffffd3ab
fffff2b2
ffffe038
ffffe7a4
ffffe03a
ffffe696
fffff91f
fffff35c
fffff990
fffffab3
00000ac8
fffff9d6
ffffec82
00000dc1
fffffbb6
00000e69
000004f5
fffffe44
0000033d
0000167f
000012d5
fffff4ce
fffff67d
000000fe
ffffe769
fffff449
ffffec69
fffff164
ffffe4a5
ffffd801
ffffd164
ffffe2c4
ffffe894
ffffea54
0000089d
000000a0
ffffe934
fffffa95
fffff6a2
fffffbfa
000001bf
000007f8
fffffb9c
00000dc1
fffff13c
00000007
000020f0
00000050
00000afe
fffff828
fffffe4f
fffff4c9
fffff157
ffffe7c6
fffff564
ffffe3d4
fffff5e2
fffff752
ffffef0a
ffffe92a
fffff034
ffffe550
fffff646
ffffda16
fffff08f
ffffde16
ffffea27
00001031
00000ade
fffff6a5
ffffec90
ffffd9ab
fffff8f9
00001f3c
0000058c
fffff755
0000009e
ffffe3b4
fffff1e0
fffff56a
ffffeffa
fffff99c
fffff428
fffff743
ffffe265
fffff24c
fffffe47
ffffde9f
ffffdf63
fffffd20
ffffe964
000003de
ffffef44
00000df4
ffffffbc
00000282
00001405
fffffb46
fffff3cf
fffffa33
000005d9
ffffebe4
0000092c
fffff7e0
000009af
ffffda29
ffffebef
ffffdd7d
ffffe648
fffff285
ffffebaa
ffffea03
ffffe741
ffffe8f2
ffffdcd8
fffff4ad
fffff4df
fffff120
fffff5ad
fffffbf9
0000184c
fffffdc7
fffffc86
fffff687
fffff271
ffffefe3
fffff47f
ffffff16
00000453
000000eb
fffff754
00000900
000006ec
fffff93d
fffff001
fffff7ba
fffff068
ffffdc30
ffffec94
ffffee87
ffffdde1
ffffea00
ffffd68f
fffffa3c
fffff8bb
ffffeab0
fffff94c
ffffdf9e
fffff280
fffffcfc
fffff31f
0000096d
000019af
fffff0c5
fffff52b
0000030b
000014d5
fffff04b
000003a4
00001479
ffffe80b
ffffeb36
fffff492
ffffee49
fffffa3b
fffff110
ffffd479
fffff09d
ffffe045
fffff646
ffffe07e
ffffe2dd
fffff502
000000ba
00000158
ffffec73
00000934
fffff3fe
00000355
ffffeddd
000005a9
fffff58a
ffffef6a
0000093b
00000320
fffff80a
000012a5
fffff6d6
fffffcea
ffffff2b
fffff1b7
fffffa8f
ffffeae6
ffffeaa4
000000bc
ffffdcdf
ffffcb7b
fffffc3b
000009e2
ffffeb7e
ffffdd3d
fffff832
fffffac6
ffffff34
fffff318
000007e0
0000066e
ffffeca1
000008f9
00001a86
00000239
fffffba3
fffffe2a
000007f1
ffffe96e
fffffec8
fffff80f
00001473
fffffb00
00000e10
ffffe4a4
fffff622
fffff0d7
ffffe08a
ffffeda7
fffff8a7
ffffebe7
ffffe3c4
fffffd87
fffff2be
fffff9da
ffffffd2
ffffeb11
ffffeba7
00000609
fffff92e
ffffded2
00000a25
00000386
fffff6c5
ffffeef9
00000acf
0000042f
00001cb2
0000031a
0000028c
fffffb40
00000677
000000a5
0000051d
ffffebb7
ffffec7e
ffffed73
fffffdf4
00000ce9
fffff8a4
fffffae0
0000053d
fffffd37
00000d40
ffffe36f
fffff5dd
fffff5cf
ffffe1fb
fffff389
fffff42b
fffffd66
00000e64
fffffcd5
fffff2ac
ffffff42
00000d8a
fffff33a
fffff3e3
000006a6
fffffc14
000006b7
fffffda4
000005ba
ffffef18
fffffb2c
fffff7d8
ffffec62
ffffeb64
000009d1
fffffc62
fffff3b6
ffffff9f
00000ef5
ffffe2ab
ffffeca0
fffff40d
000012e5
000003a7
000009ec
fffff142
fffff186
000005ca
000000c0
00000712
fffffd86
000003b6
000001e0
00000979
000009e5
ffffeaa6
ffffe22c
00000b0f
00000d7e
fffff147
ffffe6d6
0000006d
00000c1c
000017f9
0000071a
fffffb65
fffff45f
0000001c
fffffc1d
fffff2e0
00001a7e
00001715
00000eb0
fffff418
00000b0e
00000845
000005b9
00001028
00000836
0000098d
00000822
00000455
ffffe930
00000173
fffff8b6
ffffeea1
000014bc
00001608
0000117b
00000338
00001165
0000001a
00000296
fffff1dd
0000051c
000000c4
ffffef28
ffffff57
fffffef8
0000173e
00000b90
fffff5f6
000006a1
ffffff82
fffffc47
ffffebd8
fffff8bd
fffff563
ffffeefb
000004d5
000003e1
ffffe8e6
fffffe6a
00000ce0
00000db2
00000d44
00000081
fffff513
fffff1fd
00000475
000004e7
000010a5
00000e39
fffffe4a
ffffefea
fffffbe0
000002cf
fffffd63
fffff887
00000345
fffff97c
fffff7e1
00000407
fffffacd
00000328
00000388
fffff142
fffff9c2
00001290
fffff0f0
ffffe4a0
ffffe7e6
00000059
00000060
fffffe76
00000f98
ffffdd5e
00000517
00001429
fffff165
fffffb14
fffff643
fffff470
fffffbc8
00001275
000017c2
fffffba8
000018a2
00000076
000016ad
fffffecb
000001b1
000004b8
00002919
00000afd
fffff6d5
00000ca9
fffffb6a
fffff98d
00000bb0
00000066
000003cf
00000065
000003de
000004d1
ffffe688
000007de
fffff30b
ffffed3e
ffffff2e
00000111
fffff706
00000abf
ffffeea5
fffffabd
fffff870
ffffff66
0000039b
fffff2f8
0000095a
000000c5
ffffe777
ffffe68f
ffffffdb
fffffd50
fffffee1
000000ae
0000037e
00000b6c
fffff060
ffffef19
ffffefa0
000000e6
00000cb8
fffff884
ffffdf75
ffffea3f
fffff51a
fffff8b1
fffffaae
00000080
fffffbf8
00000d91
fffff742
fffff4da
00000631
ffffec24
00000500
00000137
fffffdf7
00001407
fffff755
00001ac8
fffffe5d
ffffef06
fffffd61
ffffeb16
ffffeb52
fffff70c
fffffb3b
ffffea9c
ffffffe6
00000435
00000d08
0000046b
0000111f
ffffe860
fffffcc6
fffff4c4
0000018a
fffff89c
fffffdda
00001856
fffffdcd
0000054f
fffffce3
000000e7
ffffffc2
0000045d
00000c95
000013be
00000130
ffffff6b
ffffe2fb
ffffecfd
fffff8fe
fffff2f4
ffffed82
fffff897
fffff505
fffffe7d
fffffa8b
fffff6c0
00000206
ffffda1f
00000510
ffffd0cc
ffffe9ad
000005d6
0000062d
fffff0f8
fffff6c9
000011a1
fffff86b
00001afe
fffffe8a
0000027b
0000102c
fffffc89
ffffe9d2
fffff08f
ffffebd9
ffffd8ca
ffffe3a5
ffffdc61
fffff3bf
ffffea8f
ffffe7e3
ffffee0b
fffff8f6
00000179
fffff03a
fffff251
00000de1
fffffad6
ffffed95
000005b3
000005fd
ffffec32
000002ed
00000946
0000028c
000003bc
ffffe8b7
ffffff53
fffff6e9
fffff1d9
fffffd02
000000dc
000001bf
fffffbeb
ffffe6e6
ffffec5c
fffff6c2
ffffebdc
ffffed68
fffff957
fffff29c
ffffef4d
fffff80f
00000773
ffffff30
000004a1
0000086b
fffffb1f
000009c6
000004e1
ffffefee
00001251
fffff68d
ffffe55f
ffffeb2d
ffffed98
fffffdb0
fffff56b
ffffedd6
fffff4d7
fffff0af
ffffed60
ffffeedb
fffff225
ffffd1cc
ffffe68f
ffffce6b
ffffec8f
ffffefbd
0000054d
00000ba4
000001de
fffff8e7
000005cb
fffff90d
fffffff8
00000cbf
fffff8bc
00000a49
0000086d
fffff288
00000576
ffffff12
fffff990
fffff125
ffffe98a
ffffe7b1
ffffeebe
ffffdae9
ffffeeaa
ffffdd02
ffffea12
ffffea7f
00000451
ffffd209
fffffbcb
ffffef42
fffffedb
ffffff4d
0000055e
fffffe1c
0000129e
fffffa09
00000ea0
fffff7ab
ffffff2b
fffff201
00000594
00000ff9
fffff5cd
fffff25c
ffffe96f
fffff5d1
ffffde4f
ffffdfff
ffffec0a
fffffbf7
000011ec
ffffe6fa
fffffe6f
ffffe765
ffffe05b
ffffe61d
ffffe989
fffff02e
fffff4b1
ffffec5b
ffffebb7
00000867
fffffc1a
fffff843
0000001b
00000a47
0000024b
fffff769
00000f97
0000112a
fffffc58
000001dd
000006ef
000003da
fffffabe
fffff55f
fffff582
ffffe10d
fffff9a1
ffffdc0a
ffffdf39
fffff440
ffffec6f
fffff37c
ffffe1eb
ffffe101
fffff778
ffffffde
0000013b
00000e36
fffffb24
00000485
fffff337
000005d3
00000005
fffff637
fffffc22
fffff863
fffff207
00000d8a
fffff469
fffff147
ffffd973
ffffe625
ffffec46
ffffe8d3
ffffff79
ffffe7d4
fffffa74
ffffe8ab
ffffe659
ffffe1be
ffffe3d5
000003d1
ffffda9c
ffffe57f
fffff9c8
00000084
000008c9
00000619
fffffb06
00000d2d
00000d50
00000254
00000b18
ffffff32
fffff187
0000023e
fffff8cd
fffff4b1
0000079f
ffffd243
ffffdd8a
ffffe1f4
ffffe9fe
ffffe91b
ffffd4f0
ffffdb15
ffffd9c8
000002b6
fffffa3c
ffffe889
fffff4d7
ffffef53
ffffe644
fffffecc
fffff2f5
fffffee5
ffffeb4f
fffff626
000001eb
000004b9
00000451
ffffeae1
00000574
ffffedab
fffffdfe
fffff3ab
ffffe250
ffffeca5
fffff68d
fffff8cf
ffffec41
fffffdff
fffff55b
ffffe128
ffffebc1
fffffb5e
fffffdc5
ffffe035
ffffed14
00000f3e
fffff1bc
ffffef0d
fffff986
0000056c
fffffead
fffff797
fffff747
fffff6c9
fffff462
000019fa
fffffe60
000000a3
fffff01e
fffff205
ffffe8d0
ffffcd98
ffffdd31
ffffd69e
ffffcfc7
ffffdb00
fffff759
ffffe481
fffff330
ffffe552
ffffed1f
ffffe7b3
00000166
0000077a
fffff862
000006c8
00000746
fffff8d9
fffff17b
fffff0b0
0000011e
00000430
fffff635
ffffff01
000001c2
fffffb6e
0000056c
0000039e
ffffe1a7
00000168
ffffe278
fffff530
ffffe6cb
ffffe13a
ffffd172
ffffe65f
ffffd2cf
ffffee52
fffff9b1
ffffe8e8
00000023
fffff38a
fffff73f
000009a6
ffffff9c
00001675
fffff9c3
00000cec
00000142
00000a3c
fffffa90
fffffeef
fffffb16
ffffebb1
fffff948
fffffa9c
fffff7ce
000000f2
fffffc79
ffffe54f
ffffefd5
ffffe30b
ffffec1d
ffffe373
fffffe3a
ffffed34
ffffe78c
000003b1
ffffdea2
ffffe339
000009a1
000000b4
00000337
ffffeecd
ffffffb0
000019e8
00000aa8
00000222
fffffa37
fffff9c4
ffffe149
fffffb9d
ffffff7b
ffffe0e7
ffffebaa
ffffe435
ffffe63c
fffff4ff
ffffd853
fffff748
fffff86e
ffffe92e
ffffc878
ffffdf9b
ffffffe8
ffffd138
fffff611
ffffed5e
000009ed
fffff731
000004e6
00000743
000017b8
fffffd60
000004dd
ffffec7b
00000e16
fffff451
fffff4bc
fffff743
ffffdfa3
fffff6a8
000001a0
fffff8a8
ffffe150
fffff3b8
fffffc37
ffffd811
ffffe1ac
fffff6af
ffffecea
fffff463
00000a5c
fffffb90
0000034c
00001ffa
fffffd07
fffff532
0000055c
000005a7
fffff92e
fffff2a7
00001dde
000003ca
fffff56f
00000c4d
fffff8f1
fffff457
fffff99a
ffffe45c
fffff953
00000ab7
fffff6f2
ffffed02
ffffe933
ffffe7b2
ffffe88d
ffffe52d
fffff72d
ffffd881
fffffd9b
fffff0d9
00000174
fffff010
00001184
00000fb3
00000c4a
ffffec66
00000ab7
0000053c
ffffeb3e
ffffff65
0000042e
00000843
00000005
fffff8fb
000003db
fffffe70
ffffc987
ffffe8b8
ffffe920
ffffd295
ffffe82f
fffff7a7
ffffdd29
fffff165
ffffdfb3
ffffe569
0000070e
fffff2f3
000002ea
ffffe6e3
000017be
000007cc
fffffd89
00000769
ffffedc5
00000f4a
fffffbd0
fffffd57
fffff972
fffff933
00000847
fffffebd
fffffc88
ffffefc9
fffff495
ffffe793
000005fb
ffffd0ad
fffff553
fffff8c3
ffffe057
00000a73
fffffa35
fffffdc6
fffff8f1
fffff670
fffff933
00000371
00001168
00000249
fffff426
00000aa4
00000be9
00000877
000009a4
fffffc7b
fffff40a
fffff601
ffffeb51
0000020c
fffff8a5
fffff0b1
ffffcf76
ffffe265
fffffcd8
ffffe094
ffffee18
ffffd903
000003bf
fffff133
fffff8dd
000015f5
00000cd8
fffff515
fffff561
fffffa88
00000665
fffffe94
fffffadf
000012f7
fffffe86
00001dbc
0000012c
00001716
000004dc
00000d38
fffff6d5
fffff53a
0000057b
000009d4
fffffbed
ffffe974
ffffe5ae
ffffe33c
ffffe096
fffffa32
00000a76
fffffbd0
ffffdda1
fffff6b4
fffff9a6
00001794
ffffe999
fffffa5b
000015fb
000005cd
00000748
0000017b
00000444
00000a0e
fffff589
00000b5a
ffffee3e
00000438
00000224
fffff79b
ffffff12
fffff6ec
fffff06b
fffff8e9
ffffed4a
ffffff0d
ffffec49
0000048b
ffffeeef
fffff70e
fffff41e
00000e66
0000034a
fffffcce
0000062d
ffffe4db
ffffff6b
000019d0
000001b6
000000e1
00000716
00000b95
ffffe62c
ffffea3f
000002b7
fffff6bc
000010ea
fffffc0a
ffffe6e0
ffffef1b
ffffdbf3
fffffc91
fffffc6e
fffff705
00000a66
00000d31
fffffd1a
ffffe3f4
000007f6
000006e9
000003b3
00000cb7
fffff0db
000019ef
fffff394
000009b0
ffffea2f
fffff3f9
0000139b
fffffca0
00000adc
00000310
fffffea5
000011a2
fffffcf0
ffffe8f6
fffff596
00000718
0000055d
ffffec1b
fffff660
fffff65a
fffff8aa
ffffed7d
fffff7c8
fffff67f
000009e8
00000a68
fffffe14
fffffaee
000001c9
fffff56d
fffff12c
fffff3d8
fffff7cb
fffff0f5
00000218
00000bfa
ffffec90
fffffbb7
fffff7fa
000000d9
fffffea3
ffffedff
ffffec12
fffffd36
000009f6
ffffe35f
00000478
00000f62
fffffe05
0000071d
fffff6e9
fffffe75
ffffeb0b
ffffe1b0
00000c31
fffff344
fffffa1c
ffffee13
ffffedc5
fffffdc1
fffff691
000004e3
000005da
00000426
00000316
00001467
fffff232
ffffff4a
00000ea5
0000105a
ffffed9c
fffffbf1
00001188
00000689
00000284
fffffd28
fffffb03
000003b4
fffffcb8
fffffee7
000000c5
fffff734
000006da
000025a8
ffffe903
00000430
fffff62c
00000777
0000009a
000009da
00000f33
0000027d
00000ea3
ffffe1b0
00001491
000004d8
00000dee
fffff039
fffff53d
000001c1
fffffec8
000002c0
00000ddc
ffffe91d
00000c96
00000051
fffffd95
ffffebf0
00000557
ffffe010
00000787
ffffec6d
00000095
fffffe65
00000f1a
fffffdaf
fffff706
fffff973
00001075
000006ef
fffffb04
fffffcf1
ffffebbd
00000503
ffffe933
000009a5
0000018c
00001da3
ffffef70
fffffb60
000012a7
00000ba6
fffff4ac
0000008a
fffffd57
0000000f
fffff34f
fffffbb5
ffffe93f
00000025
000004b6
fffffccb
ffffeb05
00000cbe
000004b7
fffff69d
fffffc5f
ffffec99
fffff2be
fffff90c
00000fe1
fffff7b1
00000829
fffff8e5
000002f9
fffffc6c
00000847
fffff4bb
ffffe7d5
ffffe9ae
fffff200
ffffe7f6
fffffcef
fffff00b
000014d4
ffffe0cf
fffffc91
ffffee7c
fffff774
000000b1
ffffe1c6
00000317
00001895
fffffa22
0000035c
00000d41
fffffde1
fffff87c
ffffe288
0000082e
fffffe6f
fffff25e
00000049
fffff6bd
fffff67c
00000201
ffffe4e1
00000161
ffffde97
ffffe577
0000062c
fffffd53
fffff113
ffffe309
ffffee6e
fffffa12
fffffb10
fffffbb4
fffffe2a
fffffcaa
ffffed53
fffff948
00000bd2
ffffee4f
fffffd8d
fffff560
00000140
fffffa7c
00001288
0000055a
ffffebb9
0000051e
ffffee46
ffffec2b
fffff567
ffffe868
fffff926
ffffdfdc
ffffdea9
ffffdf06
ffffe22d
fffffb07
fffff989
00000c06
00001563
ffffec99
fffffe94
fffff077
fffff630
fffff7b9
fffff24b
fffff265
fffffe1f
fffff02e
00000a83
fffff388
000023aa
fffff84c
fffffd7a
ffffe7f5
00000b19
00000086
fffff288
ffffde42
fffff071
ffffd8d3
fffff64e
ffffec93
ffffe8cc
ffffce06
ffffe76e
fffffe7f
000007db
000008c7
ffffe732
00000359
00000d74
ffffea4a
ffffffde
00000389
fffffc17
ffffe7f0
fffffb61
fffffb24
fffffcb5
fffff4ea
fffff45d
fffff4c0
fffff715
ffffe9a6
ffffeb55
fffff1f3
ffffd496
ffffee7f
ffffe202
ffffe2f1
fffff546
ffffd778
ffffda6a
fffff7c4
fffff63b
fffffacc
fffff5b2
000006ca
00000b99
00000622
fffffc9e
ffffe4be
000009bc
00000f6b
000007a1
fffff3f5
0000059f
00000389
00000ae7
ffffe574
ffffea16
fffff5ca
fffff09c
ffffe0b7
fffff3ef
fffff304
ffffe927
ffffeb4c
ffffe869
00000220
ffffe57f
ffffeb27
fffff6b1
000004b3
ffffe8ba
ffffedce
ffffe58f
0000005c
fffff186
fffffb07
00000837
fffff741
00000248
fffffa9c
000003ec
ffffff1b
ffffecd3
ffffede4
fffffb2a
fffff499
ffffe225
fffffb31
ffffe414
00000134
fffffb4d
fffff248
fffff282
ffffea2e
fffff968
ffffecca
fffff985
00000645
fffff6b4
fffff6cf
fffff08d
fffff239
ffffe85b
00000970
0000173b
00001207
ffffea4b
000007a0
00000e51
fffff345
fffff6f3
ffffd7e2
fffff401
ffffe3bb
fffff68f
ffffde50
fffff5eb
fffff9a2
ffffe5dd
ffffe274
ffffd34b
ffffe88e
ffffe706
ffffdda6
fffffd4f
fffff76a
fffff0c8
fffff76e
00000dd0
000007c4
fffffe51
00000801
fffff0f8
0000000b
000000dd
fffff8dd
0000029d
fffff03b
fffffd15
fffffbfb
ffffcb3f
000000f1
ffffcbfc
ffffe908
fffff902
ffffe782
ffffdd02
ffffe17e
fffff97a
ffffd2a4
fffffc0e
fffff27b
ffffeb0b
fffff84d
fffff25a
00000938
00000955
ffffe9c0
fffffac6
fffff4d7
000010b8
ffffee80
0000141b
ffffff3b
ffffef4b
fffff289
ffffee3a
ffffe63d
fffff44b
ffffe14b
ffffd48c
ffffec9a
ffffd7dd
ffffe340
ffffe0a5
ffffdef7
000001d1
ffffe85d
fffff04a
ffffde59
fffff4fb
000001bd
fffff18a
00000a3d
fffff04f
fffffc4a
fffff86c
00000220
fffff7b7
fffffc7c
fffffc70
fffff63e
00000372
fffffdbe
fffff8db
fffff172
fffffb01
ffffe926
ffffe6fb
ffffeea6
000000f1
ffffd7b0
fffff03c
ffffcc78
ffffe6f2
fffffc08
fffff4d6
fffff834
fffff3d4
ffffff00
fffffa4a
fffff356
fffffc0a
0000028e
fffff614
fffff593
ffffee69
0000050c
0000066a
00000249
00000934
fffffc9d
fffffe35
fffff887
ffffee2d
ffffe3f1
0000077b
ffffe646
ffffe12b
ffffed45
ffffe7d4
ffffd3da
fffff55d
ffffe76c
ffffdff0
00000473
00000231
ffffeace
000013fb
000005de
fffffed4
00001484
0000020e
ffffffa3
fffff776
0000077c
00000571
fffffe7d
fffff354
fffffd42
fffff673
ffffe289
ffffdda9
fffff5ef
ffffcb23
ffffef6a
ffffe533
fffff8bb
ffffde50
ffffee03
ffffe354
ffffed97
fffff895
ffffef93
000004ed
ffffec40
ffffff80
00000a95
00000696
000018bf
fffff620
ffffee2b
fffff325
0000087c
000005fe
ffffff84
ffffee6d
0000044b
ffffe8da
0000060c
00001840
fffff58a
fffff798
ffffe8bc
ffffd5fd
ffffe235
ffffd9dc
ffffd4e8
fffffd53
ffffefe1
fffff395
fffff1b5
fffff655
00000594
fffffb6f
0000056d
fffffbae
fffffb86
ffffedcc
ffffe66e
fffffc9e
000000ab
ffffeef6
fffffcbc
fffffc48
ffffdee5
ffffee59
fffffc7e
fffff6b4
ffffded7
ffffeec2
fffff9c9
fffff46c
ffffe6d5
ffffe241
ffffdeec
ffffee39
fffff03d
fffff78d
fffff589
00000263
fffffb5d
000006e8
00000ac3
fffff532
ffffe892
000013ef
00000352
ffffe9d5
fffff6e8
00000950
fffff93f
fffff3be
00000ea1
ffffed9c
ffffea4b
fffff060
fffff012
fffff112
fffff5e1
ffffe853
ffffeab5
ffffe399
ffffe7d1
ffffedaf
fffff55f
fffff971
fffffb4f
fffff8d6
fffff1ce
fffffedf
ffffff49
00000253
00001c82
fffff937
00000576
00000dd1
0000017b
00001ddc
fffff815
fffffeaa
ffffefcd
fffff396
fffff2a1
fffff5c5
ffffee34
fffffad6
ffffe6df
ffffe06d
00000852
ffffed0c
ffffe25d
ffffe6d3
ffffe661
fffffd81
fffff040
fffffa42
fffffbd3
000007be
fffff52e
fffff1fa
000002e2
000007c4
0000044d
fffff589
000008dc
fffff61b
fffff8b6
fffff0da
00000af6
0000004c
fffffb1b
fffffd9b
00000fb8
ffffd633
ffffe0f7
ffffdf8f
ffffdf39
ffffe020
ffffee10
ffffe47b
fffff893
fffff5fd
fffffec3
0000015f
000003eb
fffffb00
00001c1a
000002ed
ffffe7e3
fffff30a
ffffe97f
00000039
fffffe67
fffff990
00001a74
00000713
0000064b
ffffec9c
ffffeade
fffff4fe
fffff384
ffffd819
ffffeb0b
ffffee9c
ffffee3d
ffffe914
ffffef23
fffff203
fffff787
000000e7
0000091c
fffff898
fffff89f
0000059d
000007de
fffffa52
00000a33
00000caa
000010b4
000016fe
fffff4c8
fffffffe
0000008b
ffffff63
fffff68a
ffffe86a
fffffafe
ffffecf5
fffff5b4
ffffe9d5
ffffe2ad
fffff41e
fffff3ea
fffffbab
00001045
fffffa6c
0000018d
ffffedf4
ffffec41
00001255
fffff3cf
fffff24d
ffffff6f
fffffed0
fffff454
fffffc0f
00000fe5
fffff594
ffffedfb
00000bcd
00000610
fffff79c
ffffeb4a
fffff567
fffffdd4
00000c68
ffffee5b
fffff6bf
fffffe02
ffffd61f
00000133
ffffe76e
fffffcf1
fffffe3e
00000aae
000002b2
ffffdee1
fffff4a6
0000018b
fffffd68
00000629
00000a34
000007de
fffffd3b
ffffe820
fffffa1c
00000562
fffff1e6
00000823
00000b99
00000153
ffffd7dc
ffffee83
000016d6
fffff6d6
ffffe230
00000b1f
fffffb61
00000955
000000b2
00000489
00000442
0000090c
00001c73
00000c07
ffffeb28
000005dc
00000ebc
00000f89
fffffa7c
00000f10
00000bff
00002143
fffff64d
fffff970
fffffc0a
fffff9a3
fffff471
ffffdc64
fffffa44
00000447
fffff91f
0000189d
ffffff1e
00000d82
ffffffd2
00000821
000002a2
000010ed
0000008f
0000066e
000004b0
fffffc79
00000528
00001cda
fffffc7d
0000056c
00001043
00000ebe
00000027
ffffe12f
000006ae
ffffe34d
00001302
00000231
00000cec
fffff452
ffffebe6
00000357
ffffffd0
fffffa02
000000df
000021f2
00000889
00000cf0
00000ad1
000012eb
fffffd45
ffffe555
fffffd7c
00000a7f
fffff370
fffffdb4
fffff70e
0000136c
000009b1
0000086d
0000080a
fffffa99
000000e2
ffffed38
ffffe3f3
fffffaec
00000433
00000b78
0000126f
00001043
ffffee3e
fffffb72
00000636
000020bd
00001323
00000e79
fffffafc
fffff495
00000a33
fffff1c5
fffffceb
fffffe84
00001499
fffffb6a
ffffe076
00000686
fffff6f6
0000008d
fffffee1
fffffc76
00000a38
ffffec2e
fffff951
000008d8
fffff80f
ffffeb33
000008a3
00000e81
ffffff64
ffffe69c
0000091f
ffffea83
000003f7
fffff480
fffff0fc
fffffa7b
fffffdae
fffff7a4
00000796
fffffa35
00000ca9
000003a2
fffff6fb
fffff4ce
ffffeab3
000003c2
fffffb6a
ffffe154
fffff913
fffff45a
00001460
ffffe9fb
ffffed5b
00000e59
00001186
fffff658
fffff7f6
00000810
ffffe1cb
ffffe7df
fffffc5e
0000143a
fffffa69
000000c3
00000d6b
000019fe
fffff82e
ffffffbe
00001773
ffffec40
00000d44
fffff2d3
00000153
fffffcdd
fffff39d
fffff34a
00000393
00000cdf
fffffe53
000000e5
00000757
fffff35d
00000972
00000a9c
000021b0
fffffab7
fffff961
000008e7
00000993
fffff810
fffff938
0000059c
fffff273
fffff880
ffffffe4
00000cde
fffff873
ffffe807
ffffe71f
ffffefad
ffffef05
fffffe00
fffff0a1
fffff6ea
fffff5fe
fffffa4e
00001119
00000885
00000017
fffff9e5
fffff968
00000333
000006b7
fffff215
fffffc17
ffffe02e
fffff9bd
fffffdf5
fffff076
00000dc7
ffffec5d
fffffcf8
fffffcdb
fffffdcb
fffffd6c
ffffff22
000007fd
00000fe3
fffffff3
00000a8a
fffff6ed
000009e7
fffff626
00000e19
00001c8a
fffffe50
ffffe38d
fffff7e1
00000cf0
0000037d
fffffd38
000004e1
fffff9c0
fffffec7
fffff888
fffffe26
ffffede3
fffff6ff
ffffe982
ffffea3a
00000a98
fffffd75
000006fe
fffffdb2
fffff4e0
fffffe69
00001245
00000724
ffffe9de
fffffd38
0000170c
fffffd3a
ffffe8a0
000017b0
000007cd
fffffc9e
fffff75c
000007bb
ffffefea
000000f3
fffff34d
ffffeca8
ffffe832
ffffdfd1
ffffef42
ffffda2b
ffffd3db
fffff486
fffff7e3
fffffe34
00000001
fffff7e0
00000678
fffffdd9
fffff8e9
fffffbd7
00001a16
ffffe990
00000673
ffffea3f
fffffe60
fffff94a
ffffe3c3
000001c9
fffff86b
ffffdf99
fffffda9
fffffdaf
fffffc3d
ffffea33
ffffe2b7
ffffeff2
fffff439
fffff305
ffffdca6
ffffede7
fffff3c4
ffffdaee
fffffec0
0000183b
000005df
00001183
000001b6
fffffeb1
000004e6
fffff573
fffff385
00001045
0000118a
fffff1d7
00000af1
fffffd69
000002d8
fffffe60
fffffbd8
ffffebe8
fffffa73
ffffe84f
ffffec17
ffffd98e
fffffe67
ffffeaae
fffff235
ffffd670
ffffe008
fffffe25
fffffa31
ffffe158
00000897
fffff6f7
0000110e
fffffe9f
000002a3
00000f3d
fffff457
fffff308
fffffd2f
00000a39
ffffed27
ffffe941
0000062b
ffffef3f
ffffeb7d
ffffd5e3
ffffe360
ffffea68
fffff4d5
ffffdf30
fffffce0
ffffdc86
ffffe01e
fffffcc0
ffffeec7
ffffe811
fffff5ab
00000ae1
00000df5
fffff383
fffffe63
00000117
fffff33b
ffffff48
00000004
00000e9b
00000f4f
fffffb2c
fffffc4a
000005f9
fffff1ea
fffffd6f
ffffee8e
ffffe0f3
ffffddea
fffffc39
ffffe7ad
00000197
ffffe1a6
ffffeac5
000005ec
ffffdd1a
ffffd553
0000020d
ffffee30
fffff9f1
fffff428
000001c9
fffff368
fffffda4
000005d0
fffff2f6
fffff6e9
fffffb67
ffffed43
fffffa61
00000044
fffff661
fffff3e2
fffff3c0
ffffe786
fffff412
fffffa62
ffffe45f
fffff2b8
ffffea44
ffffeec9
fffffa52
fffff060
ffffd610
fffff699
0000025f
fffff422
00000726
fffff262
ffffebe2
000001bf
ffffe942
fffffce5
000010a4
ffffe74a
ffffef5e
fffff1f8
fffffe02
fffff80e
00000b6b
000003d0
fffffacd
fffff2f2
fffff1d6
ffffdec3
fffff65f
ffffdc53
fffff3cd
fffff3bc
ffffe560
ffffe41e
fffff2bc
ffffce54
fffff748
fffff60e
fffff982
000003bb
fffffdc5
fffff11f
fffffe27
000000de
0000017c
00000216
00000d63
fffff0d1
00000173
00000c4b
ffffe255
fffff899
ffffec62
ffffec48
ffffe2ad
ffffe708
0000007a
ffffd820
ffffd777
ffffd0ea
fffff767
ffffdf57
ffffeb89
ffffed55
ffffe9d2
fffff64c
00001afd
00000e2d
fffff2fe
0000083c
fffff53e
ffffe908
00000d2f
00000eff
00000d84
fffff908
fffffcd5
00000551
fffffcb3
fffff1de
ffffde32
fffff1be
fffffaa8
ffffdae0
ffffef45
ffffe9a6
ffffeea0
ffffeeb7
ffffdcec
ffffd418
ffffe51f
fffffcb6
ffffefd2
fffff0de
ffffe3d2
000012ac
00000907
000009c3
00000c80
00000775
fffffcd7
fffffde1
fffffa78
000020ac
000005a1
fffff5dc
fffffe56
ffffea32
000005eb
ffffe692
fffff437
fffff7d7
ffffede4
ffffe9ad
ffffe6cc
ffffe6fa
ffffe22d
ffffe607
fffffe9a
ffffed4c
ffffed3e
fffff294
00000676
00000369
00000579
fffffca0
0000075e
fffff7ad
fffffca5
00000c8a
00000b44
fffff249
fffff33c
fffffdc5
00000e7c
ffffdc54
fffff786
ffffdf70
ffffe66f
ffffe6ea
ffffe6c0
ffffe228
ffffe82a
ffffe434
ffffdb4e
fffff6e8
fffff5d9
fffffb7e
ffffe20a
fffffa4a
000000ce
ffffede9
fffffd96
fffffe9b
000017c9
000018e1
ffffea7b
0000203f
fffff41d
00000c77
00000b62
fffff009
000000d8
fffff4fd
fffffa95
fffff4e2
ffffff36
ffffede5
ffffeb18
fffff840
fffff0a7
fffff405
ffffe653
ffffe093
ffffe907
ffffea1c
fffffd68
00000252
fffff7a2
00000dd3
00000f1a
0000028c
fffff552
0000145c
ffffff36
000001a2
fffffb8c
fffff485
ffffec9a
000004c7
ffffef37
00001b9c
ffffe632
ffffe2f3
fffff8c5
00000780
fffff331
fffff3af
ffffd280
ffffe1c8
ffffe253
ffffd767
fffff441
ffffd446
ffffe124
ffffefe7
ffffedab
000000c5
000001ac
00000a5b
000009ad
00000eba
fffffffa
000003ec
000006c0
000001d3
fffffa40
fffff7d2
ffffec70
fffff840
fffff15a
ffffeac9
ffffea49
ffffe2a9
fffffb7c
ffffeb46
ffffdcf9
fffff4e9
ffffe8bf
ffffde24
fffffd68
ffffea81
ffffef59
fffff72a
00000774
fffffd6b
ffffef8b
000006dc
fffff9b5
00001866
fffffffc
ffffe31a
000004d6
0000191e
0000138a
00001387
ffffeaee
ffffffb0
ffffe9fb
fffff26a
ffffdc8e
ffffe355
ffffe0c7
fffff495
fffff2d9
ffffeff4
ffffdd83
ffffe838
ffffe3e8
fffffbd7
00000385
000006ff
fffff16e
ffffdb41
ffffe9b4
00001244
fffffacc
fffff64a
0000153d
0000105c
0000006a
fffffbdb
fffffba6
fffffe7f
00000d5b
fffffa16
fffff85c
fffff9cc
ffffdb7b
fffff119
ffffe3b6
ffffc647
ffffcc8c
ffffdddc
fffff0ac
ffffeaeb
ffffef6b
00000a25
ffffe6dc
fffffbed
000001cc
fffff67c
0000010b
ffffeb35
00001233
fffff730
00001a44
ffffff95
00000d45
fffffea9
fffffb4e
fffff3fa
fffffac2
fffffa7b
ffffe6bf
ffffeb2b
ffffe19e
0000034a
ffffe214
fffff740
ffffe399
ffffeabc
ffffda0d
ffffe87e
fffff496
00000953
fffffc87
00000fa0
00000775
0000150f
ffffff35
00001ed7
fffff9b4
fffff617
fffff05b
00001e24
00000a94
fffffb7a
00000d81
000005d5
00001580
ffffe5a4
fffff231
ffffead5
ffffd2ea
fffff59f
ffffe293
ffffef50
00000769
ffffe9be
ffffee1f
fffff698
000005c9
fffff38f
fffff54d
00000c9c
000002f7
ffffe52f
fffff018
00001364
00000531
fffff625
fffffdcc
0000002c
00000983
ffffeead
fffff4c5
00000302
fffffe1f
00000536
ffffeb48
fffffb8d
000001c6
fffff707
fffff2b7
fffff1b0
ffffeafd
fffff88d
00000d4a
fffffce7
fffff3a9
fffff785
0000005d
fffff813
0000049a
00000672
00000b7b
00001267
00000ce0
fffff3ec
fffff451
ffffff05
fffffa2b
fffff147
fffffa43
fffff9b7
fffff6ff
fffffb5f
00000d87
ffffff92
00001bb0
fffffe5a
fffff91e
fffffdb1
0000012a
00000350
00001a4f
fffff58e
00000b9c
00000268
ffffeb8a
000008e1
00000f22
fffff4a7
ffffffde
ffffe9b1
ffffefb9
00000d8d
fffff9f8
fffff1aa
000002f8
fffff93e
fffff9e4
00000982
fffff118
fffff42c
00000120
00000add
00000e1e
fffff5db
00000bd7
fffff5cb
00001717
fffff068
00001093
fffff7a8
00001a64
000007d7
fffff310
fffff92a
00000a10
00000d98
ffffff16
00000094
000009ce
000001b4
ffffef46
fffff57d
0000030a
00000fb7
000014e5
00000a13
000003b3
000009a8
fffff759
fffffd56
fffff451
ffffefb5
000004e9
00000323
00000901
000006f8
0000030e
00000720
ffffff65
0000054e
fffff69c
000004c2
000008a1
fffff757
000000ac
fffff7f0
fffff931
fffff174
0000118f
0000046b
000000f2
0000430d
ffffd3aa
00008710
ffffb53e
ffffff28
fffffe51
fffffc89
00000ace
fffffe87
000016f9
00000318
0000037f
fffff43f
00000569
fffffe44
fffff823
fffff5f6
0000228c
fffffc98
ffffed29
fffff6f9
ffffff55
00000712
0000072c
000008c0
fffff7a9
00000467
fffff4ac
fffff7fd
fffff422
fffff0a2
00000dc3
000008e5
00000c9c
0000007b
00000a02
ffffe938
00000b22
00000243
00000816
000004e5
fffff36f
ffffecae
fffff6c3
00000747
000008e6
ffffee4d
fffff34f
fffff6a6
fffffb61
ffffee64
ffffed9d
fffff560
0000011e
fffff0bc
fffffe81
00000db0
ffffef2a
fffffd53
00000d3f
fffffa93
fffff886
00000ed5
fffffbd3
00000e26
000004c5
fffffa3e
0000048a
00000283
00000bff
fffff850
000000b5
ffffffaf
00000911
fffff2a3
00000d15
00000603
ffffeef7
00000f9f
00001ce3
00000cf4
00001273
0000011b
ffffea84
ffffe828
00000349
fffff85a
fffff45f
ffffff5c
000007e3
ffffed07
fffffa06
000012b4
fffff0f4
00000917
fffff6ff
000004b7
00000a6c
000004c6
00000a55
fffff160
00000ed1
fffff582
000003a3
000003ab
0000067d
0000045b
fffff517
ffffee8c
00000b48
00000267
00000edd
ffffff6b
ffffedcc
00000c79
fffffb33
0000048d
fffff4ed
000011bc
ffffef85
fffff80a
ffffffe5
ffffefbc
000002e4
000012ba
fffff7b6
00000360
ffffde18
00000339
000000c2
fffffacf
0000134d
0000003d
fffffecc
fffffb9c
ffffe737
fffff15d
00000c6d
ffffe4b8
fffff616
fffffaed
00001714
00000ad8
fffff8de
0000108c
fffff2cd
00000848
ffffe7ea
00000963
fffff69b
ffffeda9
fffff652
fffffd63
fffff7f2
000008e8
fffffb87
0000060c
0000042b
ffffff84
00000098
00000883
00000933
00001c21
00000c50
00000c9f
000027ef
000006ac
00000650
00000989
fffff3e6
fffffb9d
fffffa63
00000a1a
fffff960
fffff8a2
0000044f
00000654
fffffc15
fffff135
000006f2
00000392
ffffe850
fffff92c
0000029e
0000091a
000005e7
fffffc74
00000788
00000719
fffffbfb
ffffff06
000000c2
ffffff84
ffffe79e
fffffad9
000000cd
fffffcd2
fffffe5a
000009e3
fffff576
ffffedb4
fffff3d9
00000108
000014db
00000c46
ffffee79
fffffc43
fffffe55
fffffe29
000000ec
ffffed28
fffff937
fffff9b2
fffffd58
ffffed4b
fffff75f
ffffde27
fffffa53
fffffa09
fffff2ec
0000021c
ffffff46
ffffe2c5
000002b3
fffff52a
00000864
fffff29b
0000012f
fffff908
fffffae4
fffff8bc
fffffcc4
fffff318
ffffef7a
fffff62c
fffff897
ffffedab
fffffbfd
ffffeeb2
ffffe495
ffffe915
ffffeebd
fffff7be
00000eb9
fffff489
fffffd43
00000501
ffffff92
fffff984
ffffebf7
fffff957
fffff1fc
ffffea5b
fffff79c
fffff4d2
000004bd
00000165
ffffecbc
fffff7e2
ffffea0a
fffffe74
fffffec5
00000009
ffffe867
fffffc02
ffffdbf3
ffffdf36
fffff404
fffffcc9
fffff1ee
fffff1fb
ffffda75
ffffe0e6
fffffdfd
fffffb63
fffff1a4
000000d5
0000017d
00000c28
000001a1
00000f5a
000000f0
fffffe83
00000c89
ffffebba
00001c05
00000298
00000464
00000486
00000f28
fffff9b2
ffffd957
fffffe57
ffffe768
fffff0ca
ffffd909
fffff037
ffffe386
fffff26d
fffff074
00001325
0000166b
00000098
000000cc
fffffb2b
00000e4d
fffffbb5
fffffa72
00000bf2
fffff975
ffffffd6
ffffe9c4
0000044f
000014c6
0000043d
00000de2
fffff0f0
fffffb8d
ffffea60
ffffeb3f
fffff6dd
ffffef77
ffffdfda
ffffdc01
ffffdb38
fffff335
00000924
000004e6
ffffe2fa
00001088
00000c12
ffffebfd
fffffc13
00000e2a
00000719
ffffeefc
000007d2
ffffe519
fffffd7d
00000cef
fffffc43
fffff52b
00000652
00000a98
0000140c
0000090a
00000a17
fffffcfe
fffff5d6
fffff143
ffffefc5
ffffe025
ffffe303
ffffe98f
fffff280
00000849
fffffbbf
00000b05
00000dd2
fffffcfd
000007ae
fffffcda
00001116
0000082c
fffff0b0
00000270
00001583
fffffc81
ffffff11
000000fd
ffffef79
0000066d
fffff606
00000045
000011b0
fffffe0d
ffffee57
fffff3c9
ffffefb7
ffffeeaf
fffff8cf
ffffe658
fffff432
fffff353
ffffe783
fffff2ff
00001423
000004f7
ffffeee3
ffffec15
fffffe8c
0000142d
fffffdc3
00001152
0000039c
000004a9
ffffe694
ffffff0c
fffff330
000008fc
fffff885
000005e6
00000485
fffff725
fffff903
ffffeb0d
ffffe8f2
00000aa1
000003f8
fffff0c7
fffffcbd
ffffefe8
ffffec21
00000bc8
ffffe9c5
00000bf9
fffffcbb
fffffd44
0000054b
00000783
fffff495
0000097b
fffffee8
ffffec51
fffff220
00000102
00000a68
0000060d
ffffea92
fffffd73
0000000f
fffffd28
fffff91f
fffff2e8
fffff57e
fffff682
ffffe7ec
fffffbb1
fffffb53
0000034e
ffffeb0e
00000688
00001a39
000000f8
ffffff33
000003ff
00001a47
fffff2ba
000001a5
fffff42d
fffff5ae
fffff761
000000e7
000002f6
fffff31e
ffffef3c
000010d6
ffffe689
ffffe5dc
ffffd421
fffffb2b
fffffa47
00001328
ffffedd8
000012a1
fffffb49
000006a6
ffffe8ba
00001039
000007bd
fffffefa
0000084e
fffff619
fffff882
fffffa02
ffffe7fd
00000a9a
00000dc5
fffff18f
fffff909
ffffedf5
fffff3cd
ffffe64a
ffffe286
fffff7eb
ffffe74a
0000019a
ffffe7be
ffffddfb
fffffeda
ffffff31
000008bb
00000cdd
fffff501
fffffe25
fffffeac
ffffecfe
fffffb04
00001106
00000305
ffffee95
ffffebe2
00001587
fffffec7
fffff7ab
fffffa1b
ffffe9d0
00000bd9
fffff18a
00000740
ffffef1e
fffffc9a
ffffea56
fffff266
fffff229
ffffefac
ffffeca9
ffffee90
00001258
fffff481
fffff6fe
fffff8b8
000004b9
ffffff14
000002e7
fffffc9d
ffffebaa
00000013
fffff1bf
ffffe993
000001c5
00000681
0000076c
000006a1
ffffe764
ffffed63
0000114f
ffffe7af
fffff4d0
ffffdde3
ffffeab3
ffffe2f7
fffff0a1
ffffea10
ffffe530
ffffe52a
00000290
fffff49e
fffffe0f
00001ad1
00000fa7
00000c77
fffffec8
ffffe64d
ffffeebb
00001090
fffff5c7
fffff6f5
fffffddc
fffff2ac
ffffefe1
fffffe73
fffff64a
fffff942
fffff021
fffff87a
ffffec65
ffffefb6
fffff96d
ffffeb0d
ffffe76a
fffff57c
fffffe30
fffff9c2
000006d3
fffffbe0
fffff0a8
0000030c
00000369
000006de
00000464
000001b0
000008e3
00000c13
00000bc7
fffffeb2
000011ef
00000334
00000751
00000299
000004a3
fffffd5e
00000a56
00001a82
fffff0bc
fffffdde
fffff859
fffff302
00000abf
fffff2f8
fffff5be
ffffed07
fffffc04
ffffeb67
0000055c
000020e0
fffffc25
ffffec8e
00000d64
fffff790
000010b1
fffffc52
fffff7d5
fffffdb3
000009cc
fffffd13
fffff86a
fffffb4b
ffffee05
000007d6
ffffeb4e
fffff47d
0000010d
0000002d
00000341
fffff9a6
00000e3d
00000dd5
000008c3
00000da4
000008b3
fffffade
ffffed3f
00000713
00000896
00000f9e
fffff4d9
fffff471
000005e1
ffffff0f
ffffe79e
000004da
ffffe80c
fffff3c8
00001164
00001749
ffffefe9
fffffd30
00000251
00001273
fffff17e
fffff02b
00000e20
fffff8e9
00000890
ffffec77
fffff8b7
ffffe6ac
ffffee45
00000c2d
0000014e
fffffd6a
fffff63e
fffffe17
000003f7
00000ca6
ffffde0a
fffff53e
0000020f
fffffeb9
00000537
00000376
fffffc53
fffffa5d
fffffdf1
00000fd4
fffff7fd
000000d0
ffffff1f
00000b8c
fffff109
00000100
000009d0
fffffe28
fffffc5a
fffffa80
fffffab6
0000096e
00000147
00000323
fffff292
fffff3ca
00001b76
fffffdaf
fffff5fa
00001281
000003a5
0000077a
fffffe37
fffffbe1
fffffdce
ffffee18
fffffeb8
000003b6
00001770
00000019
ffffe104
fffffe8f
0000237c
00000ba5
fffff6c3
000007f1
fffff6af
ffffed0e
fffffa91
000000ce
ffffe78f
fffff19f
00000055
fffffa73
000004d2
fffff040
0000093c
fffff0b2
0000153e
ffffe9d1
fffff1e0
00000566
00001584
0000040d
00000739
0000001e
fffff262
fffff8f0
ffffefaf
ffffeeda
00000426
ffffef7d
00000268
ffffede7
00000319
fffff931
0000127c
000004f5
00001068
fffff66e
000000a5
fffff347
fffffaa3
fffffc9c
fffff69d
fffff049
ffffedb9
ffffe1bf
fffff257
0000081d
ffffeb55
ffffee4f
00001727
fffff7c1
00000420
00000846
000008d1
ffffecaf
fffffced
ffffea57
00001eb9
ffffeb15
fffff25c
fffff277
ffffec94
0000116f
00001f49
fffff9d9
ffffeee7
ffffe310
fffffcd8
fffffbe9
fffff794
000002dd
0000051c
fffffacb
fffffbef
fffff00a
00000611
000001b6
00000880
00000697
ffffedda
ffffeb9b
fffff0ef
fffff258
000009c4
0000048b
00000e36
00000520
000002b3
00000f83
00000613
000000e1
00001324
0000017d
fffffc11
fffff52b
00000917
00000fff
ffffff59
000010e9
ffffe687
ffffff48
ffffff7b
fffff69a
00001ed3
ffffff25
fffffaba
00000056
ffffe619
fffff628
00000cb0
fffff7d5
fffff546
000010e8
0000114d
000006a9
fffffa19
fffffd19
fffff5a7
fffff31b
fffff278
fffff7fc
fffff29c
ffffebc7
000002d6
00000309
000015fe
fffff75c
000003d4
0000040b
fffffcb8
000009a0
00000a06
0000043b
fffffcb0
fffffb60
ffffee4c
fffff58e
fffff817
fffff190
00000592
00000f69
fffff441
000003df
fffff2d8
fffffbf3
fffff6dd
00000833
fffff7c5
00000d0b
fffffcb7
fffff789
ffffefc6
00000344
00000b93
00000389
00001cf3
0000127d
fffffc06
fffffbe3
00000613
fffff527
00000f08
0000049a
00000333
000008e6
0000163a
00000174
fffffce8
0000119a
00000b37
fffffac6
fffffed4
000001a4
000003d8
ffffed9a
ffffeb72
fffff484
fffff3ca
fffff786
0000081c
fffffdc7
0000028a
fffff02b
fffffa08
00000798
000007b1
fffff6a2
00000216
00001c64
ffffffa8
fffff6e5
fffffd5e
0000008f
fffffd02
fffffcd0
ffffea39
ffffefd6
fffff8db
fffff787
fffff2b1
fffff742
fffffab9
00000650
fffffab0
00000243
fffff606
0000046f
00000324
000009a4
00000934
0000079c
fffffeba
0000032b
00000dc0
fffff791
fffff7d5
0000023d
00000545
fffff4c9
fffffdb9
fffffc9c
ffffe08e
fffff804
fffff752
fffff509
000007ce
ffffe437
ffffe7ba
ffffd387
ffffec73
ffffec9c
ffffeb02
00000378
00000448
fffffc1b
fffff86f
00000b0c
ffffffb2
fffff561
ffffe9ce
fffffa4b
000009c2
00001d6d
000000b4
fffff614
fffff0a8
00000577
ffffe616
000002fc
00000339
fffffb67
fffff129
fffff820
fffff180
ffffe224
000000ea
ffffe560
fffff4f6
ffffce06
fffffd0c
000002ea
fffff403
ffffffe7
000002d7
fffff626
00000717
fffff56a
fffff817
00000e91
00000c97
fffff6d3
fffff64f
fffff6b1
00000714
ffffee6e
fffffab7
ffffff03
fffff294
fffffef5
ffffea3f
ffffe836
ffffdbcd
fffff2c8
ffffdb8c
ffffea18
ffffe708
ffffd99d
ffffe160
fffffd76
fffff57f
ffffeb7b
00000008
fffffc1e
00002c06
0000036b
fffffb0c
0000125b
ffffe82d
0000011d
00001935
fffffcbc
ffffe64f
fffff399
0000086a
fffff87f
ffffe6a2
ffffe493
ffffe22d
ffffebef
fffff7c6
fffff3d5
ffffeced
ffffd451
ffffd37a
ffffeae9
ffffd76f
ffffe6e4
fffff7f3
ffffeb2d
fffff035
fffffcf3
00000592
00000d9a
000007d6
000000f3
fffff64c
fffff205
fffff8bc
00000310
fffffff4
ffffddb5
ffffecf0
00000384
fffff165
ffffd88a
0000055a
ffffe599
ffffeb83
ffffefb4
ffffe5e3
ffffe0f6
ffffffe7
fffff1a7
fffff2ef
fffff0b5
ffffe581
00000ba0
fffff34d
000002c0
ffffe9b1
ffffe58d
0000041a
fffff58a
ffffe63a
000006d5
00001b0e
00001060
fffff631
fffff700
00000316
000000bc
ffffe9c1
ffffebcf
ffffee5b
fffff02c
ffffea7f
ffffeda7
000003c6
fffffe99
ffffee45
fffffc61
ffffe480
00000036
fffffa4f
000027b6
fffff008
fffff74d
00000568
0000051b
00001936
fffff75c
00000ba9
00000ed6
000008b1
fffff13e
00000b25
00000740
ffffff94
fffff37b
ffffef93
ffffedfa
fffff80f
ffffee52
ffffe528
ffffe656
ffffe8e6
fffff213
ffffe736
ffffeb19
fffff112
ffffe509
00000ac8
fffffab4
fffff9dc
0000060d
ffffe837
fffff5bf
00000cae
ffffe989
00000e6e
0000135c
fffff92f
fffffec0
000006e2
fffff314
0000014c
ffffe84d
ffffe7bf
ffffe556
fffff259
fffffa95
ffffe841
ffffda53
ffffdbe4
ffffeaac
fffffc43
ffffed9c
ffffe5e5
fffffa25
fffff385
fffff7fb
fffff324
0000123a
ffffdf08
00000a4c
fffff9ff
fffffab2
000015e0
fffff6b5
fffff4c9
fffff821
fffffeb2
fffff34a
ffffe0c2
ffffe68b
ffffff90
ffffeede
fffff489
ffffe9b2
ffffde8e
fffffa96
ffffe0a2
ffffd9cb
fffff024
ffffe061
ffffe46f
ffffef39
fffff5a3
ffffff56
00001813
000003d1
ffffe11c
00000436
0000007d
00000090
0000032d
ffffff9e
fffffd23
000001ef
fffff283
ffffee08
00001ca5
ffffe9df
fffff1c2
ffffdb28
fffff232
ffffe25b
ffffe467
fffff604
ffffeba4
ffffea38
ffffcf72
000005cd
ffffde70
000001b0
ffffff1b
00000102
fffff2f1
0000013d
fffff9b8
0000005d
fffffcc5
ffffe5a4
00000e80
fffffef3
fffff8d6
fffff326
fffffe7f
ffffef1f
ffffda22
fffff8a9
fffff7c7
ffffeb28
ffffdf5b
ffffee47
ffffd944
ffffddcc
ffffdc0e
ffffeed2
ffffe61c
ffffe867
0000067b
fffff43b
fffff998
fffff6b7
fffff6af
ffffe27a
00000c7b
000005c0
fffffdae
fffffe3a
00000985
ffffebdc
fffff874
ffffef11
00000ff0
00000267
ffffd961
ffffe0cf
ffffee07
ffffe40d
ffffd970
0000034d
ffffed33
ffffec7a
ffffdb39
ffffedad
ffffe6b9
ffffebdf
fffff759
ffffddef
00000c60
fffffef3
00000cfe
fffff128
fffff42c
fffff0f1
0000033c
000000da
fffff9ff
fffff2d5
ffffefde
fffffedc
fffff5af
ffffef1f
00000a1f
fffff2f2
0000006e
ffffe6fb
fffff09b
ffffef04
ffffd9e1
fffffc8a
ffffe734
fffff409
ffffe804
fffff15d
ffffe8ee
00000303
fffffb11
ffffff3d
00000c4d
00000c81
000009c7
ffffed91
fffff6fe
fffff305
00000968
00000225
ffffedb7
fffffd5e
ffffe734
fffff79e
ffffe15b
fffffd60
fffff91b
00000a2c
fffffa26
ffffe97d
fffff857
ffffd9f7
ffffdc2a
ffffeea2
ffffd5db
fffff437
ffffe850
fffff313
ffffe7fa
fffffe47
fffffb3a
00000fe2
ffffffdc
fffff603
fffffcc9
ffffee9e
00000540
000006ee
00001e12
fffff60f
fffff6e6
ffffef4d
fffff824
fffff938
fffff0e4
fffffd0d
ffffe774
fffffac6
fffff3b0
ffffe8f1
ffffe383
0000086c
ffffe9ac
fffffacf
ffffed27
0000080e
fffffe6a
fffff123
0000035d
000001c9
fffff926
000009c8
00000506
000002ca
ffffff75
00000495
00000122
ffffff32
fffff320
00000c3f
ffffe60d
fffff524
ffffea28
00000530
ffffdfcc
ffffe248
ffffddf7
ffffecc4
ffffd60a
ffffe672
ffffd86a
fffff8f0
ffffeea6
ffffdc3c
000001e5
ffffea34
000007ea
fffff625
00001497
000009ad
fffff2f6
fffff424
000007d4
fffffbfc
fffffcad
00000f8b
fffff2cb
fffff97a
ffffff6e
fffffb5c
ffffed7c
ffffe8f9
ffffd3cc
ffffdba7
ffffedfd
ffffe72b
ffffeb02
fffffd28
ffffe5f3
fffff298
fffff722
ffffe822
000007af
00000654
00000296
00001754
ffffec84
ffffffde
000004bd
fffff42d
000003e3
fffff1ab
00000883
00000d7f
ffffff4a
ffffe155
ffffe7a4
fffff9c3
ffffee06
ffffc7dd
fffff99b
ffffec82
ffffe1b2
fffff94b
ffffe633
ffffeb62
fffffad0
00000bbe
00000920
fffff858
fffffe96
000006db
ffffef14
00000846
fffff671
00000419
fffffd0f
0000067b
00000187
ffffd840
00000227
0000087d
000002f2
fffff8ef
00000a0e
fffff575
fffff449
fffffada
fffff46f
ffffe5aa
ffffd354
ffffed4a
ffffff3a
fffff0a0
000001b7
fffff9d0
000007fd
fffff3a5
0000014f
000004c5
00001337
ffffe9df
fffffa0e
00000af8
000013fd
0000031b
fffffc37
000009ca
00000b09
fffffb5f
0000038a
00000cd6
0000144a
00000169
fffff6bf
fffff651
ffffffbc
fffff721
fffffb0a
ffffec07
00000a5d
ffffec2f
fffff5bb
fffffcab
0000149e
fffff6a5
fffff5fa
fffff7c9
00001560
ffffdb9f
fffff308
00002351
000007a4
fffff1b3
ffffff75
000000df
00000af0
000017c2
000004d8
fffff835
000006f3
fffff31d
ffffef61
ffffe716
ffffe969
fffff254
ffffedc2
000000d9
ffffedd5
ffffd4c1
fffff048
fffff72d
fffff460
00000fc1
fffff6d7
00000b6b
ffffffbb
ffffff70
fffff533
ffffff3d
fffff61b
00000233
fffffcf2
fffff3c9
00000cd2
0000057f
fffffa1d
0000001f
fffffcd8
fffff375
0000006a
fffff790
fffff35a
ffffea93
fffffab6
000006a0
fffff63f
00001fec
00000a0f
00000e6a
0000084d
000016e0
fffff5be
ffffdeda
fffffa37
00000738
000001f6
00000390
00001114
000004f1
00000a54
fffff3da
fffff1d6
000014df
0000014d
fffff7ed
fffff7f0
fffff793
fffff715
ffffefc7
ffffeca7
fffffde0
fffff8c5
00000e56
000003b2
0000034b
fffff63b
fffffe5d
000004a0
00000943
fffffec3
00000df0
0000001a
00000a40
fffff9ab
ffffe890
00000378
00000773
00000318
00000451
fffffa8d
fffff52f
00000557
00000387
fffff552
00000c7d
ffffea84
fffff874
00001529
00000b3b
fffffb5f
000003b7
00000200
ffffdc80
fffff448
ffffff58
fffffb64
00000332
00000e9b
fffffbd8
fffff253
00000433
fffffbc7
fffffdfb
fffffc3a
00001cfd
ffffe307
fffffafb
fffffff4
fffff5e6
00000ba2
00000a84
ffffff60
fffffc7b
fffffe86
fffffe9c
fffffefb
fffffd8b
0000033d
000009b7
fffff013
fffff29c
ffffe971
00000b2c
00000336
00000682
ffffed81
00001713
fffff821
0000022d
00000b0c
fffff33d
fffff8f0
00000251
000024f2
000003e5
000014c5
00000f96
000004c0
fffff335
00000daf
ffffec9c
000014e6
000002be
ffffdd9e
fffffb3e
000007e9
fffffc66
000008b9
fffff478
ffffeec6
fffffebe
ffffff02
fffffb1f
00000fc2
fffff4f1
00000408
000000df
ffffebdf
ffffeef2
00000027
0000199e
0000077d
ffffe9b0
ffffd7c8
00000977
fffffeb6
00000eaf
fffff47f
000004a3
00000b3d
fffffa85
fffffaeb
fffffff8
00000572
fffffde8
00000ab5
fffff88d
ffffedf9
00001706
fffff56f
fffff865
ffffff6a
000000b7
fffffae7
ffffffbc
ffffff7c
00000243
ffffe185
00001852
fffffe18
00000782
ffffee2d
fffff9df
fffff733
000012e1
fffff837
00000933
fffff650
fffff6e3
fffff73d
00000a32
ffffe16c
ffffe97e
ffffe094
ffffeaec
ffffeec2
ffffe335
fffff09f
ffffe499
fffff1fe
00000ec7
00000556
000002d3
fffff303
ffffec22
fffff145
ffffff71
00000b3a
00000baa
0000081c
fffff661
ffffff26
fffffad8
fffffc8d
000016f9
ffffe4b5
fffff870
000008f7
ffffe45e
ffffed7d
ffffeb79
ffffec40
ffffd940
fffff4f3
fffff5ec
fffffb49
ffffeefa
ffffff0d
fffff293
fffffa7a
00001a4c
00000057
fffff09b
00000254
ffffee85
fffff07f
fffff288
fffffa2a
00000afc
000004a3
0000052b
fffff0df
fffff525
ffffff45
fffff17e
ffffeec8
fffff4ff
ffffe87d
ffffeab4
fffffa3b
ffffe3a3
fffff4ec
ffffee13
ffffdbeb
ffffe5ef
fffff04a
fffff0bd
fffff9ef
000003be
00000d5b
000003db
fffffa33
ffffe513
000000e7
0000004a
0000020c
000017f5
00000b76
000006a6
ffffefd5
fffff1e2
fffff6fb
ffffeadf
fffff4a8
ffffed96
ffffd827
fffff3fd
ffffe5ab
ffffcd33
ffffe046
ffffe3b9
fffff573
ffffeb67
00000054
fffffb6b
ffffe92f
ffffe84f
00000a88
00000f32
00000425
00001356
00000da4
000008bc
fffff33b
00001175
00000232
fffff73c
fffff1ab
fffffb3a
ffffdf14
fffff7a1
ffffdd19
ffffec6f
ffffe2a0
ffffe62a
ffffdf41
ffffe547
fffffb5c
fffff1b3
ffffece6
ffffef37
fffffb78
00000565
fffff124
fffffc2f
ffffe770
00000e66
00001ab0
00000108
ffffe478
000007bd
fffff361
fffff38f
000002d1
fffffe56
fffff242
ffffee6f
fffff3c7
ffffe740
ffffdaa3
ffffe4c8
ffffef15
ffffe9fd
ffffd9fb
fffff8a2
ffffc4ad
ffffdf10
ffffe203
fffff038
fffff77b
000005da
fffff2f6
00000682
00000267
ffffe9cf
0000188f
ffffed66
0000055f
000004e8
00000315
fffff5b1
000005e7
ffffe5ee
fffff5ee
ffffed90
ffffe695
fffff0ee
fffff749
ffffe68e
fffff87b
ffffef34
ffffe4f8
ffffecd1
ffffe983
ffffdffd
ffffef6d
ffffeff9
ffffdc7a
ffffe187
000001e2
fffff53a
000003e6
00000a1c
ffffef90
ffffedc0
0000159c
00000471
fffffa35
fffff179
fffff4d9
ffffe9fc
00000289
ffffe81f
fffff906
ffffe573
ffffde38
ffffeab8
ffffcff1
fffff261
ffffeeed
fffff937
ffffd18a
fffff475
fffff262
ffffff59
fffff47a
000006df
ffffea47
000008af
fffff5fd
ffffea9e
fffff176
00000012
fffff553
000004c6
ffffe915
ffffe3a4
00000d17
0000039b
ffffe913
ffffef6c
fffff64e
ffffeff1
ffffef2e
fffffe9e
ffffe910
fffff2c1
fffff004
ffffe6f6
ffffe07c
ffffe589
ffffe955
ffffe6a6
00000095
ffffed19
fffffa1a
fffffbab
0000047e
ffffe495
00000b83
fffff73f
00000fc4
fffff9c4
00000039
000019eb
fffff9bf
00000819
fffff5f7
fffff3ec
ffffec93
fffff747
ffffe4ef
ffffe33a
ffffe608
fffff007
ffffe855
ffffed37
fffff4b9
ffffda86
ffffe34d
ffffe2ff
000010bd
fffffdf9
0000030e
ffffedae
ffffffd8
00000694
fffffcbb
00000de9
00001de3
fffff3be
fffff3a4
fffff5ec
000012ce
00000782
fffff473
fffff297
ffffe30b
fffff8d0
ffffe8f2
ffffe7a1
ffffefc2
ffffe4c7
ffffe37a
ffffe66a
fffff1c6
fffffe61
fffff491
fffffdb5
fffff705
fffff20e
000005e7
0000010f
ffffed6a
fffffbbf
fffffeee
fffff966
00001328
00000633
0000129d
00000517
0000005c
ffffefa9
fffff870
fffff64c
ffffdfe8
ffffe90c
ffffec25
ffffefb8
ffffedb2
ffffdf05
ffffebf4
ffffe5a4
ffffc75e
ffffe9ef
fffffd2d
ffffddb5
fffffc05
00001171
fffff45e
fffffe6a
ffffef18
000014fe
fffffeeb
0000009a
00001183
00000884
fffff534
fffff794
000005e0
fffff4b7
ffffdf19
fffff576
ffffdfe7
000004ea
fffff164
ffffe11d
ffffe1ee
ffffcf71
ffffd759
fffff53f
00000881
fffffbd4
fffff303
ffffefb2
ffffecf8
000018a4
fffffc91
00001a7e
00001221
ffffe975
fffff763
fffff759
fffffef8
ffffff2a
000026fd
fffff0e3
00000040
00000256
fffff777
fffff6a4
ffffe54e
fffff0f1
fffff68c
fffff1d8
fffff0b6
fffff8dc
fffff14c
ffffe5cc
ffffdb13
ffffe9db
fffff361
fffff7e2
fffff195
fffff0ec
fffff019
ffffeb24
fffffd4f
ffffecf2
fffff30d
fffffae8
ffffeeba
000004d9
000008c8
fffff719
fffff62b
ffffffd7
ffffec39
ffffe890
fffffefd
fffffae3
fffff7d9
fffffa36
ffffd2dc
fffff962
ffffea0e
fffff1cf
ffffedcb
fffff1ee
fffff219
fffff82e
fffff395
000008ef
ffffeb4d
fffff9ba
00001aab
fffff7db
fffffce4
fffff497
00000458
fffff5a4
fffffaca
00000722
fffff253
000001f2
fffffdc3
fffffde6
fffff288
00001ca3
00000185
fffff693
ffffe2e1
ffffe7a0
fffff753
fffffd23
fffffcf3
fffffd06
ffffe422
fffffaec
ffffe86a
ffffeaa6
00000285
0000071d
00000b82
00000668
000006dd
fffff345
fffffea5
ffffeb50
ffffe33d
000005d3
fffff090
00000184
000001a0
ffffe99b
fffff75f
ffffe74f
ffffd70f
fffff061
ffffe45d
ffffe0b3
fffffde4
ffffd743
fffff37e
ffffe5b6
fffffee2
fffffa47
ffffffb5
fffff1ee
fffff542
00000b68
000016c7
00000632
fffff464
00000462
00001f63
00000093
00001154
fffff3f2
fffff996
fffffde5
fffff97a
ffffe8b0
ffffe41e
fffff5b6
fffff606
fffff633
fffff980
ffffe49f
ffffe2b4
fffffcc4
fffff637
ffffe42f
ffffe785
fffffd6f
fffffb36
ffffff76
00000cc7
00000887
00001117
ffffe6fe
00000347
000008fb
ffffec43
fffff782
fffff4cc
ffffffd9
0000104f
00001319
ffffee68
fffffd6d
fffff77f
ffffed3c
ffffea71
ffffe715
fffffa7e
fffff44b
ffffde7c
fffff9ca
fffffc65
fffff8fc
0000064c
fffffcc0
00000160
00000262
ffffe5b6
fffffea5
fffff74b
fffff0a4
0000128b
00000685
ffffff9d
fffff8ae
000003a0
00000c4b
fffff309
fffffa68
0000043a
ffffdf7b
fffff52c
ffffebe3
ffffec65
ffffe772
ffffee03
00000636
ffffee7e
fffff73a
00000c1b
ffffee91
00001224
fffffc86
00001648
00000a70
000003c6
ffffff17
fffff7e9
000000fa
00000b9a
ffffffd5
fffffbe8
fffffcc2
00000c63
00000efe
fffff66b
fffff558
00000156
00000dff
00000830
ffffe8c6
fffff4a0
ffffeb02
fffff0fa
00000951
ffffe607
ffffe53e
ffffef75
ffffff5f
000004cc
00000187
00000ca3
ffffe9ae
00000f4a
fffffbf3
00000974
ffffeee3
00000010
0000030e
00000ef2
ffffeb81
00000065
fffff1f1
00000663
000009a0
00000f50
fffff6b6
000008d0
00000e83
ffffe70c
00000450
000007f9
fffff97e
ffffee9b
00000b82
ffffef79
fffffcc5
fffffeea
000008b1
fffff82d
fffff74e
00000141
00000cff
00001d94
ffffec82
00000414
fffff1f3
00000d2c
fffff3dd
fffff746
fffff85b
fffffef4
000003b3
00000585
ffffff2b
ffffee0e
0000088f
fffffe4a
00000d7a
fffff59a
ffffea50
fffffed0
00001041
00000206
fffffcaf
fffff3ad
0000161e
fffff29b
fffff695
0000075b
ffffe800
0000107b
00000812
00000ba1
00000737
fffffdeb
fffff241
fffffe30
fffff364
00000648
00000a6a
00001311
000004c7
00000be8
fffffc14
fffff9b6
000005d0
fffffa9f
00000350
fffff22f
fffff485
00000825
00000b69
fffff338
000008ac
fffff917
00000033
00001252
00000a71
00000a4a
000018ae
fffff6e6
ffffeaa9
fffff698
fffff71d
ffffe250
fffffcdb
ffffef62
00000c1f
ffffffe1
fffff673
00000644
0000095a
fffff610
fffff9a0
ffffe33a
fffff1e6
fffff666
000000f5
fffff3c7
fffff95c
fffff028
00000236
00000581
00000534
00000029
ffffec13
fffff7fc
fffffabc
fffffac9
000000f8
0000126f
00000a80
fffff33b
000008c6
00000847
fffff594
00000af8
fffffde8
ffffedbe
000005da
000002cc
fffffd07
ffffff7d
fffff6ae
000007df
ffffffaa
00000237
00000496
fffff10b
fffff46a
ffffe36a
0000074c
fffff054
000001b7
000004cc
000007ca
fffff06f
ffffff28
00001599
0000162a
00000cc4
0000045c
fffff2ff
0000094a
fffffdf0
00000739
fffff7ef
fffffdb1
000001ad
000002d3
000005d5
fffff7e8
ffffedf6
00001470
00001fa7
0000058a
ffffee60
fffff5cb
00000679
00001146
fffff04c
fffffe62
00000289
00000b2e
fffffb8f
ffffebc8
00000808
00000e8b
fffffeef
0000053a
fffff9d1
fffff4fd
00000d28
00000507
0000063f
00001300
fffff24c
fffff8b2
0000006e
fffff599
000005c2
fffff8f8
ffffef79
fffffed3
0000009a
00000bd9
00000546
000005c7
0000040b
fffffd87
fffff6bd
000003bc
fffffbb1
000015d9
0000115b
0000082f
000004e4
fffffed3
ffffef94
fffffd0f
0000011f
0000025a
000004e4
00000a51
fffff2e3
fffff096
0000097f
fffffe69
ffffee68
fffff273
fffff43e
fffff88e
ffffffea
00001cd4
0000012b
0000081d
ffffea7f
fffffa5b
00000fdd
00000533
ffffc740
000008b7
000018cd
ffffe630
0000139a
ffffdc0d
00000c07
ffffff88
ffffe0ca
00000430
00000a21
fffffe2a
fffffee8
ffffefc9
ffffda06
fffff956
000004c6
fffffc2c
ffffd6cb
ffffde81
ffffeb2e
ffffe51d
fffffc90
00000389
ffffec99
000009be
000007a6
fffff8e0
fffffdc4
ffffe6ca
fffffbb4
00000016
00000217
000004df
0000034c
fffffc2d
00000253
000008a9
fffff74c
fffff737
ffffea71
ffffe059
ffffec8e
ffffdfa7
ffffeb68
ffffea04
ffffe5aa
ffffe568
ffffeafa
ffffdfb7
fffffd30
fffffe29
000008fe
fffff712
0000184f
fffffaf3
fffff4a5
fffff326
ffffe992
000013c6
00001185
00000800
fffff527
000016f2
fffff8db
fffff358
000003d1
fffff026
fffffdb5
ffffe6b7
ffffe014
ffffe073
ffffcfca
ffffe46e
fffff41d
ffffedca
ffffed96
ffffe6a2
fffff800
000003f3
ffffff4a
0000003d
fffff596
00000aec
ffffd779
000004f2
00002137
ffffec64
fffffc90
00000010
fffff9ba
00000b0a
fffffe25
fffff295
fffff5dc
ffffe480
0000079b
ffffe50c
ffffe905
ffffd447
ffffe532
fffff986
ffffd4d5
ffffc96d
ffffebef
00000139
fffff559
fffff48b
ffffe0b4
0000042c
000007f3
ffffe8d0
00000ea8
000009e6
00000e96
0000076a
000007cf
00000666
000009f6
ffffe5b0
ffffe29d
ffffe748
ffffe949
ffffea7f
ffffe7ff
fffffc97
00000055
ffffe725
fffff0de
ffffdf84
ffffe598
ffffeadc
ffffbf6b
00000edc
fffffc2f
fffff29a
0000146d
fffff8e3
0000013b
fffff9a3
00001558
fffffea4
000001e1
00000f6e
00000736
ffffff96
00000ad9
00001b9a
fffffaf4
fffff372
ffffec5f
fffff8d2
ffffe4ff
ffffeeda
ffffe168
ffffe447
ffffea39
ffffea99
fffffe28
fffff089
ffffe164
ffffe4ca
000006f4
000007b9
fffffbf3
fffff6ad
00000d6b
fffff320
00000511
00001d63
0000029e
fffff5de
0000050a
fffff88c
ffffe99b
000003b7
000003eb
ffffeb85
ffffe650
ffffe007
ffffeff0
ffffee62
ffffe9f5
00000bc6
fffff5bf
fffff3aa
fffff1e1
ffffef38
ffffe3d4
ffffefc2
fffff1ba
fffffced
ffffff0d
fffff85c
ffffee4a
000001dc
fffffd5b
ffffe78f
0000068b
00000c64
00001c2a
fffff682
fffff371
ffffe8df
fffff79a
fffff2aa
ffffe2e7
ffffed6a
ffffd9a3
000002a7
ffffec0f
fffff1ca
ffffdca7
ffffdef1
ffffe0ab
ffffe39e
ffffec3e
fffffcfe
fffffd5d
00000609
00000e13
0000061a
ffffff63
00000d07
00000dde
00000863
ffffed2f
fffff512
fffff76f
000004c3
fffff877
000002b6
000003f1
00000063
ffffff56
ffffe791
fffff796
ffffe5d4
ffffd734
ffffe459
fffff399
ffffe642
fffffb6f
ffffe4f2
00000766
fffff2b0
fffff7fa
ffffeb60
00000a6b
fffff834
fffff77e
0000108f
00000efa
00000ea3
fffffb50
ffffff54
fffffa37
000004a3
00000bfc
fffff69f
0000091f
fffffa2a
ffffee31
fffffafb
000000ad
fffffe30
ffffef09
ffffdcd9
ffffd953
ffffe58e
fffff7f3
ffffecc5
fffff511
fffff488
fffff2bb
fffff990
fffffd03
000014b4
fffffcb6
000000ab
fffff4d0
00000944
000011ab
00001500
000000e3
00000270
fffff43d
fffff868
fffff413
ffffeec0
ffffeff9
fffff0ae
ffffdfca
ffffdb10
fffff2e7
00000085
ffffd43c
ffffd5f0
ffffda01
ffffec40
fffffb63
fffffa91
fffff741
00000165
fffff250
fffffb08
ffffffb1
ffffeb78
fffff0fb
fffff180
000009e1
00000322
00000829
ffffe61d
ffffe168
fffffa7c
ffffcd88
0000001e
ffffd695
fffff73f
ffffdd1b
fffff265
00000f5a
ffffcc25
fffff867
ffffd7aa
fffff081
ffffe7a3
fffff03e
ffffe960
00000097
ffffe72a
00000bcc
fffff7b8
ffffedf9
00001496
ffffff20
000018aa
00000fcb
fffff5a0
ffffff2f
00000127
00000acf
fffffb02
fffff7a2
ffffeee2
ffffef56
000001b0
ffffed68
ffffe71b
ffffe3b4
ffffe80b
ffffdf6d
ffffe700
fffffe2d
ffffe7d4
fffff823
ffffd4a2
fffffbf8
fffff767
fffff6e3
000000e9
fffff9fd
ffffe47d
00000bea
00000324
fffffbf1
fffff372
ffffed03
000002af
00001091
fffffa1a
ffffe49f
fffff6f4
fffff1b6
fffffdd6
fffff882
ffffc985
fffff54d
ffffe116
ffffdd75
ffffed05
fffff0de
ffffd6e4
fffff7b9
fffffd97
fffff399
ffffeed0
fffff1a8
00000bd6
ffffecce
00000db6
fffffdd7
fffffec3
ffffe9ea
fffffdb9
00000710
ffffedf7
00000153
fffff764
ffffedf1
000000fa
ffffd6b2
fffff601
000005fb
00000138
fffff177
ffffe942
ffffe57d
ffffe789
ffffefd9
ffffe027
fffff80d
00000e2f
fffff44d
ffffe9e6
ffffeca5
00000927
ffffff0e
00000b50
fffff917
00000abd
fffffdf4
fffff5ff
fffffa00
ffffee59
00001562
fffff750
fffffe22
fffff02c
ffffe7e7
ffffedff
fffff8d5
ffffe16e
ffffdc9a
ffffe8ef
ffffef08
fffffcf3
ffffeb8d
fffff274
fffff708
ffffe5e8
ffffebb6
ffffeee0
ffffee34
00000b47
000003a2
00000103
ffffde79
00001a94
fffff470
00001a2e
ffffecb0
fffff31e
ffffdf59
fffffcb7
ffffe677
ffffe5e1
ffffde78
fffff53b
ffffeec6
fffffbbc
ffffda81
ffffe8a3
ffffd852
ffffe419
ffffe257
fffff3bd
ffffff6a
0000059e
fffff17f
00000db3
ffffffbe
fffffc7b
fffff6bc
fffff8bb
00001687
000003fa
00000242
fffffc96
00001f59
00001093
fffff3cc
fffff62c
fffff2e1
fffff553
ffffe6b0
ffffeffc
fffff863
ffffd44e
ffffda2c
ffffe5cc
ffffe84d
00000830
fffffc7c
00000245
fffff42c
fffff764
ffffebac
00000b44
00000671
00001099
fffffd35
fffffe26
00000233
00000b88
ffffecfd
00000980
ffffffbe
fffff353
ffffe5b4
fffffc23
00000b95
00000b26
fffff6b0
0000076a
ffffeb7c
fffffb7e
ffffebe9
ffffed84
ffffec0d
ffffdac0
00000761
fffff16f
ffffef9e
ffffed58
fffffb70
000015bc
00001ae0
ffffea76
fffffb66
fffff29f
00000cc7
000003b5
fffff7c5
000000f0
fffffa11
000015a7
00000795
00000958
ffffdda1
fffffd7f
00001643
00000914
ffffe062
fffff643
ffffeb53
000011ea
ffffff4d
fffff037
fffffba3
ffffdc7b
ffffede2
fffffc77
00000674
ffffe41f
fffffaff
00000d0a
ffffed3b
000002f7
000000da
0000162b
fffffd06
fffffdc8
00000b0d
ffffeed6
fffffd2a
fffff9cc
fffffd31
0000089c
00000386
fffff286
ffffff34
00001155
fffff424
000000c7
fffffc7a
fffffd94
ffffe976
00001184
fffff1f5
0000084e
fffff4f9
fffff7c5
00000faa
00000cd6
000002b3
000009d7
fffffc45
ffffffe4
fffff772
00000bb1
fffff708
0000132e
fffffbdd
00000013
00000922
ffffff4e
fffffb6b
ffffff14
00000b0b
fffff744
fffffe4e
ffffffc5
00000a81
fffffe56
000017b5
fffffebf
fffffd5a
fffffdfd
ffffeee5
fffff28e
fffff91f
00000eb0
ffffff92
fffff9bc
00000fdc
0000140f
0000103b
fffff4f8
fffff999
00001774
0000031d
fffffc84
000008e8
00000cca
fffff8d5
0000032f
00000c0e
fffff198
000000e6
fffff1b4
fffff330
fffff8a3
00000619
fffffbc8
fffff795
000000ab
fffff125
00000587
00000ea1
fffffefa
fffffd61
000004d4
ffffe5c6
000004d5
000029db
fffffc07
fffffbe3
000005b9
00000eb1
000008b9
ffffe231
0000056b
00001c72
0000080c
fffff112
000003a5
ffffef71
00000ff1
fffff3a4
000000f6
fffff4e9
fffff8ef
00001337
00000156
fffff8c5
fffff131
ffffe7cd
ffffefd2
00000173
00000cad
fffff8c1
0000144f
fffff6b9
fffffcec
fffff20b
00000ccf
00001b1f
ffffe938
fffffb84
00001056
ffffed44
0000074b
00000fc9
000000fc
00000716
000016bf
0000192c
fffffeef
fffff8fb
fffff413
00000c9b
ffffee3d
fffffcb9
00000153
fffff97f
0000039e
00002129
fffffe6e
fffffa5f
00000d21
00000319
0000129c
00000221
fffffcc9
ffffe8ee
ffffeb0e
ffffe83f
000004c1
ffffed36
00000f2a
00000037
fffffcc8
fffff516
00000860
fffff5f7
fffff25b
00000dc5
0000027d
fffffbc5
00000802
00000002
000004e3
fffff56b
00001ac3
fffff881
0000141f
fffffd8f
00000a70
0000097e
00000ed4
fffff521
00000de5
000017d4
fffffc95
00000055
fffff7d0
fffff924
000013cc
fffff1af
fffff338
000013d9
0000063a
0000181c
fffff5a0
fffffdea
fffff4b7
00000081
ffffe8d3
0000091f
00000408
ffffff28
fffffaea
fffff46e
00000969
fffff0dc
0000069e
00001ad3
00001335
ffffec89
fffff905
00000555
fffffef2
ffffed1e
000002c2
fffffbce
000013b1
fffff75d
000007a0
ffffe712
ffffed9a
000003f0
0000068d
ffffed56
fffffbbc
ffffebb0
fffffc60
00000994
fffff96c
fffffc74
fffff197
fffff798
000016ba
000000f1
fffff30a
fffffbee
ffffeb57
fffff2d8
0000117b
fffffda5
000017b1
fffffcc4
fffffd63
000002b3
ffffd6f9
fffff90f
fffff30b
0000050f
fffffc74
ffffe0c1
fffffb3d
ffffe94e
ffffe545
fffff5e9
fffff3ba
00000ca1
ffffff21
fffffffb
00000bb8
00000e16
00000a18
0000125a
000007df
0000022b
00001000
fffffead
ffffff98
000014bd
0000132a
fffffa07
fffff34c
00000d42
00000211
fffff78f
ffffeb3c
fffff188
ffffec31
ffffe02d
ffffe68d
ffffea97
ffffe5d8
fffffa6f
00000158
00000024
fffff44a
000005a5
00000061
fffff01e
00000892
000001da
00002188
000012d5
00000920
000002f3
0000006b
fffff0ce
ffffe623
ffffeccd
fffff5b8
ffffdd78
ffffedac
ffffee11
ffffebe1
ffffe1f5
ffffe313
fffffc54
ffffedc9
ffffe09a
ffffe9c8
ffffee64
ffffe4c5
ffffe7e3
000002bd
fffff525
fffff0b0
ffffff89
00000131
ffffe676
ffffff78
00000b34
000005ba
00001c6c
00000dc5
00000ff4
00001f71
ffffff43
fffff76d
0000016f
ffffea58
fffff026
ffffe1f9
ffffec6f
ffffdf2b
ffffe097
fffff106
ffffeb52
ffffd468
ffffdba6
ffffdfda
ffffe428
fffff928
fffffc11
00000cf8
00000918
00000da7
000007db
000002b5
00000e29
00000bc1
00000467
00000eb7
ffffdd9e
fffff46b
ffffefa3
00000252
000005cd
ffffddeb
ffffffa9
ffffd9ed
ffffdc1b
ffffe8f1
ffffec86
ffffdea7
fffff734
fffff6f7
fffffbe8
ffffebb4
ffffee94
fffff296
00000fc8
ffffdb75
fffff380
ffffffff
fffff1f3
fffffca9
fffffe51
fffff75c
00000076
00000601
fffff878
fffff0f0
fffff349
fffff307
ffffdcdf
fffff8e9
ffffe5b9
fffff94f
fffff3dc
ffffff7d
ffffe6ec
ffffecc0
ffffdd03
ffffe486
fffffa57
0000023a
ffffe26b
ffffee7e
fffffa91
00000834
ffffe93d
ffffeb3e
00000654
ffffe6cd
fffffa2f
000001fe
00000512
fffffc59
fffff67f
000001d7
fffff8c8
ffffe962
fffff41e
fffff1dc
fffffc09
fffff0a2
fffff9d4
ffffeb35
ffffedc0
ffffed87
ffffea15
ffffdabc
fffff7b5
fffffb43
fffff0e8
ffffffb0
fffffe11
00000932
ffffee94
fffffe16
ffffff3f
00000810
fffff7db
ffffdf96
fffff230
fffffde6
fffffc5e
00000ec7
fffffb75
fffff3aa
fffff2ec
fffff98d
ffffe441
ffffec84
ffffe31b
000004d6
fffff4c9
ffffe2cb
ffffe993
ffffee5b
ffffe869
ffffecfc
ffffef6e
ffffffb9
fffff6fb
fffff98d
ffffee97
000000fc
fffffda6
fffffbd7
00000290
0000098a
00000992
000006bc
fffff938
fffff208
ffffe6da
ffffec22
fffff2c2
ffffe1a0
ffffee25
ffffe30d
ffffdb70
fffff94e
ffffe54e
ffffdf5d
ffffde9f
fffff1bb
00000306
fffff0c9
fffff606
000008bb
ffffe4c7
00001727
00001f76
ffffdd00
fffffebd
fffff6b4
fffffc93
fffffa94
00000b01
fffffe49
fffff182
fffff77c
fffff9b9
ffffe116
ffffd93c
00000491
ffffe471
ffffe91c
ffffe465
fffff10b
fffffe4b
fffff1f9
ffffd9ab
ffffda9a
ffffec50
fffff3ab
ffffe4bc
00000592
ffffee75
00001028
00001755
fffffcc7
000005ad
fffff012
0000080f
fffff98e
fffff2a7
fffffbf2
fffff739
fffff3e8
fffffd39
ffffe43f
000002a8
ffffd742
fffffde7
ffffdb6b
ffffe84b
ffffe0ca
ffffddfe
fffff00b
fffffcfb
fffffb47
ffffe98a
fffff91a
fffff065
ffffeef5
ffffec49
fffff6f8
00000213
ffffe73c
ffffff66
0000139a
00000e82
fffff865
ffffee18
00000439
ffffdf00
00000705
fffff109
0000077d
ffffd6c9
fffff5f8
ffffe88f
ffffe6b8
ffffda0e
fffff0a2
ffffec96
fffff8e3
fffff1ab
ffffde94
ffffdd7d
ffffdfc0
00000a1f
fffff0f7
00000eaa
000003f9
00000200
fffffbff
0000088a
ffffffcd
fffffb3a
000008f2
fffffcdb
fffff2e0
000003c3
fffff7ee
fffffb1e
ffffebe1
ffffe212
00000665
000004e1
fffffc0a
ffffe898
ffffe548
fffff65b
ffffdeab
ffffdc27
fffffba9
ffffe788
000004c5
ffffe3c6
000000a8
00001767
fffffe90
fffff9b3
fffff0da
00000dfc
fffff60b
fffffec6
ffffeffa
000012ba
00000c57
fffffa9f
ffffea83
000008c1
ffffeeb8
ffffe5e6
ffffdec6
ffffed0c
ffffddf2
ffffe5d2
fffff601
ffffe921
fffff0e1
ffffde92
ffffe689
fffffec8
ffffe925
fffffaef
ffffe682
0000120f
fffff946
00000be4
fffffe5b
000007e2
000008ad
fffffa26
00000e41
fffff643
00000851
fffff589
fffffc90
ffffee6e
fffff336
ffffe552
fffff773
fffff3da
ffffe8fa
ffffea81
ffffed5b
ffffe82b
ffffef3d
ffffdf7c
00000456
fffff53d
fffff6e6
00000aba
ffffe61b
ffffe008
fffffbbd
ffffee00
fffffceb
000002a6
00000be7
fffff148
00000562
00000053
000000c4
fffff525
000008db
fffff4da
000006f0
ffffe472
fffff971
ffffefba
ffffe810
fffff123
ffffe824
ffffcee4
ffffcb0d
fffffb98
fffff57a
00000426
fffff952
ffffef0b
fffffc82
00000201
fffff3f9
00001534
00001cf1
0000062e
ffffffdc
ffffef42
00001418
000000c9
fffff876
0000011d
fffff234
fffffa3b
ffffe3a3
fffffbd9
ffffe7fb
fffff742
ffffe55b
ffffe5be
ffffdd91
fffffcca
ffffe678
ffffe5f7
ffffe901
fffff493
ffffe767
fffffddd
00000c8c
fffffc3a
fffffdc5
000001ff
fffffe57
fffff2ad
ffffff88
00000cda
fffff263
fffffae5
ffffeb7b
00000648
fffff719
ffffeced
fffff6d1
ffffe096
ffffe000
ffffd93d
ffffdbf0
fffffa9b
ffffe5be
fffff874
ffffe77a
fffff911
ffffe3a0
fffff8df
fffffe6c
00001d80
000008d7
fffff86c
000008d4
00001b95
ffffeae9
fffff51b
fffffcf0
fffffa9b
fffffbaf
ffffeea8
00000eee
ffffe89b
fffff406
000003dd
fffff5e7
ffffe57f
ffffde57
ffffecfd
ffffe339
fffff094
ffffe095
0000006d
fffff911
fffff986
00000825
fffff51d
fffff40b
fffff7f7
fffffd4e
fffffe85
fffff532
ffffe5d2
fffff8be
000004a7
000001c3
00000f83
00001949
000008b8
00000f11
000006d2
000010e0
00001035
00000429
ffffffee
fffff3bd
fffff585
fffff277
0000001b
ffffeea7
fffff867
ffffdda5
00001166
fffff665
000001e7
000010aa
000001bc
0000122b
ffffefba
00001efb
00000e0d
000002b4
0000126d
fffff0e4
fffffc45
000012ad
ffffe7db
00000738
000006bc
00001925
ffffeb01
000013c9
fffff726
fffff832
ffffed25
ffffeec2
000002af
ffffef2d
00000822
fffff769
ffffef85
fffff600
0000018b
fffffc4f
0000002b
00000855
00000dd4
fffffbfa
fffff280
000000fc
00000616
ffffed1d
fffff47c
fffff6b3
fffffd4f
fffff623
00000917
ffffeb5c
ffffeb76
fffffb2f
fffffd3c
ffffecc9
fffff775
fffff93c
fffff97f
000000f2
fffff69e
00001279
00000616
fffff4f3
0000008e
00000168
00000fa0
fffff833
000009e8
0000008b
00001349
000010b1
0000028c
fffffc9c
0000068d
fffffdab
000015ba
00000104
fffffac0
fffffa0b
fffff04a
0000072a
fffff5a6
00000e91
ffffef37
00000113
00000e2c
ffffe3ed
00001a01
fffffa6b
000001c1
00000756
0000095b
0000038b
00000cdf
000006b2
000016c5
000006c1
00001967
00000ba7
ffffe8a7
00008998
ffff9835
0000286d
ffffeeda
00000d54
fffff342
0000078c
fffff360
00000f2e
00000040
00000c1a
ffffe405
fffffee5
0000054f
000002e4
00000c6d
fffffb45
000000a1
00000f46
ffffe289
0000079f
fffffbaf
fffff434
0000045a
00000fdf
00000d70
fffffe41
00000b53
00000b39
fffffedf
fffff70a
fffff7c9
00000ad5
ffffff74
fffff279
ffffea35
00000abc
fffff8e7
0000043d
00001006
ffffef0c
ffffff64
fffffdc5
000004e4
00000fe9
ffffeebc
00000756
00000d4f
fffffd91
fffffe36
00000568
00000475
00000788
00000742
fffff34e
00000cce
00000f16
00000268
ffffecae
fffffe84
00000282
fffff131
fffffb57
ffffedc2
000007ba
0000013d
ffffe9e7
0000047c
ffffffa7
0000072e
fffffb35
fffff505
fffff586
fffff878
ffffffa1
00000179
fffffd20
fffffa59
fffffb64
00002068
fffff607
fffff8c9
00002a97
00000572
ffffee28
00000ae5
fffff43c
00000bc1
fffffd43
fffffa44
000014ba
0000073f
00000bd1
000003e9
fffff7a0
00000507
00000eb4
00000291
0000162e
000008b5
000000c6
000000c3
fffffedc
ffffedf8
fffffe8c
00000333
fffffa81
00000445
0000003d
00000a01
00000893
00000229
ffffee52
00001727
fffffe2a
fffffef3
fffffb89
fffff976
000012e1
000010c1
000002d0
fffff9e8
000003ff
fffffcba
fffff9aa
fffffe86
fffff1d5
fffffeb2
00000271
00000114
fffff60c
00000656
fffff2ec
fffff69b
fffff9e7
fffff3de
00000ea3
fffff37b
fffff6f6
0000103b
fffff89f
fffffd91
fffff2e9
00000ab5
00000ae8
000008ef
000004dc
fffffe74
fffff535
fffff0d0
00000bf8
ffffffc5
ffffee94
fffff8d9
fffff4f1
ffffec1a
00000199
fffffb81
fffff93f
fffff35e
ffffef9e
fffff95e
fffffb39
fffff3eb
0000074d
fffffded
0000076c
fffffda2
fffff5d3
0000017a
ffffefaa
000006d9
fffff3e2
00000b1c
fffff89d
00000afc
fffff0e6
fffff309
ffffffdc
000001b2
000006e7
ffffedb9
fffffeea
ffffe50c
fffffc0b
ffffec2b
0000065e
ffffe75b
fffff917
00000592
ffffe99c
000000d7
000007e8
fffff553
fffff358
fffff9d4
fffff382
fffffeae
00000147
fffffbbc
00001524
fffff66a
00000fcd
ffffee8e
fffffd2c
0000068a
00000027
ffffea85
fffff7de
ffffe730
ffffdbed
ffffe763
fffff842
fffff6b7
fffffd18
00000495
ffffeb3f
00000339
ffffe98a
fffff204
0000182b
fffff8fb
fffff626
00000edf
fffff3be
fffffa32
00000fe3
ffffffd4
ffffeaf8
0000054f
fffff785
00000ff5
fffff1e0
ffffffbc
00000599
ffffe40b
ffffeec6
fffff592
ffffe133
ffffe502
ffffe24b
ffffee26
fffff49c
fffff7a9
fffff92f
fffff4e1
fffff330
fffffdd8
fffffc68
fffff830
000003e0
ffffe886
fffff68d
fffffc53
fffff4a0
000013fa
fffffe5c
fffffeb1
fffff5d5
fffffe61
ffffe9cc
fffff043
ffffe6cb
fffff2fe
ffffd3c3
ffffe399
fffffdb4
fffff2a5
fffffecc
0000061a
0000021f
fffff357
ffffe96c
00000449
ffffff08
000021e7
fffffc9b
00001825
fffffde7
00001142
000015f0
fffff2b8
fffff998
fffff1c6
ffffee9b
0000046e
fffff779
00000028
0000013a
ffffdc57
00000042
ffffed51
fffffa42
fffff546
fffffbc0
ffffeffe
ffffd896
fffff899
00000063
fffff1c1
fffff674
fffff4b2
ffffecf9
00000fd4
fffffb55
fffffab3
fffffa13
00000ff9
ffffff79
000000fc
fffffa32
00000530
00000ec0
0000025f
0000078b
000007dd
ffffe8b7
ffffe292
ffffee59
ffffe91b
ffffe31c
ffffd7b6
ffffe567
fffff0a5
fffff196
ffffea29
fffff8d1
fffff6dc
0000071d
fffff687
00000ccb
00000a4b
fffff02f
fffffecc
ffffefec
fffffe99
fffff65e
000004eb
ffffee8e
fffffddf
00000222
00000850
fffff967
ffffffe3
fffff617
00000456
ffffdf9d
ffffe364
0000157b
fffff11b
ffffde13
ffffe98c
ffffc9f2
ffffedcf
fffff908
ffffe6cc
fffff3a3
00000987
ffffee02
fffffa01
0000011c
fffff636
fffffc2e
ffffefa7
000002c5
fffffe10
0000071f
ffffffe9
fffffdce
fffff019
00000b09
fffff3c0
ffffecff
0000010c
ffffe9a6
ffffff34
00000034
fffff6fc
ffffe033
ffffcb87
ffffeecf
ffffe5af
ffffe169
ffffff77
ffffeb3f
fffffb90
00000cd6
fffffa03
000004bd
00000e03
000002b9
00001021
00000ea8
00000019
ffffe1c6
ffffef40
000006be
ffffef81
fffffed3
fffffd3c
000004db
ffffee28
ffffef94
ffffeedd
ffffedb7
ffffe267
fffff015
ffffd550
ffffe26e
ffffee85
ffffe8aa
fffff89b
fffff54c
00000603
00000711
00000ee4
fffffdb5
fffff7a5
00000fd2
00000838
fffff2c6
00000256
ffffe14e
fffff80a
00000a4a
fffffeb0
00000177
ffffd36f
fffff1f0
0000038e
00000072
fffffd62
ffffea11
ffffe766
ffffd65c
ffffe4e4
ffffd97f
ffffd7b8
ffffe449
00000078
ffffee64
000000d1
ffffffaf
fffff20d
00001017
ffffe2fe
fffff8c8
ffffff4a
000002fb
fffff69b
ffffe813
fffff5f5
fffff517
fffff8c7
00000aae
ffffe9f7
000003d8
0000023b
0000045f
ffffeb40
fffff52a
ffffe827
fffff034
ffffd9b9
ffffccaf
fffff3fe
fffff5f7
fffff30f
ffffe99a
00000b90
0000006c
00000b02
00000b3c
00001489
fffffbde
fffff78d
ffffeca1
00001412
00000534
000004fc
000023fb
00000a78
fffff0a9
fffffcfc
fffff53c
00000185
fffff7f6
ffffed6b
ffffdf6f
0000010c
ffffefce
ffffebd4
fffffc58
fffff2f5
fffff040
fffff79a
fffff3e0
000003e0
00000e10
00000251
fffffd72
0000117e
fffff9de
0000050c
0000055a
fffff81e
fffff54f
fffffa79
fffff660
fffff4cb
fffffdda
000008fc
000014ba
00000dd6
ffffdf0f
fffffffd
ffffe6cb
ffffef08
ffffec8d
fffff063
fffff5b4
fffff0fe
fffffdc6
fffff07c
000009d4
0000099f
000006cb
ffffe96b
00000da2
fffff7b3
00000939
fffff367
fffff0ad
0000198e
fffff3a4
00000e6d
fffffe36
0000005e
00000359
fffff268
0000004d
fffff800
0000022a
000008c3
fffff7c0
ffffd9b5
fffffaf3
fffffa21
ffffee8c
fffff720
fffff002
ffffe59d
000011b3
fffff904
fffffa9a
fffffb26
00000e7b
fffff8bf
ffffec01
fffff737
00001128
00000ac2
fffffcc6
000010de
0000054c
fffffe0d
fffff90c
000006a8
fffff31a
fffffe42
00000368
ffffe703
fffff483
ffffefa2
000000b9
ffffdcdb
ffffed73
ffffeb16
00000007
fffff8c7
00000f13
00000168
fffff993
000002f0
fffffba0
00000aff
ffffeec2
fffff559
000005e4
00000fd9
ffffe398
00001104
fffffe3b
ffffe944
ffffd45b
ffffe82f
fffffc38
fffff8e7
0000020c
fffff1bb
ffffec21
fffff467
fffff6ea
fffff856
ffffe940
000000b3
ffffefe4
ffffed1a
fffff02f
00000956
fffffb52
fffff78e
00000ccb
00001b9a
000002ae
00000ff4
00000d65
fffff82b
00000052
ffffeef8
fffffe23
fffffbd4
fffff96d
fffff0ac
fffff60e
fffffd01
fffff0d2
ffffde5e
ffffec6f
ffffde5e
fffff278
fffff629
fffff44b
ffffeb48
fffffa1f
fffff27c
ffffec44
00000446
000007ff
00000ca3
fffff81f
00000f2f
fffff999
00000873
fffff965
fffffd1b
ffffe0ae
fffffc25
000002da
fffffc4a
000018f2
fffff012
fffff44c
ffffec1f
ffffeb98
fffffb62
ffffffba
ffffe040
ffffe389
ffffe120
000002f6
000004c1
fffff702
ffffea61
ffffea28
fffffdc0
0000051d
ffffe540
fffffbba
000014e8
fffffd2f
00001343
00000864
fffff1fb
fffffc37
fffffe93
fffff4a6
fffff448
000013b4
fffff160
00000a53
fffff614
fffff962
fffffdf9
ffffeea8
fffffc2b
ffffdadd
fffffd83
ffffd983
fffff701
00000630
0000032e
ffffebb1
ffffeda9
fffff4e7
000001d6
ffffe5ac
ffffffd3
00000407
fffffc57
000006cb
000002e5
fffff8ff
ffffe6f6
000001b3
fffff387
fffff818
00000531
0000100a
fffffbe1
000003b3
ffffe8f9
fffffe51
fffffa90
00000bf9
fffff625
fffffb7f
00000bef
fffffcd2
ffffeea7
00001e22
fffff039
ffffff1c
00000476
00000372
fffffd8c
fffffd9c
fffffcf6
fffff192
00001bcd
fffffd28
000007b7
fffffba6
fffffb5d
fffff9f4
ffffeb86
fffffd00
fffff918
00000d19
ffffee6e
fffff7a2
fffff3bd
000011ee
fffff406
0000068e
00000bd3
fffffda1
ffffedf3
ffffedff
00000ad5
ffffefa9
0000050e
0000017b
000004e0
00000619
fffff3ed
fffff363
0000093e
fffff7dd
ffffdc71
00000863
fffff299
00000606
000011f7
fffffff9
00000bdd
000000da
00001412
fffff283
0000005d
0000088f
fffffd72
00000ea3
fffffa06
00001a43
00001adb
0000034d
00000716
00000f65
fffff0a6
ffffef09
0000103f
0000038b
fffffd12
ffffff7a
ffffe127
fffff8e1
fffff630
000000e7
000005eb
000000ef
0000094c
ffffe909
000002b4
00000823
0000101a
00001b63
ffffea1e
fffffafa
fffff667
0000023b
0000002c
fffffcf9
00000d49
fffff1c2
fffff28a
fffff2c2
fffffb57
fffff01d
ffffff5f
fffffddc
fffff5d5
00000b4c
ffffff3b
00000dbd
fffffd7a
ffffffb0
fffff8b9
ffffffe9
00000934
fffffaa9
000006ad
fffff575
000009cf
fffff879
00000afc
000000c4
000013a5
fffff146
ffffecf7
fffff800
ffffee12
ffffee19
00000806
fffffff1
fffff9cc
fffffaff
fffff847
00001557
fffff67d
ffffeee8
00000a4b
fffffd36
00001a5c
fffff931
00000aee
00000dfd
fffff93d
fffff65f
000009b8
00000787
ffffeda0
fffff12c
ffffded7
00000778
fffffc5f
fffffd7b
ffffe986
fffff149
fffff9a6
fffff727
0000016a
0000077a
00001d54
ffffffbc
00000e6c
fffff545
ffffea58
fffffb72
ffffeb57
00000031
fffff5e9
ffffe6b8
00001666
fffff8fa
ffffeab5
00000ba1
fffff6bf
00000e4d
fffff733
fffff8f9
0000033c
00000636
0000081f
fffffcec
0000047d
0000076c
00000173
fffffe08
ffffed94
00000798
00000073
fffffa9d
00001085
ffffed8a
00001542
ffffffb6
0000041b
fffffae4
ffffea71
fffffe28
00000436
00000899
fffffc9c
ffffe2ac
ffffeb23
000018aa
ffffee07
00000c27
ffffec50
fffff712
000001cc
ffffef40
00000e65
fffffb96
000001ac
fffff699
00000265
00001068
fffffc4a
000014b4
fffff812
000009e0
00000653
fffff22f
000002c4
00000017
fffff4ed
00000485
000001ca
fffffe99
fffffc90
fffffb1d
fffff598
fffff9bb
ffffeca6
000014c9
ffffe002
ffffe819
ffffe66a
0000058b
ffffdc90
fffff540
fffff1ed
fffff531
00000260
000005e0
fffff561
00000021
ffffe7de
0000013e
fffff5bb
fffffd97
ffffea35
0000053a
ffffe9f8
000000bc
ffffee54
fffff2e8
00000824
fffffe50
00000473
00000778
ffffe906
0000039d
ffffdab6
fffff073
ffffdb17
ffffd4c9
ffffea7e
fffff4b3
fffff912
fffff2b5
fffff539
fffffca4
fffffe07
000005b2
000002d1
00000ac6
ffffeaec
fffffe4c
ffffee18
00000389
000014ff
fffff805
fffffdb5
00000479
ffffdf97
fffff1cf
fffffa94
ffffcd24
ffffe2a0
fffff843
ffffee3f
ffffdf67
ffffe56a
ffffe4ba
ffffe924
ffffe091
ffffec1e
ffffe74f
000007e2
00000c27
00000c3e
fffff9b5
fffff3df
0000103f
00000700
0000043f
fffff7ca
00000566
fffff1b7
000005e3
00000d2f
00000f7e
0000031d
ffffe8e7
fffff7dd
00000b7f
ffffe1bb
ffffe3ed
fffff131
ffffe4e5
fffffff1
ffffde54
ffffddf9
fffff933
ffffdb16
ffffee7f
fffff73f
00000471
000002ac
00000499
fffffa46
00000f96
0000340b
000008ef
0000013c
ffffef16
fffff77b
fffffc86
fffff4f7
fffff823
00000d08
000007ed
fffff33d
ffffe31d
ffffff61
ffffe6bc
ffffd246
fffff00f
fffff5f2
ffffd146
ffffe34a
ffffe70a
fffff4cd
ffffeb0f
ffffeb47
ffffff93
fffff5c2
0000065b
fffff189
ffffee74
000009c0
00000344
00000bdf
fffff8fa
fffff56a
0000103b
ffffe8fa
00000777
000006b8
000000af
ffffed7a
ffffe643
ffffe8c1
ffffd8e9
ffffde46
fffff586
fffff5aa
ffffe16b
fffff618
fffff04b
fffffd56
fffff91c
00000374
ffffffc2
00000b40
ffffef00
fffffe67
ffffff7c
fffffcd8
000005bd
0000082a
000004f7
fffffd72
fffff5be
00000b34
fffffced
ffffe7b8
fffff1ed
ffffe108
fffff03c
ffffeb67
ffffe56a
000001cd
ffffdf2d
fffff2c5
000005ac
fffff603
ffffe88f
ffffdc63
ffffdfe8
fffff1e1
fffff45e
fffff6f3
fffffb4b
fffffea3
0000063e
ffffeffe
fffff72e
fffffdea
fffffd62
00001835
000002c2
ffffe986
ffffffe1
fffffabf
fffff057
ffffe3b8
00000515
ffffe139
fffff7f7
ffffed48
ffffec6b
fffff8d2
ffffec65
ffffdf79
fffff5fa
ffffe387
fffff659
ffffe904
fffff0d1
00000149
00000450
ffffe9da
00000669
fffff566
0000108c
fffffb71
fffff16c
000001d6
fffff4f1
00000e25
fffff9ba
fffff1ed
fffffa2c
ffffe675
ffffde55
fffff267
ffffdd1d
ffffd7e7
ffffec2c
ffffe60a
ffffd487
ffffe0da
ffffe000
000004e7
000000fd
fffff484
0000051f
ffffee65
fffff760
00000137
000005d7
fffffebd
00000335
00000102
fffffde0
fffffd07
fffffb30
000000b6
0000004e
fffff8da
ffffe33d
ffffe491
fffff07e
fffffaef
ffffe7e0
ffffdca0
ffffe37a
ffffd3a5
fffff785
ffffec95
ffffe1df
ffffeca4
ffffed2c
00000c46
fffffb68
00000171
00000763
fffff63b
0000027e
0000038c
ffffebe8
00000343
ffffff68
0000028a
000001b6
00000276
00000e14
ffffe882
ffffee44
fffff75c
ffffefc0
ffffebe6
000005a9
ffffe6eb
ffffecb0
ffffd98e
ffffd669
ffffe28e
fffff24b
fffff3d5
fffffa4e
fffffa24
fffffa33
fffffc32
00000902
00000ad3
fffff2f1
000009da
fffff796
00000610
fffffd7b
000014c0
fffffa9f
0000031b
0000045a
ffffef54
fffff665
ffffec62
ffffe70d
ffffe6d5
fffff8e8
ffffdce5
ffffe82f
ffffe480
ffffce70
ffffe9cb
ffffd685
fffff723
ffffee84
fffffe10
ffffee2a
fffffffe
00000b74
fffff5ad
fffff81d
000005e0
00000634
ffffe087
00001a01
00000689
00000742
fffffe1a
ffffe415
ffffff73
ffffef3a
fffff989
ffffed62
fffff3ef
ffffe565
fffff588
ffffd451
ffffff28
0000002f
fffff8ee
fffff21f
ffffec59
000003cf
fffffa3f
ffffea03
00001260
00000df9
ffffff34
fffff01c
fffff869
ffffe874
00000c38
ffffeb35
00000261
fffff1b7
ffffeba3
ffffff4e
fffff330
00000038
ffffe482
ffffeb8e
ffffd71b
ffffd663
00000456
000002ab
ffffe85f
ffffda2c
ffffe0e7
fffff11d
ffffe7a6
fffff96c
fffffaee
fffff68d
fffff85a
0000033e
fffff27c
000005ca
fffff9e1
000001a6
000011e5
fffffdd2
000009c0
ffffe60f
fffff6d6
fffff9da
00000f17
ffffdce5
fffff4c1
00000831
ffffe9d7
ffffecef
ffffee07
ffffe889
fffff8a6
ffffeec4
fffffc0d
ffffe5d8
ffffe571
fffff3e4
ffffecdc
000004ab
fffffaa6
fffff6d1
00000647
fffff130
000009f3
fffff9d1
00000efd
fffffaf0
000005d9
ffffffc7
000004e2
fffff78e
ffffe0a2
00000030
ffffefa9
fffff589
fffff5b0
ffffe27d
ffffda8a
ffffea10
ffffe348
fffff857
ffffecc4
fffff9e0
fffff4be
fffffa93
fffffb1d
00000382
00000fd1
fffffef5
000006c0
00000095
0000019b
00001649
00000f8a
00000101
00000159
fffff237
fffff6b9
fffff7f0
fffffcf5
fffff9f7
ffffe068
fffff5a9
ffffe512
ffffd8a4
fffff287
fffff39c
ffffe8d1
fffff850
fffff538
fffffbf0
fffff8b1
ffffe994
00001aef
00000ef7
fffff925
fffff2b9
0000066c
fffffc5f
00000444
0000099d
fffff8ad
fffff18c
000003f6
fffff44c
fffffa67
ffffe11b
ffffec0b
fffff924
fffff91f
ffffe50b
ffffdb9d
ffffe3cf
ffffe59d
ffffe561
ffffe0ae
ffffee83
ffffff0a
fffff0f5
ffffdfcb
ffffff63
000019c5
ffffef40
ffffffb6
fffffd04
0000012c
0000027e
00000ebd
00000119
00001084
fffffe77
fffffb0f
fffff573
ffffe4b5
fffffbf7
00000e65
fffff5ef
fffff888
ffffe94b
ffffeb1c
fffff4a7
fffffe9c
fffff842
fffff43e
ffffee4c
fffff565
ffffea91
ffffe719
ffffef0f
0000004b
fffffc8d
ffffeccf
ffffff79
fffffbde
fffff0d5
fffffb37
fffffbda
fffff807
00000bfb
ffffe7a2
ffffe718
0000004a
ffffffb7
ffffff86
fffff0f4
ffffea48
fffff665
ffffef5d
000007da
fffff049
fffff55d
0000172b
fffff81c
000003f9
00000319
00000651
000001eb
0000005a
000001a4
fffff87a
00000437
00001a3b
00000fa7
000003ee
00000b11
fffff4c3
fffffca2
00000c40
00001334
fffff5e2
fffff96e
00001bae
00000057
000015d2
fffffef6
fffffe5a
fffff75b
000008a9
00000ea6
fffff0ab
fffffb18
00000b9f
fffffe03
fffff9bb
00000dea
00000e93
fffffa3e
000002b4
fffff05c
fffff46c
0000019b
00000068
fffff380
fffff6be
fffff23b
000005e1
ffffe689
fffff2df
ffffe807
0000054e
ffffe84e
fffffeb7
000012af
00001352
ffffe7a4
00000352
fffff2f8
fffff044
fffffe1d
00000feb
00000856
fffff72e
00000951
ffffe2e8
fffff63a
fffff555
00000103
fffffd61
fffffe2c
fffffdbe
0000004a
000006fc
000001ee
fffffc53
00000532
00000aae
fffff8cc
ffffff34
00000f0c
fffff088
00001566
ffffee4f
fffffb8a
fffff3d4
00001c53
fffff968
fffff971
fffffb23
0000012e
fffffbb8
fffffe48
ffffd258
000000b9
0000003b
00000d6e
000010ed
fffffd93
00000a8e
ffffece5
00000df4
fffff76a
ffffeec8
fffffd3f
00000911
00000075
000019bf
ffffe91e
00000ac7
fffff791
000002ea
000002cd
0000088e
0000033e
fffff671
00000b62
00001664
fffff874
ffffe845
00000675
fffffbb8
fffffe4e
00000731
fffffa19
fffffc86
fffffeb5
00001301
00000064
fffff006
fffff08a
000001cd
fffff166
ffffebcd
00000838
000008d8
fffffb38
000003c5
00000266
000007c8
000007cb
ffffde48
fffffcde
000006ad
fffffaa9
0000006d
000009ad
00000105
00001379
00000e8f
fffffe77
fffffd70
ffffdb25
fffffbc7
ffffee81
000002dc
000001fa
000008ff
0000120f
ffffffa9
00001d7b
000002ff
ffffef0e
fffff8b7
fffffb28
000007ca
fffff3d9
fffffbf4
fffffd95
fffff9bd
00000a4d
000007e4
00000e23
fffffa4a
00000ee4
ffffeebf
ffffee02
fffff032
0000000d
00000f87
fffff835
fffff9d6
fffffd35
00000768
fffff9d3
fffff91a
ffffee9b
fffff89c
00000f36
00000121
fffff65c
00000fde
fffff873
00001287
0000125d
00000171
ffffec95
00001c6d
000002ce
fffff794
0000068d
0000043b
00000d65
fffff657
0000041b
fffff0ef
00000877
ffffff9b
00000398
fffffe1c
fffffcc1
fffff4c6
00000a38
00001343
fffff8cd
00000727
0000058d
fffffffd
ffffec1e
ffffeefb
fffff579
ffffe461
00001373
000005df
ffffffe1
ffffe122
ffffdf85
fffff180
00000ac4
ffffe7e1
00000061
fffff073
fffff990
00000b2a
fffff61e
ffffef5a
00000ca9
00000091
00000e1b
fffff724
00001230
0000038a
0000059e
000001a9
fffff95b
ffffffe0
fffffa16
00000c07
fffffd20
ffffeeb3
ffffead6
ffffe8ef
0000024c
ffffe56b
fffff1ba
ffffecae
ffffe914
ffffee77
fffff1ec
ffffcf13
fffff1c1
fffffd41
000009bf
00000db2
ffffeac8
fffffb71
ffffebb6
000013a6
00000d19
00000488
00000224
000011c2
00000fa3
00000f1d
000005f1
fffffbbe
00000b44
00000b03
fffff93e
fffff254
ffffff78
00000155
ffffe3da
ffffeb2e
fffff1b2
fffff147
ffffe7ff
0000077c
fffff866
fffffa04
00000b0c
fffff2bc
fffffd7f
ffffefd8
fffffda5
ffffecb6
000009aa
0000056b
fffffc60
fffffe7f
0000083e
ffffeee7
0000007a
00000724
ffffe5a8
0000021a
ffffde4e
ffffefa8
ffffd9e1
fffff83b
ffffdba3
ffffdc27
fffff3ee
ffffe9a9
ffffdacd
fffff40f
ffffd41d
ffffe5a2
ffffeed2
000007b0
00000f40
00000dd2
fffffdc0
ffffe095
0000050d
000012ff
00000fd9
0000052b
ffffedbd
fffff64e
000015f1
ffffeaf3
ffffea15
fffffcb5
ffffe8fa
ffffdc32
fffff617
ffffe80b
ffffe5b2
ffffe1f0
00000963
ffffeb6d
fffff949
fffff35c
ffffe42f
ffffedc2
00000de3
00001190
ffffe707
00000694
fffffe4f
fffff2a1
00000361
ffffee7f
fffff9d6
fffff4d4
fffff641
fffffc06
fffff1e9
00001080
fffffe00
00000741
ffffec3e
ffffddf4
fffff619
ffffdc92
ffffebae
fffffa91
ffffe013
fffff08c
ffffe8ac
fffff5a5
fffff77a
0000067e
fffffb46
fffff3b6
00001b22
ffffec24
ffffed7e
0000074b
00001503
00000265
00000cd2
ffffe5f8
fffff769
ffffe42e
0000070f
ffffe853
ffffe66e
fffff471
fffffa2b
ffffe4fc
ffffe968
ffffefc7
fffff21d
ffffe777
fffff6aa
ffffeacb
ffffecd9
ffffec6c
ffffe23f
000001e1
fffffe8c
fffff94f
fffffcaa
fffff712
00000b76
ffffeda9
fffff327
fffffbb6
000014da
00000d75
ffffe997
00000c45
00000b5f
ffffedb2
ffffd614
ffffebf2
fffffc14
fffffd8f
ffffdd79
000006ca
ffffdb09
fffff09a
ffffe573
ffffee93
fffff4c7
fffff86d
ffffe4af
00000398
0000059e
ffffeb52
ffffe56a
00000d62
fffffda4
ffffef61
fffffd4f
000004b0
fffffeee
ffffea8e
000016e4
000006d6
fffff588
fffff665
fffffa76
ffffdf63
fffff129
ffffd7a4
ffffe853
ffffe11c
ffffe174
00000293
ffffe5ad
ffffe484
ffffd0c3
ffffea53
fffffc47
fffffb79
ffffe2c0
0000036f
000004ce
00001076
fffff782
ffffe301
fffff31d
fffff1cf
0000097e
ffffdb86
fffff7f4
00000d24
fffff7ac
0000017f
ffffde4e
ffffd86d
fffffd20
ffffeaf9
ffffec13
ffffda5e
ffffe8e8
ffffd5af
ffffeb6d
0000061d
fffff351
ffffe985
ffffd5f9
ffffe2c3
000012a9
fffff314
fffffb1f
00000855
00001328
fffffd6b
fffffac5
000000ec
fffff7df
fffff72b
00000290
fffffc2e
000011e0
fffff888
fffffdea
ffffdf8f
ffffec30
ffffdedb
ffffead7
ffffeaea
ffffe081
fffffcd4
fffff329
fffff4fd
fffff4d2
00000631
ffffe2a1
00000bc8
fffff2fd
fffff870
00000749
00000fb8
fffff113
fffff95f
00000143
fffffd96
00000b0a
00002b0b
000001d2
fffff178
ffffe6da
fffff04d
ffffe2bf
fffff2a5
ffffeb58
ffffdc0c
fffffa95
ffffd962
ffffe154
ffffedf0
fffff43d
fffff90b
fffff0a8
fffff8b2
ffffeb9d
00000622
00000ab3
000013c2
ffffea13
fffff414
00000a99
ffffddb7
0000065d
00000db4
fffff882
fffff963
ffffefa9
fffff41c
fffff352
ffffeef5
ffffeb23
ffffeda2
ffffe54c
fffffeb6
ffffe15a
ffffedb8
ffffe235
ffffe5bf
ffffdae3
ffffdb65
ffffd940
ffffe979
0000003b
ffffe3d5
fffff6d3
ffffef77
fffffd51
00000e05
fffffa30
ffffff62
000012d1
000005ec
fffff61e
00000193
fffff3b2
00000357
0000035c
ffffe8de
fffff730
ffffee65
fffff5f6
fffff837
fffff3f0
ffffe80a
fffff678
ffffe447
ffffe154
ffffc90c
ffffecbb
ffffe259
fffff790
ffffe0bf
fffff69d
000006ed
fffff401
000005be
fffff8bf
ffffff90
000007b2
00000c52
00000122
fffff3ba
fffff760
0000057a
ffffed70
fffff5d4
fffff13e
fffff3a0
ffffe5af
ffffda5c
fffff59e
fffff83e
ffffd525
fffff244
fffffb4e
fffff796
ffffe7f5
ffffe249
fffff41d
fffffd01
ffffff8e
fffffe8f
fffff3ae
000005d8
0000060a
00000293
0000016f
000015b6
fffff6f7
00000c3b
fffff264
000009b7
000007fa
fffff0b7
00000a22
fffff8b2
ffffe707
ffffeb63
fffff8cc
fffff47d
ffffdbd7
ffffe8c0
fffff029
ffffe9e0
00000e34
fffff1da
fffff07f
000007ff
fffffa98
00000e59
ffffeb88
fffff9f6
00000d8a
0000144a
fffff600
fffff47f
000005f6
fffff383
fffff9d4
00000554
ffffeec4
ffffd997
ffffe03e
ffffeee5
ffffd8e4
ffffe9d9
ffffd4c9
fffff879
ffffff66
ffffdcfb
fffff08c
ffffe44b
ffffebea
000007a5
ffffed92
fffff736
fffff49e
000010a5
ffffd6cc
fffffa28
ffffff64
fffff773
00000b2a
00000f8b
ffffece3
000018f7
ffffeb22
00000c7c
fffff739
ffffe6b7
ffffe53b
ffffe801
ffffebdb
ffffdb20
ffffe359
ffffdb2d
ffffd785
ffffe17c
ffffdfaa
ffffec60
fffff8c7
fffff70e
000011a5
ffffe10a
00000568
00000133
00000b39
00000929
fffffdd6
0000023b
fffff661
000007ef
ffffe7af
000009db
00000012
fffff6fa
fffff780
ffffee38
fffffbc2
000011a8
fffff667
ffffe2c6
fffff528
fffff5ec
ffffe321
ffffe0e1
fffff00c
fffffd1e
ffffe1fe
fffff0a6
00000390
fffffdf6
00000fd5
ffffedd8
00001e62
ffffec0c
ffffe5be
ffffff3d
fffff155
ffffff80
ffffff08
fffffd7d
fffff62c
000005cf
fffffa36
000006f3
fffff331
ffffe57f
ffffdb39
ffffef8b
ffffe3d1
ffffe57b
0000021a
ffffe213
000007b6
fffff957
fffff991
ffffee29
00000621
fffffde7
fffff5e1
00000261
ffffea2e
ffffead6
fffff183
00000485
fffffff5
00000d90
fffff41b
000007ab
ffffff4c
fffff489
00000619
ffffff9d
fffff73e
fffffe3a
fffffb69
fffffb1a
fffff6d6
ffffec04
fffffdc6
fffff1bd
ffffed29
fffff6a9
0000059c
fffffdfc
fffff549
fffff765
00000753
ffffe0dd
00000a4b
ffffe7c4
ffffedb3
fffff95a
00001c0f
000015b0
00000923
0000049b
ffffe7e5
000001e1
fffff895
fffff528
000000b6
fffff808
00000a2c
ffffe5bc
ffffff14
fffff36f
fffff94d
00000246
ffffef48
ffffff19
fffff913
fffff21e
fffff544
fffffcf2
fffff5f2
00000004
fffffc63
fffff819
0000148e
0000055e
fffffb0d
000001e3
fffff2b9
fffffa59
fffffbd7
ffffefd4
00000522
fffff993
fffffb57
fffff878
00002691
fffff7b3
ffffe5cc
ffffebaf
000008c8
00001073
fffff76b
00000ff4
0000061b
fffff9f2
fffffaea
00000242
00000b4e
0000051f
fffff740
fffffdbf
0000199e
00000340
00000b3e
000006fb
00000389
00000168
00000b9a
0000094a
00000366
fffff701
00000505
ffffff5a
fffffc2f
000022aa
ffffecb3
00000d18
fffff4ed
0000019a
00002121
fffff37c
fffff69a
ffffffc3
fffff50c
00000b68
fffff913
00000875
ffffeed0
ffffe8a3
fffffd0a
ffffebb8
00000f9a
ffffea34
fffff0be
fffffe7b
fffffae2
fffff09a
000017bb
ffffedde
fffffb5e
fffff34a
0000092f
000005fa
fffff54f
fffffbc9
fffffd11
000009af
fffff0e5
00001a18
fffff62f
ffffffe3
fffff100
ffffef37
fffff4b2
fffff374
fffffaa5
fffff358
000008fe
fffff5e0
fffff471
fffffaeb
00000cd6
000002c7
fffffeb6
ffffed79
fffff13a
ffffef76
000010e1
000006d5
fffff4d3
fffff8b2
fffff54d
fffff485
000005ee
fffffc43
00001aef
00001026
000010e6
000008a7
fffffa83
000007b8
fffffb7c
00001514
0000053a
00000364
000001a5
00001680
ffffed76
000017c5
fffffd98
ffffedd2
fffff645
ffffeaa6
00000873
fffff28e
00000228
00000ecc
fffff768
fffffc74
ffffef2a
fffffb1b
00002184
00000a49
fffffc52
fffff7a2
ffffff7f
000001f0
fffffa80
000006bf
fffff39b
fffff397
000004c7
fffff0e4
0000096d
ffffffd1
ffffe85d
0000016a
ffffea36
000008f7
fffffcc6
000017e3
00000dc7
fffff22b
ffffe5cc
fffff645
fffff047
0000186b
00000045
00000b84
fffffaf0
fffffaf9
fffffba1
00000bcc
0000029c
fffff152
000014be
fffffc4a
fffff9f1
ffffdb51
0000082a
0000014e
0000014b
fffffacb
fffff890
fffffb39
000005fd
00000843
fffffcf9
00000c27
fffffed6
fffff7bc
0000010e
ffffee57
000003f0
ffffed37
fffff28e
ffffe024
fffff179
00000785
fffff2b1
fffffe05
0000194f
0000026b
fffff489
fffff6a9
ffffff9d
fffff892
fffff9b6
00000cb7
00000d44
ffffeab5
fffff56c
fffffa00
000007be
00000ebd
000022d4
fffff9e1
fffff9c3
00000373
fffff283
fffffb16
fffff6c8
ffffd667
fffff3ed
ffffeaa2
fffffdd6
ffffee63
ffffe1d7
ffffeda3
ffffdca9
ffffea0d
0000061b
fffffbf3
00000b64
ffffe604
fffffaec
fffff884
00000c52
000008b2
0000084e
000013ee
fffffb3c
0000112b
fffff279
fffff20f
000006f4
ffffe7a5
00000189
fffff914
ffffff5b
ffffecc9
ffffe936
ffffef73
ffffe23e
ffffe564
fffff3cf
ffffebc5
ffffe784
fffff0f8
00000fdc
fffff91b
fffff9e7
ffffe5da
fffff9d0
00000352
00000a67
0000015c
00000c5b
00000971
00000e59
00000c85
0000147c
fffffddb
ffffec5c
00000354
fffffff2
000003da
fffffb64
ffffff1d
ffffea00
ffffe69c
ffffda87
fffff1d1
ffffe8c6
ffffea75
ffffe7c6
fffff159
fffff573
000005d6
ffffd87b
fffffcd6
0000092d
000013a9
00000901
000015c1
0000022e
00000004
000006bd
ffffffc8
fffff622
fffff900
ffffef92
00000121
fffff523
ffffebe6
ffffe270
ffffeb85
ffffeed4
ffffd20f
ffffd6bb
fffff6f9
ffffdaad
fffff08f
fffffb3d
00000234
fffffcd6
fffffff8
00001618
ffffdd27
fffff4ea
00000928
fffffb84
00001005
ffffff7d
000001a6
fffffc51
fffff8ea
fffff8a7
00000296
fffff097
00000292
fffffc7d
fffffcd6
ffffe083
ffffd359
ffffe1c2
00000620
fffff647
ffffe121
fffff138
fffff5bc
ffffd942
000001dd
ffffeedc
fffff6fc
fffffc6e
00000c88
fffff557
ffffe942
0000041d
ffffe58f
fffffc1b
00000f4b
0000075a
00000d2c
00000775
00001e28
fffff1c6
fffffa4f
ffffedaf
fffffbaf
ffffeb5e
fffffdb5
ffffde49
fffff54b
ffffed5d
ffffe926
fffff0bd
ffffeffa
ffffef3d
ffffec5e
ffffe77e
fffff3af
ffffe85a
00000a90
fffff0d4
fffffd28
00000859
00000ad9
ffffe90e
fffffec6
000005d7
00000068
000010fa
fffff491
ffffe042
0000012d
ffffeabe
ffffd6a7
ffffe968
fffff665
ffffd442
00000554
ffffdd0d
ffffeb3b
ffffd5f8
ffffeab7
ffffe6d3
ffffd858
00001541
fffff4a5
fffffb34
00000e20
000017b1
00000e87
fffff070
000002c3
ffffe7ad
00000ba4
ffffeac4
fffff5fa
000000a3
0000054d
fffff8d5
00000aec
fffff8be
fffff2e0
ffffda24
fffffef8
ffffde2f
fffffb85
00000023
ffffecb8
fffff450
ffffbc13
ffffe453
fffff9d0
ffffffef
ffffed8d
fffffeb2
ffffe10e
000005d6
ffffe783
00000e99
00000f49
fffff9de
000006bb
fffffd28
000003ad
fffff1f6
00000894
ffffea45
ffffe0f3
fffff2c3
ffffed6d
fffff352
ffffe12a
ffffffa6
ffffe780
ffffeb23
ffffe50e
ffffef78
ffffeab4
fffff036
fffffe30
ffffe25b
ffffe7f3
000000cf
fffffecd
000007bd
0000001e
00000784
ffffefe5
ffffffdc
ffffeea8
000004fe
ffffe856
0000057f
ffffed78
fffff805
0000091d
fffffe36
ffffe4ce
ffffed68
ffffd9da
ffffd56b
ffffe933
ffffeaf5
ffffe653
ffffe725
ffffe3b5
ffffe88a
ffffe899
fffff840
fffff03b
fffff71f
000001c8
fffffe8a
0000276f
ffffee96
fffffe62
ffffed97
fffffafb
fffffb82
00000b9b
fffffbb8
ffffffb7
fffff87f
ffffed3f
fffff69e
fffff4d4
ffffefb6
fffff197
ffffe572
ffffe64d
ffffd509
fffff0d4
ffffd9d7
ffffec7e
fffff89c
fffff41c
fffff25c
000001e6
00000468
fffff9e9
fffff7bf
0000073d
00000663
fffffb85
ffffea9d
000005e7
fffff60a
00000343
00000253
ffffe95a
ffffff3b
0000043e
0000058e
fffff473
ffffd012
fffff545
ffffea05
ffffd5bc
ffffdc5b
ffffef44
ffffebf5
ffffda64
ffffed9d
ffffe02e
fffff026
ffffe5a1
fffff2ea
00001064
000018cf
00000325
fffff7b6
fffffd21
0000061f
ffffebca
fffff88b
000012e6
fffff238
fffff745
fffffc95
fffffb98
ffffecb3
ffffebf5
ffffefb4
fffffd18
ffffe25c
ffffe3cd
fffff8e9
ffffe081
ffffd26a
ffffe16d
fffff4b3
fffffc49
fffffc14
ffffe9b2
fffffc53
00000cd9
ffffedbc
fffffb4a
fffffaf0
fffff6f8
00000335
000005bb
00000589
fffff3e9
ffffeaf9
000002c1
fffff48b
00000a69
0000055e
00000134
ffffdb72
ffffee37
fffff250
ffffef6a
ffffe157
fffff852
ffffe165
ffffe099
ffffd4c4
00000097
fffff943
00000133
fffffe66
ffffff84
fffffd6d
00000785
fffffd61
ffffed29
0000075b
fffff58a
ffffef04
fffff386
000004e7
ffffff51
ffffe073
ffffed9a
fffffddd
ffffe605
ffffe8af
fffff96c
fffff3fe
fffff4d7
ffffc45e
00000026
ffffea1d
00000357
ffffe1d9
ffffe34c
fffffbf5
fffff823
000004dd
00000d7c
fffffea4
fffffcb7
000006bc
fffffcad
fffffb9b
00000d69
00001081
00000eca
000000de
ffffe595
fffffae1
ffffed8f
fffff333
ffffe788
ffffee7a
ffffdfd2
ffffdca9
fffffa97
ffffdc0d
ffffecdf
fffff2f1
fffff5c0
fffff863
fffffc22
0000031f
00000e7a
00000376
ffffe90a
fffff966
000008e3
fffff7e0
000014f2
ffffff2f
0000011a
00000ea4
fffffd99
000004e7
00000cfe
ffffe8f6
fffff342
fffffcb5
fffff1e0
0000051a
ffffdd0a
ffffd8eb
fffff3a5
fffff657
ffffec91
ffffed2c
fffff30c
ffffe471
ffffef97
ffffff24
0000091a
ffffee8e
fffffdbb
fffffd2b
0000054c
ffffffdb
fffff8f1
00001025
fffff907
fffffc33
ffffeb25
fffff7b7
000007ee
00000062
fffffdc4
fffff9b9
000009c3
ffffe655
ffffdbc4
ffffdfe2
ffffe114
ffffddd4
ffffeb66
fffff7c3
fffffdef
fffff5be
0000171e
fffff9f9
ffffe97d
00000b9f
ffffe7e5
fffff631
000006a9
fffffea8
fffffd88
fffff0bc
ffffffdc
00000cf6
00000050
fffff693
fffff190
fffff535
fffffb38
fffff6cb
ffffe835
ffffd4f9
fffff542
ffffe10a
fffff440
ffffe375
ffffe5d8
ffffed72
00000aca
fffffbb1
ffffff7b
000004d5
ffffe972
fffff100
ffffdf56
0000164e
000013bb
00000513
000001bf
ffffebf0
fffffd2a
0000172d
000001f0
fffff978
ffffea05
00001301
fffffe5e
ffffe573
ffffed76
ffffe638
fffff0fa
fffff315
ffffebee
ffffffba
fffff750
ffffffde
ffffeccd
00001da5
fffff979
fffff5b8
fffff40d
fffffdc1
ffffe9b1
000003cb
ffffe75c
00000217
ffffee87
fffffb12
000007d1
00001dcb
fffff20f
fffffe07
fffff67e
fffff470
fffff63a
000009b2
fffff7bf
00001934
ffffffea
ffffed86
fffff7e2
fffff281
000008a7
ffffe3f2
ffffe376
fffff0b3
00000966
0000107a
00001234
00000702
fffffee8
00000a42
fffff134
ffffe826
000005a5
fffff2ff
ffffff28
0000018c
00000334
00000c1a
00000ab5
000002a2
fffffa2c
000000e5
fffff704
fffffb6a
00001f66
ffffffca
000003ae
fffff55f
00000c75
000008fc
0000066a
0000005a
00000d7e
0000107a
00000394
fffffe7b
00000b8d
fffff44f
fffff6b8
ffffff50
ffffe97c
00000ab3
fffff38d
fffff9e7
fffffd3e
00000082
fffffb8d
ffffff1d
ffffff34
fffffa30
fffff559
00000d00
ffffe471
fffffc3d
fffff896
00000501
ffffed1a
fffff975
fffffe9b
00000dc8
00000443
fffff0b3
fffff9ac
00000b71
fffff079
fffffefc
ffffffe2
fffffb03
000022db
fffff710
0000088a
ffffef8a
0000078f
00000a38
fffff508
ffffff87
fffff357
ffffe9bd
00000506
fffff8d6
ffffe0cb
000016d3
fffff5a1
fffffcd0
00001538
fffffe2b
fffffde3
fffff01f
ffffeadd
fffffdd9
000004b1
000003f3
fffff9c7
00000043
ffffe83f
000005f3
00000216
00001985
00000019
fffff3d0
ffffff58
fffffbc3
0000059f
00000059
ffffefb3
ffffead5
0000035f
000011d9
00000105
00000a7d
00000d11
0000036d
fffff573
000001fc
00000f5c
000006d2
000009a6
fffff9ff
fffffd5f
fffffe76
ffffff56
00000f1a
ffffe1a7
00000065
fffffef9
ffffee44
000008b0
fffff6a2
fffffb62
000017e7
00000d0d
0000076d
000004e7
fffffdd9
000019fc
00000a77
fffff631
ffffed2c
00000619
fffffdd9
ffffec1a
0000037d
fffffa99
000004a4
00000351
fffff79f
00000813
fffff97f
fffffa62
fffff91c
00000ea0
fffffc5f
000011bf
0000170f
fffff673
ffffda3b
00000d81
fffffb91
fffff4c1
fffff850
fffffa85
000010a9
0000020c
000010a1
000005e7
fffffa92
fffff864
000004e4
00000884
0000090d
fffff785
fffffd97
00000484
fffffa9e
fffff197
fffff56c
fffffcc9
00000886
00001047
ffffee77
fffff847
fffffb5f
00000a47
fffff92c
fffffa71
ffffedb4
00000622
fffffdc5
fffff75a
fffffc2b
00000cca
ffffeedb
fffff061
00000982
fffff97d
000001e9
fffffe2b
fffff768
fffff390
00000420
00000c27
00000da3
ffffefc3
0000105a
fffffbb8
fffff6e8
fffffdca
00000abe
000006fd
fffffcb3
00000ad5
000001ce
fffff88c
fffff6bc
000004eb
fffffe9b
ffffed95
00000a8b
fffff601
00000d6a
ffffe4b6
fffff3d7
ffffeba2
ffffe3eb
ffffe589
fffffefd
ffffee2b
ffffe9a1
ffffe2a7
ffffe7d5
fffff632
fffff5d7
fffffc28
ffffe1d8
fffffe42
00000d40
000014fb
ffffe781
fffff5a3
fffff4f1
000001c9
ffffefe7
0000151e
0000004a
fffffc2c
000011d4
fffff8f2
fffffa6a
ffffe88e
ffffddc8
ffffe4ba
000004f0
ffffed1b
ffffe6b8
ffffd796
fffff908
ffffe546
ffffe557
fffff50d
000015cc
00001505
fffff736
fffff5bc
ffffeaa9
000000f8
00000217
00000a32
00000bbb
fffffd3b
000005f6
fffff53f
000003e2
fffff3c2
fffffd87
fffffb26
fffff34f
fffff9b4
ffffda02
ffffddb8
ffffe2fa
ffffcfc9
ffffdcfc
ffffde83
fffff9c4
fffff0ef
00000337
fffffc9d
fffff2f4
fffffb8d
000005e2
00000d76
fffffe05
ffffeaab
ffffe9c9
fffffbc3
ffffe1aa
000016b5
000005b5
fffff5ab
ffffeddc
00000474
ffffe6f2
ffffe5cf
ffffe573
ffffef02
fffff4a2
fffff90a
fffff6ab
ffffe658
fffff253
ffffdc63
ffffcfd3
ffffe149
ffffe70d
ffffec99
ffffea37
fffff354
0000048d
00001562
ffffe991
ffffef57
fffff5c3
000009d9
fffffd38
fffff60e
0000072a
000008be
fffff83c
ffffe9f9
fffff4aa
ffffeaa7
ffffeb07
ffffe7e2
fffff586
ffffeae1
fffff50f
fffff9cc
ffffec71
ffffe384
fffff5d3
fffff083
00000ea3
fffff716
ffffff94
fffffd24
fffffc70
fffffc81
000003be
000006b9
00000eed
000003f0
fffff9e1
fffffb6d
ffffec70
0000103f
ffffef07
fffffeb2
fffff117
fffff369
ffffee50
ffffe1bc
ffffdc3e
0000012e
ffffeff9
fffffa66
fffffa49
ffffe5c5
fffff121
ffffea6e
ffffdeca
fffff225
ffffff34
fffff46f
fffff9f0
fffffda2
00001b45
ffffe848
0000067c
fffffcaf
fffff79c
fffffc1d
000006b5
00000481
fffff72f
fffffea3
ffffff92
fffffbbb
ffffe81d
ffffefc7
fffff0a9
ffffe481
ffffdd6f
ffffd38b
ffffec25
fffff05c
ffffdacd
fffff787
fffff2d0
000007bf
ffffff7e
ffffee58
0000043b
0000088c
fffff8e3
ffffed5a
0000014c
fffff30a
00000e67
fffffa8c
00001582
ffffe112
fffff752
0000021d
ffffe3bf
ffffeaf7
ffffe583
ffffe25e
fffff23f
ffffe127
fffff0e7
fffff610
ffffeaa6
ffffddc6
fffff886
fffff635
ffffe5c9
ffffe74a
ffffef79
00000300
00000081
00000a11
fffffbc3
fffff409
00000be1
fffff8d6
0000025c
ffffec0e
fffff883
00000bc5
ffffee3c
fffffb00
ffffd0e7
ffffe4e8
ffffe7e4
ffffff51
ffffdd3b
fffff707
fffffcc8
ffffdff2
ffffe160
ffffed8e
ffffdb1a
ffffece7
000003d5
ffffff41
fffff89b
fffffd76
00000546
000009d8
fffff8cc
000013d8
00001105
000008c1
fffff517
fffff2e7
fffffbcc
fffffee9
ffffe239
fffffae8
00000186
fffff4de
ffffe472
ffffe1a9
ffffed15
ffffe56f
ffffec70
ffffea44
fffff0a4
ffffdc19
fffff2b3
ffffedfc
fffff3df
0000037b
0000072d
00000e57
000003d7
fffffe63
fffffcb8
ffffe992
00001153
fffffbd5
0000068a
000008ee
fffff020
fffff194
00000e00
fffff9e6
ffffec03
fffff1a9
000001c9
ffffffdc
ffffd8ec
fffffc67
fffff018
ffffdefb
ffffd45b
fffff783
fffff46e
ffffde44
fffff220
0000208d
fffffbd9
fffff436
fffff28c
000016de
00000aea
00001232
00000336
00001037
fffff4fe
0000021c
0000031e
00000f4c
ffffff94
fffff0fe
fffff573
ffffdd63
ffffd4fa
fffff8ed
ffffe6f6
ffffe3d8
ffffeebc
fffff30f
ffffeac3
0000000b
fffff4d5
fffff5fe
fffff711
ffffe833
00000932
ffffe067
fffff949
00000068
fffff5c1
fffffa28
000017c8
00000e46
fffff714
fffffa03
ffffee92
000005ec
fffff8ae
ffffdfa0
fffff5fe
fffff8c3
fffffdcd
ffffeeab
ffffe6d4
0000003e
ffffe613
ffffee07
ffffddd8
fffff04d
ffffd6bc
ffffe9ac
ffffe476
ffffefca
00000ce8
fffff8f8
00000ab8
00001408
ffffff98
00000cd6
000006de
00000181
000009a4
000017f9
fffff6f4
fffff1d0
ffffefc1
0000058a
00000021
ffffe86b
ffffd3b5
ffffe752
fffff3b9
ffffe8ea
ffffeb5d
ffffe385
fffff29b
ffffeb1b
fffff146
fffff01b
fffffa9a
fffffda7
fffff2e1
000005f1
00000bd8
00000f4a
00000554
fffff37f
fffff582
fffffa60
00000296
fffffe9d
fffff11a
fffff120
ffffe361
ffffd0ed
ffffef2e
00000bba
00000442
ffffe13c
ffffee38
ffffd7e8
ffffd9f9
ffffdb53
ffffe601
ffffe5a6
ffffef08
fffff595
ffffeee7
fffffbac
fffff10d
fffff020
ffffedb6
00000839
fffffb9c
ffffe7cb
ffffff2f
ffffefda
000015af
fffff8f0
00000890
00000ea7
fffff199
fffff961
fffff66f
ffffede8
ffffefe1
ffffdd3d
fffff5aa
ffffe3ef
ffffec07
fffff25b
fffff0f2
fffff1ed
fffff7b6
fffff865
000008ec
fffffd20
0000028a
00000dd9
fffffaa7
ffffee9e
0000065d
fffffd55
fffff063
00000679
0000129a
ffffeaf2
00000dad
ffffdf00
fffff7ef
0000110b
ffffecf9
fffff055
fffff636
ffffd36f
ffffe76e
ffffe262
fffffa25
ffffd76f
ffffe8c1
ffffe527
ffffe332
ffffffd5
fffffa6d
fffff7f0
fffffad9
fffff9d6
fffffa8d
ffffef8c
fffffca0
fffffb5b
fffff634
00000201
00000314
fffff896
fffffdbd
00001bf0
000018da
ffffeda7
ffffeb02
ffffe571
fffffc91
ffffe70d
ffffe7b6
fffffc19
ffffe4e6
fffff2e6
fffff461
ffffe9f2
00000346
ffffed28
00000de6
fffff74f
fffffa77
fffff205
fffff405
fffffa6a
ffffe08b
fffffcfc
fffff96f
00000a37
00000574
fffff6c5
fffff9aa
fffffcb7
0000120c
fffff23e
fffff0f4
ffffe9a3
ffffe006
fffff2b6
ffffec83
fffff5c2
fffff46a
00000b68
fffff263
fffff438
ffffe883
000004f6
fffffd96
00000700
fffff0b9
00000432
00000297
000001c7
fffff729
00000f61
00001a83
fffff1a5
00000951
ffffdb07
000008e3
ffffe7fa
fffff9c3
ffffee1a
fffffa9a
0000065c
ffffe1dc
fffff085
ffffec2f
00000692
fffff623
ffffe5d6
fffff2a0
00000ebd
000005c0
fffff127
fffff973
fffffb37
fffff804
ffffe99c
fffff739
000011f5
fffffb12
fffffeaa
000001d1
00001cae
0000001d
00000e24
fffff83d
fffffc7e
ffffffd4
fffff572
fffffc70
000009c5
fffff2a6
fffffaea
000003db
ffffefc1
00000877
fffffd64
fffffca0
ffffe5bc
fffffa08
0000037c
00001517
0000066a
00000d89
fffff024
fffffe58
00000fc9
fffff486
00000c7b
0000097b
0000038d
fffffbc0
fffff33e
000016ef
0000081f
00000484
fffffa8d
00000006
00000110
00000388
00000774
fffff31c
ffffea3c
ffffff06
ffffe885
fffffb50
fffff958
00000584
00001875
ffffe62f
00001d53
fffffcf3
0000047b
ffffedb5
00000ce4
00000089
ffffff35
ffffe6f3
000000f4
00000af0
fffffcf2
00000f2f
00000ea5
fffff7b2
00001499
0000008e
00000030
00000098
0000008e
ffffdc8f
fffffbd8
ffffedda
000014ef
0000146d
00000af2
fffffcdd
fffff2ee
fffff77f
00001918
fffff709
ffffe18b
00000d52
00001367
00001574
00000d6d
000004e5
fffffeba
ffffe5b6
fffffb9a
00000463
0000018c
fffffd06
ffffee7f
fffff35a
0000169d
0000183c
fffffff7
000003a4
fffff351
0000084f
000016c1
ffffec3a
000005ff
000006f8
000006d2
0000153e
00001a53
fffffcfb
000008b4
00000117
fffff7d4
00000380
000008af
000002ce
fffff49b
fffffa02
fffffa1b
fffff51b
0000040e
00000568
00000ca8
fffff4e4
fffff882
00001411
fffffdde
0000005d
fffffdb5
00000ea0
00000f22
00000d49
ffffffe0
fffff4b0
000018de
00000b0c
fffffa15
00001268
fffff913
0000123e
0000131d
fffff416
00000786
00000a1d
000021d0
fffff667
00001286
00000038
ffffeff1
fffffe72
00000003
fffff22a
000002eb
00000b5d
000002e8
fffff8a9
fffffd96
ffffff79
0000025a
00000c37
000001a1
ffffec05
fffff62e
0000018f
00000e6d
000010b7
000016ed
000001ae
000009df
ffffed32
0000058f
fffff219
ffffff31
0000272d
000003ed
fffff4d2
0000053a
fffff93d
fffff376
000019ac
00000b2c
00000189
fffff767
fffff906
000011af
000001eb
ffffd63b
00001b7a
fffffe61
000000ac
00000acf
0000039e
000007ff
fffffa35
fffff000
00000396
00001283
fffff7a0
fffff696
00000fca
fffffa16
fffffab1
fffffb2c
ffffff1f
ffffeb86
fffff8b9
000002ab
000000df
00000b64
0000130e
00000f3e
0000070e
fffff8b6
fffff2b5
fffff94f
fffffe99
0000013a
fffffed4
fffff56c
00000322
00000a8f
000009c9
