ffffcd05
ffffec3d
fffffd91
fffffe41
fffffaa6
ffffe845
ffffe8e3
fffff341
ffffefb1
ffffec29
ffffe01c
ffffede2
ffffc90c
fffff7e6
ffffe250
fffff6af
fffff3a7
fffff3b1
ffffe3e5
00000b6a
ffffce0c
00000ac4
fffff56d
ffffdfab
000006cc
000006f3
ffffe376
00002295
ffffed72
ffffdfac
ffffe99d
ffffcf8d
ffffdc56
ffffd01f
000007eb
ffffeea0
ffffec4f
ffffd69b
ffffe35b
ffffcc88
ffffdd1a
ffffdd03
0000062c
ffffe614
000009ff
ffffd520
ffffe028
fffffa67
ffffe40b
ffffe953
fffff208
ffffe75a
ffffb56a
ffffc03a
00001d9b
000011ea
000002ad
fffffa0d
fffff0d5
fffffd9f
ffffe099
ffffe9c7
00000629
00000472
fffff066
ffffe602
00000cdd
ffffe194
fffff5e5
0000199c
fffff7ad
fffff139
ffffd244
fffffc19
ffffdafd
ffffd029
ffffe8d9
ffffe814
ffffe270
fffff1ee
fffff5e1
fffffe32
00000023
00000a93
ffffe936
fffffc4a
ffffc73c
fffff47f
ffffec58
ffffd276
ffffe821
ffffead4
fffff8cb
fffff012
ffffed25
ffffd84a
00000951
0000272e
ffffee3e
ffffed90
fffff9b4
ffffd2d6
ffffd8e0
fffffa26
000002ca
ffffed59
fffff55b
ffffe90a
fffff7b4
ffffe859
ffffe9db
00002a55
fffff36c
ffffe749
fffffee2
ffffd450
ffffd34f
ffffdcd5
00000d2e
ffffea09
fffff587
ffffea35
00000796
ffffe53c
ffffdc3f
fffff86f
ffffe0c8
ffffeab3
ffffedbf
fffff51e
fffff2cb
ffffc40f
ffffc7d0
ffffdc9a
fffffb67
ffffffb2
fffff031
ffffd1d4
fffff742
00000ae8
ffffff94
00000757
ffffd74b
ffffe9e5
00001734
ffffde6f
fffff1da
ffffcd28
ffffe2ba
ffffc3a7
ffffd9ee
fffff89a
fffffd5e
00000604
ffffe711
ffffecb8
ffffea78
00000cc6
00000c99
fffffe11
fffff32d
ffffee9a
fffff2d1
ffffd7dc
fffff411
ffffcc22
ffffecef
ffffe872
ffffdf22
ffffea6f
000017af
ffffdf9e
fffff6e8
fffffef1
ffffc293
000003e5
ffffe0c4
ffffdc03
fffff967
fffff8f2
000004aa
ffffdb53
ffffd6cd
ffffe5f3
00000411
ffffec09
ffffba6a
ffffea5f
ffffeb40
ffffd250
fffffba0
fffff781
fffff38a
ffffddfa
ffffe273
ffffd0c2
fffff7f1
00000665
fffffcbd
ffffe7b1
fffff05c
ffffe689
fffff90b
fffff383
fffffca5
000007df
ffffebb5
ffffe08b
ffffbe41
000001e6
ffffdae9
fffff013
ffffedfe
ffffb618
000003d1
0000093e
ffffed81
ffffd6d4
fffff0b0
fffffd63
ffffe32f
000015ed
fffff1bc
000010c8
ffffdc63
000007d7
000000f4
ffffdfee
fffff1af
000001f3
ffffd6d9
ffffc345
ffffcf7b
ffffe5a8
ffffde72
ffffe14a
ffffd2fa
000007d2
000001e9
fffff9d6
ffffed03
0000106a
fffffac1
ffffd3a6
000001d9
ffffe29f
ffffcba9
00001424
ffffe6dd
ffffd57b
fffff5c9
fffffb41
ffffe3b7
ffffcae9
ffffdf9e
fffffa91
0000037d
00002c92
ffffc659
ffffef87
ffffe040
fffff406
ffffce32
fffff8b3
ffffeb93
fffff950
ffffb286
fffffaf0
ffffcc92
fffff264
00001b69
ffffc4cb
ffffea1d
ffffec16
ffffee43
ffffcfce
ffffeb82
fffffccb
fffff549
ffffd83b
ffffd1a7
fffff0ed
fffff29d
000008c0
000002df
000014ad
ffffe948
ffffe875
ffffeb7e
ffffde9e
0000066b
00000654
ffffec15
00000ca3
ffffe37a
ffffe519
00000df1
fffffd21
000006fd
fffff038
fffff2d9
000004aa
ffffe8d5
fffff420
00003154
fffff7bb
ffffcd76
ffffebcf
ffffda0a
ffffec52
ffffe89f
fffff8dd
ffffdc9c
ffffebbe
fffff205
00002851
fffff752
ffffda23
ffffd560
000004f6
0000168f
ffffcf85
fffffc04
ffffd90c
ffffee78
00000e1d
fffff7ee
ffffe450
00003d00
000019cf
ffffedad
fffff416
ffffe92d
fffffa04
ffffd1cf
00000624
ffffbf41
00000586
fffff7f6
ffffd69f
00000ad8
ffffe533
0000067b
ffffc366
ffffd40a
ffffdce4
ffffefe6
fffff586
fffff7da
ffffce53
ffffdb1e
ffffdcc3
ffffcaf0
ffffe85d
ffffd1df
ffffe414
ffffef4b
fffff31d
ffffea0e
ffffeed2
ffffee49
fffff319
ffffa52e
ffffe18a
ffffffe4
ffffc98f
00000837
fffff3fb
fffff2db
fffffdb9
fffff896
00000338
fffffcd0
ffffdffe
ffffe92a
00000c1d
00000324
000006e3
ffffe2a3
ffffe067
fffff65d
fffff735
00000388
fffffd26
ffffeccc
00001ff2
fffff6e0
fffff839
ffffaf2a
ffffe7c6
ffffc6c4
ffffc7f2
fffff975
fffff724
fffffe38
00000791
fffff53b
000003e8
ffffef97
000010ab
fffff424
000000df
000000f5
ffffee1a
fffffffb
ffffe3de
00000a35
fffff083
ffffd82f
fffff0b4
fffff4b7
fffffdc6
fffff927
fffff777
000020b4
fffff3e6
ffffb247
ffffe750
ffffee84
fffffe3c
fffffa84
fffff604
fffff54f
ffffdccd
ffffe105
0000130a
ffffe92e
fffff99e
fffffe0f
fffff277
fffff37d
ffffeeef
ffffcdb1
ffffffd3
ffffe89f
fffff0c3
ffffeade
000012e8
ffffdb2e
ffffeb88
fffff853
00000704
ffffecab
ffffeb59
fffffca9
ffffe912
000002d5
ffffdf85
fffff0a5
ffffe573
00001480
000010f4
ffffebff
ffffc88f
ffffc134
fffff067
ffffe1ef
00000f67
00000939
000018b4
fffff991
ffffbbbc
ffffe6bf
ffffd61b
ffffffa1
ffffdaa3
fffff9bb
ffffe418
ffffe117
00002140
fffff394
ffffe41c
ffffdaea
fffff2e1
0000097d
00002209
ffffe759
ffffe33d
0000011c
fffff547
ffffdc81
ffffcba9
ffffd730
ffffe92a
00000d7a
ffffd1b6
fffff681
fffff80b
0000026b
ffffd761
ffffd5de
fffff38c
000002d1
fffff220
fffff8fc
fffffdb1
ffffcab4
ffffe534
ffffdefa
fffff1fe
ffffd2f9
ffffe4b3
ffffe9f9
ffffef9e
00000747
0000248c
fffff341
ffffd83a
fffff901
ffffef68
fffff921
ffffea9f
ffffdc01
fffff93c
00000759
fffff6d5
0000027d
fffff233
ffffd8c4
fffff8c0
ffffeff5
fffff2d2
ffffe6a5
ffffe9fa
fffff9a1
00000724
ffffccb0
fffffabb
00001079
000001f6
fffff250
ffffef95
ffffefab
00000fc2
ffffef16
ffffdcc5
fffff317
ffffdfb7
00000172
ffffddf7
00001bec
0000039e
ffffd702
ffffeeec
ffffd159
ffffe99e
00001222
ffffcff7
ffffd6f3
ffffe7c1
fffff3a8
ffffed65
ffffd560
ffffbc32
000008e5
fffff674
ffffd4af
ffffe995
ffffe55d
ffffd2fb
ffffd84a
ffffca76
ffffe798
ffffef84
ffffb45a
ffffe2db
ffffeade
ffffc411
00000daf
000005af
000007b7
ffffd84d
0000099e
ffffe528
00000c42
ffffe9f1
ffffe0b0
ffffde2b
00000d4f
0000013e
ffffd4d3
ffffee46
ffffcee4
fffffb7b
ffffd4e9
ffffe780
ffffec1d
0000113d
ffffcfa3
ffffe7ee
00000262
fffffbc4
ffffdd74
fffffaa3
0000069f
ffffff98
ffffe29c
ffffe78b
ffffd71c
ffffe7b2
ffffe3f0
ffffe8a9
fffff532
ffffef4f
ffffe661
ffffc869
ffffed30
0000063c
00000235
ffffce9e
ffffea2d
ffffeb03
fffff920
ffffe7c4
0000167f
ffffec00
ffffc47f
000000cb
fffffa70
ffffe3b8
ffffee38
fffff7f3
ffffd307
fffffe8d
ffffe8b1
ffffd9d5
fffff2af
ffffd8d1
00000dfa
fffffa1d
fffff4aa
ffffb3e2
fffff183
00000de2
ffffd349
0000089c
ffffdecc
ffffe9e4
ffffdbc8
fffffcbc
fffff437
fffffec8
ffffd646
00000555
ffffca56
fffffcb0
00000a35
ffffe461
fffff209
ffffe600
ffffb45d
00000393
ffffe8e8
ffffed71
000007d8
ffffed65
fffff3e4
00001c88
0000036b
fffff7c0
ffffee7b
ffffef9a
0000075e
fffff1d9
ffffd650
fffff8af
00000495
ffffe6c0
ffffeb5f
ffffdf8c
000004f6
ffffe849
ffffe4f7
ffffe898
fffffe9b
00000133
fffff979
ffffee07
ffffe5e5
fffff01c
ffffefaf
0000060a
00000209
fffffe6e
000019cd
0000260f
fffffb4c
fffff869
fffffe2b
00001373
ffffe7c4
ffffe6a5
ffffe410
00000a53
000015a5
ffffe53a
fffff614
00001435
fffffacd
fffff198
00000980
ffffd9f0
00002575
000013de
ffffcb21
ffffd556
ffffebaf
ffffdceb
ffffd402
ffffd797
ffffe82d
ffffe5af
00000c42
000006d7
ffffef59
ffffef30
ffffe01e
000003ac
ffffd560
ffffecb1
ffffe223
00002a0b
fffff914
000012e6
fffff789
000007ca
fffff337
ffffe2fd
ffffc979
ffffd051
fffff722
00001f77
ffffd655
ffffe6a6
00000138
ffffed14
00001461
ffffffb0
ffffbadc
fffff276
00000500
fffff107
fffffe21
ffffe39b
000007cd
ffffe1e2
ffffabd0
ffffd43f
ffffeb7d
fffff20e
ffffd2bf
fffff007
fffffab4
00001026
ffffbd6b
ffffd992
0000150d
ffffef21
ffffd914
fffffcce
fffffbc0
ffffb64c
fffff49f
ffffe39f
fffff2c1
fffff77d
000005c1
00000211
00000ff2
ffffff7b
000009f3
ffffd588
00000cdb
00000080
00001d4f
000004c8
ffffdfc1
0000004f
ffffff73
fffffb39
00001971
000002af
ffffec09
ffffee15
fffff7d7
fffff81b
ffffdd48
fffff649
ffffe04d
ffffd33f
fffff2c0
ffffd4aa
fffff651
ffffd9a7
ffffeb1e
ffffde6b
ffffede5
0000079e
ffffdbc1
fffffa23
fffffcee
ffffd5f2
00000637
ffffffed
000000e4
fffffae6
ffffee21
00000302
fffff6f0
ffffe704
ffffe128
ffffdc36
ffffcdd5
fffffe52
000010c9
fffff019
00000edf
ffffdad3
000019b1
00001473
ffffc56d
ffffe4e0
ffffe1e2
fffff609
0000051d
fffffb86
ffffda62
ffffe911
fffff6c9
000013d5
ffffceda
ffffec08
ffffd608
fffff559
ffffdf72
ffffe764
ffffc726
fffff553
ffffff50
fffff67d
fffffd47
fffff72b
ffffb548
ffffe86e
ffffe417
ffffeb94
ffffeb47
ffffd4cd
fffff6bc
ffffd8c7
ffffeb85
ffffca3a
ffffcd0b
00000390
ffffdefb
00000a59
ffffc3c9
ffffe1df
ffffdc88
ffffd91e
00003495
ffffe342
00002333
0000299b
fffff553
00001299
ffffe12a
ffffe183
ffffedad
0000029e
fffffc5c
ffffe515
000008b9
ffffe5c3
00000642
000017f6
ffffe031
ffffe98a
ffffeacd
ffffd869
0000027f
fffff189
fffff529
ffffd562
ffffe5a8
ffffdbab
00000324
fffff393
ffffffa4
ffffd515
ffffec09
ffffe85f
ffffe645
000018fe
ffffedb3
ffffcd60
ffffa140
00000471
fffff0a9
00000162
000023ba
00000059
fffff2a0
ffffe87f
fffffef3
ffffe7c2
ffffe3e6
fffff47e
00000f64
ffffeafd
ffffcf8e
ffffe33e
fffff5f7
ffffdfed
fffff99c
ffffe0ce
fffff23c
fffff16d
ffffd166
00000a60
00001807
ffffe814
ffffff74
ffffff9a
fffffac2
ffffd8a8
00000068
00000128
ffffda2f
ffffc864
ffffed78
ffffda57
fffffe03
ffffe03e
ffffe99e
ffffefbe
ffffc48c
ffffef85
ffffce7e
fffffc1f
000023d1
00001f84
ffffe92f
0000070f
fffff3bd
000008d0
ffffd72d
ffffeec0
fffff06e
ffffff16
ffffed6e
ffffeb73
ffffe78d
ffffd338
fffffb26
ffffe8ac
fffff026
ffffa9b4
ffffefda
ffffe5f7
0000022d
ffffe247
ffffe54b
ffffd5bf
ffffe416
ffffe43e
fffff604
ffffe2e1
ffffc925
ffffdf5c
fffff7ee
ffffdb57
000017c0
00002012
ffffe524
00000996
ffffe1d1
ffffe7ce
00001c1f
fffffd69
ffffe8c4
fffffd05
ffffeba4
ffffd887
ffffdf6e
ffffe338
00000282
ffffea47
0000056e
ffffdec0
ffffced2
00000244
ffffef5d
00001ba7
ffffe9cd
ffffefe4
fffff6cc
ffffde4b
0000004f
fffffc84
ffffd73a
00000e61
ffffbc02
ffffe4e7
00000fbe
ffffe426
fffff96a
fffffbb1
ffffe4f5
ffffda02
ffffd01d
fffff4cb
ffffe5cc
ffffe2ce
ffffe4e7
000018db
fffffdbf
ffffdd19
ffffd220
fffff72e
ffffd2db
fffff2b7
00000779
00000e0a
ffffcd35
fffff5fe
ffffa300
ffffd8c1
ffffe356
fffff815
fffffa73
ffffea4c
fffffe74
000003f0
ffffd3a2
fffff7bb
ffffdc96
fffffc8d
000006e8
fffff63b
000004f6
ffffe4c1
00001089
ffffda87
fffffd85
ffffefcb
fffffbe0
ffffdf10
00000a3d
0000113b
000004cd
ffffff3f
ffffe8cf
00003152
000002e7
ffffede9
ffffb38e
ffffe346
00000878
ffffeab0
ffffe3aa
fffffbe8
ffffe0d7
fffff202
00000801
ffffe4c8
ffffdefe
fffffd1a
000002dc
ffffd84a
ffffe72b
000011b6
ffffead0
fffffed5
fffff3f6
00000992
ffffd915
00000efb
ffffdfdd
00000f6e
fffffd17
fffff25d
ffffe31c
ffffe676
ffffdbc8
fffffb14
ffffeff9
ffffdc6d
ffffefcf
000007a9
ffffe0de
000019d7
fffff220
ffffbb97
00000cd6
ffffe42d
ffffcdfc
ffffd0fd
ffffd301
ffffdb97
00000d31
ffffb772
ffffe0f3
000036fa
fffff597
ffffe619
fffff1d2
00000f0b
ffffcd15
00001233
00001731
ffffe76a
ffffe4ba
0000188b
00001afb
ffffe01d
ffffcbf6
00000b7f
ffffb8d0
fffffa1a
ffffd097
ffffe9af
ffffe1e8
00000286
fffff244
ffffebd8
fffff485
000018a9
ffffde0f
0000044a
ffffdb0c
ffffe8a1
ffffddc2
fffff21b
fffffb57
ffffd7e7
fffff621
fffff745
fffff3a9
ffffd125
00000a54
ffffeadb
ffffdf2b
ffffe7c0
ffffd5db
fffffd9a
fffff2d7
00000498
00000452
ffffe38e
000007fe
ffffe584
00000c45
00000aea
ffffdc7d
0000063f
ffffdb5a
ffffdd51
fffff7de
ffffc5c8
ffffe581
fffff9fb
ffffe1d5
ffffe3f6
ffffea1d
00000767
ffffe407
fffff379
fffffd31
fffff5d5
ffffd855
0000093e
ffffdf41
ffffc241
fffffad9
00000643
00000576
fffff101
ffffea5a
fffff77b
ffffda8e
00000973
fffff9b6
ffffefc9
00001ea8
00000518
ffffd395
fffffd6a
0000064b
fffff30f
ffffe7bd
0000077b
fffffa94
ffffe39e
ffffddd8
fffffdfb
00000ac1
fffff4e8
000000d5
ffffeeb0
00001555
fffff6a0
fffffef0
fffffe8f
fffffa0c
0000001a
ffffc704
ffffdf34
ffffff47
ffffe5b8
fffffaaa
fffff742
ffffe635
000006a6
ffffe58b
00000102
fffffebe
ffffd557
fffff4d3
fffffe18
ffffd3d9
ffffe13c
ffffdb0c
00000fb8
fffff4cb
00000a11
ffffe6b0
000011a1
ffffe47a
ffffd100
ffffce35
ffffe2db
ffffef1d
ffffec99
ffffefe0
ffffe577
fffff66f
ffffcd86
ffffd62b
00002ad8
00000a50
ffffd103
ffffec6b
ffffd45a
fffffd10
ffffe77b
000002cf
ffffdc0b
ffffe6e0
0000101c
0000042f
0000050f
fffff925
00001a52
fffff8fd
fffff62b
ffffdc8b
ffffdffc
000002a7
ffffd980
ffffebeb
0000061e
000009e4
ffffe144
00000c39
fffff982
ffffee57
0000016c
fffff341
fffff044
ffffe893
ffffe431
fffffcdc
000011e1
ffffd030
ffffe586
ffffebcd
ffffcbd5
ffffc103
000009d3
ffffda6a
ffffe4cf
ffffc9f8
ffffea5c
fffffd2a
ffffebf4
00000415
fffffe0a
ffffd1b5
ffffff9f
ffffd8ee
fffff190
ffffdf92
ffffeab0
ffffdde3
ffffee3d
ffffe2be
ffffedf0
fffff0cd
00001264
00000c22
fffff956
ffffd2e5
ffffd920
000000c6
ffffee1f
ffffe138
000015d0
ffffd121
fffff26e
ffffdc8c
00000dbc
ffffdfa0
ffffdc47
ffffce38
fffff08d
ffffffe6
ffffedc1
ffffdc7d
ffffeadb
ffffffc7
ffffed06
ffffeddb
ffffe4e4
fffff9aa
ffffed3b
00000244
00000e26
ffffd1c1
ffffec31
ffffe874
fffffff0
fffff57b
ffffeb78
0000014b
000007ac
ffffe5d7
000009c7
ffffc35d
ffffc47a
ffffe2ee
fffff47c
ffffdfdf
ffffeb9a
fffff376
ffffd6da
fffff954
fffff3e8
ffffe80f
00002b19
ffffd592
ffffde3f
000007f0
ffffe03c
fffff5b6
ffffda17
fffff2cd
ffffcb8b
ffffdf18
fffffe9c
0000057c
ffffedc8
ffffe951
ffffde04
ffffef31
ffffdef4
0000001e
00001adf
00000785
fffff448
ffffffb0
00000502
ffffe8b6
ffffda9d
00001b97
fffff124
0000097a
00000cb2
ffffe3d4
fffff74b
ffffde3d
ffffbd05
ffffe203
000023ce
ffffe9d2
0000010c
ffffe641
00001ef6
ffffc19d
fffff08e
0000199c
ffffee35
00000d24
fffffed9
ffffe614
ffffb9ce
ffffd275
ffffeaab
ffffc8af
fffff2f0
ffffe834
00000534
ffffec71
ffffe7e8
ffffe234
ffffe5ee
00000ba6
00001059
fffff443
ffffdd23
00001f63
0000003d
ffffd7f2
ffffe08e
fffff0b4
fffffbf6
00000931
00001891
ffffd81d
ffffccbb
ffffdfbf
ffffe585
000008a8
ffffdee6
000007c6
fffff856
ffffcbd0
fffff9c9
00001959
fffff4a3
ffffe7e2
ffffeb67
ffffed82
fffffbab
fffff7fd
ffffd715
ffffe519
000000f5
fffff9a7
ffffdb0d
ffffe61c
000000e8
ffffff5d
000000aa
fffff582
fffff6a1
ffffe3a3
ffffe291
ffffc113
ffffed92
fffff2cb
ffffe354
fffffe1e
000016e8
fffff381
00000668
ffffdb62
fffffe22
ffffef4c
fffff6d2
fffff619
ffffe4d6
ffffce59
ffffe50f
ffffe666
ffffd73d
ffffe437
ffffe55f
0000012c
fffffc6c
000016d3
00002cb0
fffffe8b
ffffbeaf
ffffe7a9
ffffd1eb
00001e60
fffff096
ffffeee8
00000c7b
ffffea1a
ffffee8a
ffffe4fe
ffffecbc
00000a43
ffffd7d2
00001642
fffff8fa
ffffe6e0
ffffe1da
00000494
fffff842
ffffe036
000013c6
fffff51d
000005db
00000f36
fffff790
ffffeefa
ffffdb66
fffffe9a
fffff5fd
ffffec5e
ffffe21c
fffff853
00000a1a
00000e12
ffffdf20
fffff666
ffffd7fd
ffffe08b
fffff879
ffffe6cd
ffffd184
ffffd05d
00001d1b
ffffd541
ffffecab
ffffff27
fffff41b
fffff172
000001be
00000c58
fffff787
ffffcfbf
fffff1c0
0000037a
fffff0d3
ffffed8f
00000a11
00000fa8
00002343
ffffebc5
fffffbff
00000f85
ffffeebe
00000984
ffffe680
fffff08f
ffffdfcb
ffffe263
ffffe5cd
ffffec55
00001004
ffffebea
ffffff68
ffffd648
fffff218
ffffcafe
ffffd77e
fffff320
fffffbe9
000000d9
ffffe367
fffff878
fffff8f2
fffff6bb
000016e8
ffffe617
fffff736
fffff399
000002c7
ffffe66c
fffff883
00000241
000008be
fffff53a
ffffe983
fffff51c
ffffe413
000007fc
00000e3c
ffffb3d0
ffffed85
ffffed94
ffffecb3
00001952
00000c37
ffffd75e
ffffdd50
00000547
fffffc76
00000255
fffff4c7
00000069
ffffdee6
fffff841
fffff5ae
00002818
ffffe3ad
00000b87
ffffd1e5
00000ace
ffffcff9
ffffdb6e
ffffee7f
ffffe365
ffffe391
ffffd674
ffffc581
fffff5d8
fffffbef
00000e51
ffffe6f5
fffff270
00000a99
fffff476
000025fb
fffffa73
ffffe687
fffff14d
ffffdc04
ffffbf04
ffffd6c0
ffffae08
ffffe80d
ffffe475
ffffe5db
ffffdc4f
ffffdd53
ffffe145
ffffe764
ffffe1c2
fffff6be
ffffe734
000016ea
fffff8ad
00000ae1
fffff427
ffffe303
fffff957
ffffea68
ffffe2a1
ffffd8d6
ffffff24
00000928
ffffe5a4
ffffe01e
000009f9
fffff0fa
ffffef72
ffffccbe
ffffe9e2
fffff454
ffffe12a
ffffe5aa
ffffedc3
ffffddc8
fffffd29
000007a5
ffffe4fa
ffffb7f8
ffffe2e4
fffff146
fffff435
00001647
fffff3e0
ffffd6ce
fffff4eb
00001333
ffffdd85
fffff46f
00000be1
fffff009
ffffeef6
ffffecbd
000001e6
00000c30
0000333a
00000c7f
fffff286
ffffdb13
fffff453
00000854
fffff907
ffffe92c
ffffc50b
ffffffb0
00000345
fffff303
00000e6d
ffffe374
ffffe9ec
ffffe0f9
ffffdc4c
ffffd9dc
ffffffa1
fffff0f7
ffffc66f
ffffd73b
ffffd332
000009d7
ffffe2d5
fffff8ed
ffffe704
ffffd3f4
ffffc496
00000044
fffffd05
0000128b
ffffe9bd
000005e3
ffffd895
ffffcc6f
ffffd431
00001b44
ffffe983
ffffcbf9
fffffb88
ffffed24
ffffe629
000000d9
ffffcc49
00000a03
fffffd81
000007a7
00001741
ffffd519
fffff5cf
00000726
ffffdd41
000001eb
fffff0b8
ffffcb2d
00002ad6
ffffff7e
fffff872
ffffed61
fffff313
ffffd870
ffffe575
ffffe8f7
ffffe529
fffff2c6
ffffd1ff
ffffe863
ffffe5cb
ffffe72c
fffff041
fffffffd
fffffcb0
ffffc2b0
fffff48b
00000e30
00000d75
fffff321
ffffe7de
fffffd9f
ffffce19
ffffdee8
fffffc9f
ffffe2fe
000004cb
ffffe87e
ffffdf29
00000dba
ffffe40e
fffff1c4
ffffe4cd
0000069f
ffffe527
ffffda39
ffffef9b
ffffd1c5
ffffea6c
ffffefab
fffff3b4
ffffd1b8
ffffe8f0
ffffdcd3
ffffe7dd
ffffe741
ffffd084
ffffea13
ffffc3bb
ffffdc0c
00000227
fffff0b6
ffffff19
ffffdb8b
fffff896
00000995
00000352
ffffdbe5
ffffef69
fffff832
fffff2c4
000014b7
fffffde1
ffffcf95
fffff8bb
000005c5
000002b1
fffff3e1
fffff910
ffffc83e
ffffe871
ffffef97
ffffddb7
ffffe935
000005ac
ffffe97f
ffffe839
ffffea23
00000438
fffff752
ffffe17b
ffffddcf
ffffe2bd
00000232
ffffe742
000017f9
fffff95f
00001692
fffff333
fffff3d2
fffff58c
ffffd93a
ffffe443
ffffece5
ffffdcd4
ffffdc6d
0000068f
fffff714
ffffffa9
fffffab8
ffffc7b7
ffffd795
ffffdea8
ffffcca7
00000bb4
fffff111
fffff30d
000007a0
fffff471
ffffea12
ffffe7ba
00000992
ffffe808
000016d1
ffffc5f4
fffff0f8
ffffe6f9
ffffda1a
ffffea59
ffffd798
fffff3c9
ffffdecd
ffffe1e8
fffff234
ffffffae
ffffd3e9
ffffc45b
ffffe612
fffff820
ffffec3e
ffffdd4e
fffffa0c
ffffdfd7
fffffc0e
ffffe542
ffffdd1f
00001031
00001044
fffff1b5
000003a9
ffffecaf
ffffd35a
ffffdf43
fffff5f4
fffffbe0
00000e22
ffffdca2
ffffff30
ffffd64e
fffff47b
ffffd8a6
0000025e
fffff787
ffffce40
fffff884
ffffbaad
ffffe484
fffff8dc
ffffed83
ffffdf74
ffffd3d1
ffffc276
ffffe06e
ffffd590
fffff6b7
ffffd121
ffffdbf2
fffffd98
00001097
ffffd74e
fffffc23
0000076a
ffffdcda
ffffe913
fffff541
fffff3c6
fffff501
fffffab9
000019c9
ffffec08
000004f2
ffffb607
ffffe2ec
ffffc59e
000031e6
000012a6
ffffd6bd
ffffdaba
ffffd393
ffffeee8
fffff183
ffffd6b2
fffff80c
ffffda24
ffffe84d
fffffa6d
ffffd89e
ffffc33c
ffffe039
ffffe793
00002845
00000e9f
fffffb92
ffffd3b7
ffffe3b4
ffffd190
fffff046
ffffd5f0
00000e9e
fffff40e
fffff4f3
ffffeb6d
ffffd195
fffffb0f
ffffb3f9
ffffd836
00000b51
fffffed5
00000388
ffffffe2
ffffedaf
ffffee98
fffff362
ffffe190
ffffc71a
ffffe196
0000059d
ffffe205
ffffdb8c
fffff0e3
fffff2a6
fffff607
ffffdf79
00002be0
fffff19c
00001ed5
0000236c
ffffe542
00001687
ffffe648
ffffd41d
ffffea4e
ffffe08a
ffffe689
00000211
fffff012
fffff411
00000530
000000eb
ffffee55
000010a8
fffff2c4
0000032b
ffffe39e
ffffe536
ffffeba3
ffffd0d6
ffffe333
ffffe93b
ffffd06e
fffff769
ffffd836
00000c1c
fffffc09
ffffd41c
00000ec5
0000016b
ffffdb84
000004c9
fffff548
00000d7f
ffffd666
00000f47
ffffd39b
ffffe676
ffffe005
fffff520
ffffedaf
fffff939
000006bb
ffffea50
fffff853
ffffc63c
ffffe1b6
ffffe33e
ffffcec1
ffffeda0
000013d4
ffffe780
ffffcf4d
ffffd4f3
000005ef
0000071a
000003a9
fffff79b
ffffe4f6
ffffdcf7
ffffe4da
ffffe4c2
fffff406
00002a5e
ffffc216
00000a53
000005fb
ffffdc99
fffff6ef
ffffbe84
fffff95b
fffff526
0000078c
ffffd1a2
ffffea1d
fffff004
ffffd94f
ffffd9a2
fffffce5
00001166
ffffff50
ffffe445
fffffcee
0000054d
00001ae2
ffffeaa1
fffff6ec
ffffdaec
ffffe338
ffffd994
ffffe5a2
fffff495
ffffcb10
fffffa01
ffffdb91
00000fbc
fffff132
00000b36
ffffecb0
00000731
fffffd5f
ffffdad0
000031fd
fffff006
ffffd007
fffff19c
ffffdb42
ffffdeef
ffffc5f3
ffffd1a9
ffffd56c
fffff3c2
fffff584
ffffd5a3
ffffc1dc
fffff56c
ffffe759
ffffe62d
00000585
00000071
0000019d
000004c6
00000f7a
fffff5e2
00000e04
fffff01f
ffffdeb2
0000063a
ffffdcde
0000156b
000019cf
00000202
00000453
fffffc4d
fffffbf4
000010cc
00000fc8
ffffc754
ffffcba9
ffffc7b5
0000054d
ffffe7dc
ffffea4e
00000e43
000000e4
00000f88
ffffdf06
ffffee56
000004ad
00000aa5
00000611
00001f8f
fffff261
ffffe940
ffffe92d
fffff5dc
ffffd129
0000048b
00000a86
ffffffde
ffffe024
ffffff47
fffff058
0000111e
ffffe015
0000071c
ffffe8d7
ffffdbf4
ffffe0fc
fffff623
ffffea65
00000461
ffffddf3
ffffd960
fffff728
fffff8d6
ffffd363
ffffdd2b
000014a1
fffff5cd
ffffb963
00001035
00000c57
fffffbd3
ffffcb32
fffffc3a
ffffffd1
ffffe531
fffff35f
ffffcffd
fffff5d1
ffffe4eb
ffffe2d6
0000072d
ffffde94
ffffd373
ffffdff0
ffffe4cf
ffffe026
ffffedc5
ffffe506
000000f5
fffffca6
ffffd268
ffffd9fa
ffffed6a
fffff1f5
fffff001
ffffc896
fffff672
fffffa64
ffffd2ff
0000172c
00000e0d
fffffdff
ffffe3fe
ffffe366
ffffdacd
fffffe97
ffffe7c0
ffffe6e4
000003a5
0000137b
ffffbd8a
ffffdcc9
ffffc435
ffffe5dc
fffffbb2
fffff5aa
000003f6
fffff7fd
fffff1f0
ffffe7c9
0000056b
ffffefd1
00000193
000007da
ffffda5c
fffffa3b
ffffe70d
00001919
fffff849
00001436
ffffcf2c
fffff20e
ffffdcbb
fffffd34
ffffebf3
ffffde0b
000015b5
ffffcf58
fffffad4
0000033f
ffffd753
000000a8
ffffd789
fffff575
fffff3e4
fffff2aa
ffffe7ab
00000984
ffffe7d9
fffff0d7
ffffd13f
fffff5d2
fffffcd0
ffffea61
00000a1e
ffffcbbe
00001061
fffff25a
ffffd237
00000912
000015cf
ffffe669
ffffeb9e
ffffc6e7
fffffefd
00001b09
ffffe1a2
ffffc11a
00000b38
ffffe90a
ffffd187
00000347
fffff80d
fffffb52
fffff1a8
ffffdd56
fffff57a
ffffe0b7
fffff0b0
00002326
ffffddbe
ffffd798
fffffacc
ffffe168
fffff0f4
ffffffba
000011ef
ffffe95f
fffffe77
000012d5
fffff2e1
ffffdc80
ffffe425
fffff03e
0000068f
fffff503
ffffd069
00001dca
ffffe421
fffff077
fffffaef
ffffedce
fffff4e9
fffff59c
fffffd85
ffffedb0
ffffe35e
ffffe111
fffffbe0
000003c2
fffff58c
000001de
ffffe2ed
000008da
ffffcfcf
fffff2fc
fffff10a
000006a0
fffff036
fffff021
ffffef8a
fffffba4
fffff4d9
ffffd5f9
ffffe46f
000005f7
fffffaf3
ffffe609
fffff3b9
ffffc2d3
fffffaf6
00000328
fffffc56
000010e0
000019e4
ffffd9da
00001606
fffff25a
ffffe933
000019da
000026b1
00000f6c
fffff1ac
ffffeb8b
ffffe9fc
00000785
ffffe85a
00000a77
fffffb4f
ffffef14
fffff766
fffffd8e
fffff60e
00000325
0000020e
000007dc
fffff277
ffffde7a
00001b5a
ffffda40
000001db
fffff891
fffff003
00000adf
fffff70e
ffffe61a
ffffd497
000009a3
ffffe2d1
fffffa3d
ffffe859
ffffe651
fffffa90
ffffe82b
fffffb32
fffff69d
00001968
ffffd7f6
ffffe136
fffffb09
ffffd912
000002de
fffff7eb
fffff872
ffffee74
ffffe706
00000d24
ffffce05
ffffd89c
00000672
ffffe8fa
fffff7e0
ffffdf7a
ffffba8b
ffffd9ea
fffffe04
ffffdc88
fffff66e
fffff716
ffffe4f9
00000f27
ffffd68c
ffffe8a4
000012c8
fffff017
fffffca6
ffffefa7
ffffeec3
00000480
ffffb6a5
ffffe056
fffff5a4
fffffd98
ffffd6fe
00000433
ffffea6e
fffff2cc
00001b3d
ffffffbe
fffff1d6
fffff920
ffffe280
fffff325
00001deb
00001c1c
ffffc7bc
fffff81d
ffffd5f2
ffffd4eb
0000096b
fffffb82
ffffd6af
ffffffc7
fffffbf6
ffffe28e
00001728
ffffef14
ffffea26
00002b79
ffffff99
ffffe833
ffffed43
ffffe3bf
ffffdf65
fffffd3b
fffff8f6
000022e9
ffffe10b
00000880
ffffd585
fffff0f1
fffff93d
fffff58d
ffffeeda
ffffdeeb
ffffd93a
ffffddc4
ffffe973
fffff5c3
ffffe291
ffffe78a
ffffdc3c
fffffc39
fffff9fc
fffffdcd
fffff210
0000172f
ffffdc10
fffff88d
ffffeddb
ffffeae3
00000e52
fffff357
ffffd88a
ffffd0f0
ffffed69
ffffe6ef
00000c20
ffffe60a
ffffd798
fffff1b3
000013d6
fffff0c4
ffffe2b5
ffffe9ed
fffff2f0
00000d55
ffffd690
ffffd58c
000006ea
000005fa
ffffdfed
00000052
fffff75e
ffffeac5
fffff1c7
fffff88e
000024dc
000002c2
fffffc1b
0000013b
ffffd2f0
fffff633
ffffe074
ffffc5f0
00000da3
ffffdd15
ffffc91a
ffffded2
ffffcc42
00001d97
00001345
ffffeacd
fffff2fd
ffffed15
fffff14c
ffffe38a
fffff1ac
ffffce77
ffffdf74
00001258
00002f3d
ffffeec8
000000b6
fffff2a3
ffffc74e
ffffe6f2
ffffd9ad
fffff0db
ffffe5bf
ffffc80a
ffffe75a
ffffc24d
ffffe8c9
ffffe8a2
ffffdacc
ffffefb1
ffffdad8
ffffe599
ffffc211
00000bc4
fffffc2f
ffffec2b
fffff873
000015b0
fffff2b6
ffffc6fe
00001bfc
ffffdfbf
ffffe576
fffffb58
ffffd63e
00000595
ffffeb68
fffff0c8
ffffee94
fffff6aa
00000d47
ffffd559
ffffeb97
ffffd91e
ffffe600
ffffe403
ffffdf8e
00000903
000006ec
ffffcf38
ffffece3
ffffe476
ffffe67f
ffffff57
ffffd99e
fffff77f
ffffefdf
fffffbad
0000095b
00001206
fffffb76
00000d3c
ffffd3de
ffffe0af
fffff157
ffffcf1f
ffffda11
fffff7e7
000007dd
fffffc25
ffffe565
fffff714
ffffd97b
fffff930
fffff648
ffffbb6d
ffffbe72
ffffe41f
ffffeffb
ffffcf04
fffff478
00000203
ffffeb38
fffff50a
ffffee24
ffffd563
fffffcff
ffffe63c
fffffe4b
fffff7a9
ffffd84f
ffffd073
fffffafc
ffffe731
ffffe87c
fffff3fd
ffffdb34
ffffcc3e
000011ed
fffff56b
ffffe5a2
ffffc00a
ffffbd25
ffffdb99
ffffedfa
0000002e
fffff2de
fffff9bf
ffffd731
ffffe83e
ffffd541
ffffe91b
fffff220
00000bfb
ffffde75
ffffed37
ffffef3f
ffffe66a
000012db
ffffdb07
fffff9df
ffffe69d
ffffe153
000007ed
00000619
ffffe4e2
ffffd413
0000165b
ffffe1ed
ffffdf1c
fffff488
ffffd500
fffffbba
ffffed25
fffff3fd
ffffcb27
ffffe4e7
ffffd6e1
ffffd50c
ffffcbfe
ffffea45
fffff2ec
00000203
ffffe032
00000807
ffffed49
00000dae
ffffe971
ffffe6a9
00000c6c
ffffd10b
fffffd94
fffff63a
fffff51e
ffffe10b
ffffdfd3
ffffea15
00000091
fffff8eb
ffffb2ae
fffffa81
fffff2dd
00001081
ffffded5
ffffea4e
ffffdec5
00000899
fffffc87
ffffd9f6
00000fdb
ffffd84c
ffffedd7
00001795
ffffe8ca
ffffec00
ffffedfc
ffffdc91
fffffd67
ffffe50b
ffffdcfa
fffffb05
ffffe6de
ffffe1c3
ffffdd27
fffff774
ffffeb77
ffffd23c
ffffcd8d
fffff6a1
ffffeb89
ffffdd53
000014ad
ffffe67f
0000210f
fffff697
000001c9
fffffdc2
000002b1
ffffde61
ffffe77b
00001377
ffffebd6
00000078
fffffdd4
00000925
ffffd575
ffffe176
ffffec7a
ffffe794
fffff651
ffffd09d
000005f7
ffffed8c
ffffff2c
ffffec2c
fffff2fe
fffff798
ffffec8b
ffffdfd5
fffff8aa
ffffc716
fffffa84
fffff1c6
ffffed33
ffffd94e
ffffd4c3
00001621
ffffc4ef
ffffbd03
fffffbdb
ffffe274
ffffe25e
ffffb8d0
00000a66
0000073f
ffffe51e
ffffd17b
0000009c
ffffe6f2
00001530
fffffe6c
fffffdb4
ffffe771
ffffec40
ffffd6e1
ffffe8dc
ffffe091
fffff7e0
fffff1ef
ffffda52
ffffe5f8
ffffdc27
ffffe593
ffffe44a
ffffd540
00000023
ffffc73a
fffffb9d
0000097a
fffffedf
00001384
ffffe1ea
ffffc48a
0000118e
ffffeaf6
ffffe490
ffffef0c
ffffe0ce
ffffed2b
fffff3d9
ffffe264
0000024a
ffffceff
0000098e
ffffd04f
ffffd6e8
ffffefce
ffffd501
fffff3fa
ffffb223
fffff74b
ffffe1ff
fffff79d
000027b8
ffffe951
fffff5c6
0000149a
ffffe251
0000016c
00000378
fffffa7f
ffffcd1f
0000095e
fffff897
ffffeaf4
fffff2e0
fffff4ea
ffffc59d
fffff31f
00000256
ffffe6cb
ffffd1c8
ffffcb5e
00000aad
fffff949
0000005c
ffffde42
fffff699
fffff442
ffffeafa
00000894
fffffabd
ffffc856
ffffda9a
ffffde9e
ffffdfa5
ffffffac
000008af
fffff92e
0000070b
ffffd219
ffffe2ac
ffffc662
fffffd9f
fffff030
ffffef82
ffffe56a
000000ba
fffff32f
fffff682
fffff419
000014bb
0000018d
fffff4fb
fffffd88
fffff892
00000479
fffffc9b
fffff0e6
ffffed66
fffff2c4
ffffd7d4
fffff11e
ffffd418
ffffd7b5
ffffef23
ffffd8b8
00001b41
fffff8af
00001028
00000ca7
ffffa79c
ffffefef
0000119c
fffff4b5
ffffde85
ffffd0fd
ffffdef7
ffffd628
ffffb469
ffffe8bc
fffff4c9
00000340
fffffaaf
fffffe2d
ffffcc34
ffffe229
ffffcbc9
000015df
fffff346
fffff4bf
00000e31
ffffed47
00000d69
ffffe7bd
fffff7c3
fffff8b4
fffff5bc
fffff3f3
ffffdd57
ffffe4ea
000005a5
ffffe560
ffffffe2
ffffdd2b
fffff6d8
000000c3
fffffa30
ffffed1c
ffffeb7b
00001a87
000007f6
fffff127
ffffe161
0000088a
ffffe400
ffffed1c
ffffdb9c
ffffdb98
ffffed84
fffffefe
ffffee8a
00002303
ffffea1d
fffffefb
ffffcabe
ffffe5c8
ffffd667
fffff5e8
fffff887
000008c6
000009a2
00000015
ffffe87d
00000262
fffff8e9
ffffcf52
fffff9a2
fffff6cf
fffff009
000000e0
ffffdc3c
fffff568
fffff868
00001599
ffffe35d
ffffbcd4
ffffe9c9
ffffc67c
ffffce42
ffffef41
fffffff4
00000d49
00000034
ffffd750
fffff231
ffffd963
ffffea29
ffffeb16
fffffc52
ffffe34b
00001a5e
fffff181
ffffe27c
ffffe17c
ffffd439
ffffe38a
00000d5b
ffffe844
ffffe657
00000eff
ffffcff6
00000a39
fffffaf3
ffffec8f
000037cc
00000207
ffffef67
ffffdca0
ffffdf1a
fffffbfc
ffffe0d9
ffffe1a6
ffffdacc
00000120
0000015e
ffffee42
ffffe5f9
fffff0d3
ffffebd8
ffffe6b6
ffffd67d
ffffe044
fffff8b6
ffffb4ad
000020c8
fffff716
ffffe2ef
ffffc0d1
ffffd8a1
ffffdaad
ffffff25
ffffe70a
fffff9e8
ffffe286
ffffdebf
00000b59
ffffee2d
ffffce76
000013e2
fffffac2
fffff0ef
ffffedb6
ffffe899
ffffd671
ffffe8e4
fffff9a2
ffffb95b
ffffce1b
ffffcec5
ffffe714
ffffde4b
fffff9d4
ffffcf9c
ffffed57
ffffe179
ffffe49d
000004b4
00000186
0000067d
ffffe3fd
00001425
000013c4
ffffd32a
ffffccb6
00000f21
ffffd941
ffffe889
ffffe732
fffff304
000014dc
ffffe1c4
ffffe5bf
ffffea50
00000330
ffffef17
fffff17a
ffffe383
fffff1f3
ffffe07c
ffffffa8
ffffcfce
000010e6
fffff04c
ffffe2c9
000010fa
ffffdff5
fffffb83
ffffc7c7
ffffe614
ffffda8d
ffffe4b2
000009f5
ffffea8d
00000340
00000a4f
fffff0ca
00003399
ffffea9d
000005c9
000001fe
fffff846
fffff46c
ffffd117
ffffcbc2
ffffc366
ffffdfdc
ffffecb9
00001032
00000a1b
ffffec45
ffffe473
00003741
ffffff17
ffffe81c
ffffe325
ffffd409
ffffd6de
ffffde2d
00000778
00001036
000003e7
ffffd66b
fffff480
fffff3f2
ffffeefc
ffffdfee
ffffc5c3
ffffe40d
fffff602
ffffd958
ffffd189
ffffd92c
00001f54
0000021e
fffff87a
000004b1
00001b9c
ffffec22
0000004e
fffff3d9
ffffeab9
00000128
ffffdfb9
fffffaba
ffffecfa
ffffca07
fffff5fc
ffffed15
ffffdb2d
ffffe962
ffffff89
ffffeb1c
fffff9b7
ffffd70c
fffff0d2
00000b17
ffffdd4b
ffffffaa
ffffe8cf
fffffcae
00000144
ffffe9d5
fffffd39
ffffc7ad
fffff993
ffffdf70
fffff10b
fffff636
ffffda05
000013c0
ffffc2ab
ffffd1b6
fffffffc
000002c2
ffffe730
00000512
fffff132
ffffd041
00000e18
ffffecf3
ffffea3f
ffffdab1
000009e6
fffff537
0000036f
fffffd43
ffffe96a
fffff7e8
ffffd8ba
ffffd25f
ffffe2ef
00000401
fffffa30
ffffd75c
ffffea4b
ffffeefa
ffffd563
ffffcc04
00000ebb
fffff6c9
ffffeced
ffffdb0d
ffffd1b7
ffffc763
00001617
ffffd32e
ffffd922
ffffbf0a
fffff92b
000004fd
fffffaac
00001703
00001879
ffffbaba
ffffedc4
ffffe910
ffffd8d1
ffffe95a
fffff4a8
00000f05
ffffdb0a
ffffe4c5
ffffc9d0
ffffd43f
00000333
ffffe7e3
fffff91c
ffffe32b
ffffe7cc
ffffc026
0000093f
fffff1d3
ffffe22a
ffffe99a
fffff7b0
00000a03
ffffe508
ffffd5ad
ffffe530
ffffe154
ffffe3ac
0000058e
ffffddc5
ffffe1f0
ffffe27b
00000216
ffffc5de
ffffe22b
fffff18c
000009b0
ffffde13
000019bf
ffffec9c
ffffca8d
fffff41a
ffffefba
ffffde56
fffffdef
fffff5e3
fffff278
ffffd4b2
ffffd0e1
00000667
fffffc21
ffffc76a
ffffe43c
ffffca43
fffffb8c
fffff80c
ffffc638
fffffb6f
ffffd6ea
ffffeb35
ffffe626
00001f23
ffffe39b
fffff653
fffffed8
ffffeb99
0000088d
ffffdecc
fffffe12
00000d16
ffffe17f
ffffe03b
ffffea30
ffffcfa9
000003e3
fffff4ec
fffff26d
0000037d
ffffff48
fffffd90
ffffeb78
ffffeb32
fffff40d
fffff4e0
ffffd9a4
ffffe412
ffffdc90
ffffde9a
ffffe589
ffffdad7
0000123a
ffffd1fc
00001207
00000468
fffffcaa
000008ad
ffffd1cb
00000f79
fffff953
ffffe0f8
fffff80d
ffffcc61
ffffef0e
fffff6f0
fffffb4d
fffff7e5
00000d83
ffffe3bc
000000fe
fffff5b1
fffff421
ffffd1d9
00003798
ffffdc65
0000065c
ffffef8a
ffffdee7
ffffea31
ffffcedf
ffffc33b
ffffee43
fffff693
ffffc06f
00000802
ffffe5ef
ffffe13c
ffffefc3
fffffd9f
ffffdbe5
00000e61
00001341
ffffeddf
ffffff65
fffff06b
fffff56a
fffff7c5
fffff84b
fffff13e
ffffe34f
fffff2e9
00002081
fffff5e3
fffffeae
fffffc88
ffffeb19
ffffecf5
ffffe423
fffffc50
000011e1
ffffc03f
ffffefe4
ffffe457
fffff6d4
ffffd20d
fffff514
fffff0bc
00001cb5
00000c41
ffffe4b0
fffff61f
ffffe762
ffffcd7d
ffffdbf8
fffffd8a
ffffdb91
ffffe580
00000316
ffffd1ac
00000fd4
fffff2de
fffffe57
ffffec7e
ffffed39
00000dc0
ffffe556
fffffd77
000005f9
ffffef48
fffff687
00000f4a
fffffc23
00000077
000003d7
ffffe613
fffffd1e
fffff7e5
fffff478
ffffcf76
ffffed5b
fffffd07
ffffded1
00001706
0000030d
ffffdaf0
ffffe616
ffffdd78
ffffeb46
000004d4
00001644
ffffe1bd
000004c7
fffff55c
fffffc4a
fffffaae
ffffde1b
fffffbdd
00000163
ffffd931
ffffe039
ffffec4e
00000110
000005cf
ffffecb3
00001072
ffffe0ca
ffffc9f9
ffffcbdc
ffffddd0
ffffe1c9
0000218d
ffffef73
ffffec62
fffffdd9
ffffb7df
fffff796
000006e8
0000012a
ffffe0ff
fffff8ad
ffffd8d2
ffffc633
0000026c
ffffed1a
ffffd485
fffffadd
00001c1b
ffffb071
0000136d
ffffd3e9
000006e8
ffffd086
fffffda4
ffffedc3
fffffd47
0000047f
00001511
ffffe09b
00001457
ffffe97c
00001970
ffffe493
ffffdc60
0000116a
ffffcaed
ffffece2
fffffcbe
00000561
ffffe94b
fffff216
00000b91
00000a27
ffffda83
ffffe1ef
ffffdf8d
ffffe8a9
fffff1be
ffffe3c6
000008a6
ffffed67
00000792
ffffeffa
ffffcf28
ffffd1e9
ffffde22
ffffee60
fffff899
ffffeacd
fffff6fa
ffffee5e
ffffdab4
ffffdf0e
ffffe805
fffff180
ffffd8bd
fffff670
ffffc569
ffffde6b
ffffd83a
00001511
fffff67e
fffff3df
fffffd5e
fffff64b
ffffbaf6
ffffef75
fffff9fd
00000a2c
ffffd463
ffffe964
fffffa76
ffffe8ba
ffffedb8
fffff5cf
fffffbf4
ffffe3f3
fffffe30
ffffd619
ffffbdc7
ffffd1b6
fffffe61
000018e0
fffff3db
000015f7
ffffdc3a
ffffd5f6
ffffe8fd
fffff0a4
0000025a
fffff685
fffff696
00002f6d
ffffc503
fffff7d1
ffffe140
000009d2
fffff814
ffffe8bd
fffff9fb
fffff771
fffff412
ffffc92a
ffffffe8
ffffc195
fffff760
fffffd3e
ffffe558
00000706
fffffcac
ffffecce
00000904
ffffcf09
ffffef1b
ffffcee3
ffffe30d
ffffe6fe
00000433
ffffed7a
ffffecde
fffff0f7
fffff2b5
ffffd2b3
ffffc1a6
fffff137
ffffd625
fffffd11
00000ee6
fffff8ab
ffffed32
0000067b
ffffcbcb
fffffb1b
ffffd380
00000903
ffffeb9a
ffffeb4b
ffffd95d
fffff8b5
000001cc
00000325
fffffc59
ffffecd4
ffffe9fb
ffffec2b
00000a6f
000005b5
000013ef
fffff55a
fffff575
ffffdf9a
000003d1
ffffe733
ffffbe89
ffffdc3d
ffffe5b5
ffffebf1
00001e62
ffffdf39
ffffe4e9
fffff7bc
00001bac
ffffe3f4
ffffcba6
00001339
ffffeb38
ffffeffd
ffffe984
ffffc9df
000002d8
fffffeb6
ffffe351
ffffeaf0
ffffe2b3
0000038d
fffffc43
ffffec78
ffffe320
ffffd81b
ffffc7b0
0000022b
0000101a
ffffe4ea
fffffea6
0000034e
fffff7bd
00000137
ffffea97
ffffd925
ffffebb7
fffff061
ffffd6b0
ffffe58e
ffffee28
ffffd9ed
fffff9f4
fffff47a
ffffd5ed
ffffe8e5
ffffd0dc
fffff471
fffffe3b
ffffde38
ffffe954
fffff894
00000a8c
ffffed7b
ffffeace
ffffe1be
ffffd96b
ffffe3b6
ffffcf7d
fffffe7b
ffffd6e2
ffffe554
ffffe6d4
ffffda46
00000493
fffffb41
ffffe48d
ffffed3d
ffffef9d
ffffd7b8
000005f5
00000de0
00001abf
fffff7e4
ffffce8e
ffffc167
fffff5ae
fffff610
ffffecfa
ffffcb7a
fffff1f7
000004d9
ffffda89
fffff818
ffffd06c
fffff8eb
fffff362
00000d75
ffffffbe
00000171
fffff2f1
ffffeca5
000009a1
ffffee95
ffffdd56
fffff431
fffff43e
ffffd725
ffffe2d5
ffffd342
000011e4
ffffb29d
ffffd865
000009aa
ffffebfe
ffffe1a4
00001323
ffffd985
ffffefef
00002594
fffffa01
ffffe2cf
ffffe4dc
00000481
00001426
ffffd244
0000093e
0000179a
ffffe44d
0000066f
fffff571
000003cf
00001a6b
ffffd433
00000027
ffffd5ca
ffffe240
ffffe647
ffffb7d1
ffffe822
000009df
fffff425
fffff4b7
fffffbaa
ffffd55a
0000078f
ffffc69a
000001dd
fffff8f7
ffffff8b
ffffea87
ffffc489
fffffe47
fffff825
ffffebed
fffffef9
ffffcb5a
00000222
ffffeb12
00000c4d
fffff350
ffffe9b0
fffffe9a
00001238
ffffec28
000002d4
fffff030
00000a2c
0000078d
fffff173
00000242
ffffee0e
0000052b
ffffef29
ffffd2fa
ffffda3d
fffff5c7
00000ea0
ffffe904
fffff039
0000032d
ffffdad1
00000f0d
00000871
00000b1e
fffff146
ffffe6d8
ffffdb11
ffffe585
ffffd86e
ffffd184
fffff092
ffffee21
00001dd8
ffffb9bc
00000e78
0000042b
ffffed82
00000156
00001168
ffffdab7
ffffd9a7
fffffe81
fffffe46
0000034b
ffffd274
fffff959
ffffe3dd
ffffdadb
ffffe8d5
ffffd868
ffffc267
ffffdcdd
ffffd51b
ffffe08c
ffffcf15
ffffdb1a
fffff4ce
fffff46d
0000169f
ffffe03d
0000131e
fffff818
ffffd614
000001a7
ffffebf5
000010de
00001328
ffffe4c5
fffff157
ffffc98c
ffffd1a8
000000af
ffffe110
fffff53c
fffff1d8
ffffe4f4
ffffdb75
ffffec47
fffff2e7
ffffea00
fffff04c
ffffe34c
ffffe6c9
fffffc66
ffffd86b
ffffee5a
ffffee3b
ffffd265
fffff41d
000011db
000017d6
fffff5a6
0000142b
00001a0e
fffff7fd
ffffebd6
00000379
fffff1c8
00001a98
ffffeb52
fffff4d9
ffffee97
ffffe395
ffffea89
00000be8
00000c62
ffffd343
ffffecc5
0000101e
ffffdd86
ffffd2f7
ffffe50b
ffffec14
fffff487
00000a7d
0000028e
fffff7bb
ffffe38b
fffffd0b
ffffffb7
ffffed79
000013ae
ffffd71f
ffffd0d5
ffffe3f3
ffffea3b
ffffe603
000017d9
00000bf2
000012fb
00000b20
ffffff40
ffffd5cb
ffffd332
0000160f
ffffe96e
fffffc52
0000004c
00001d1c
fffff8bc
ffffe827
00000be2
ffffe5d8
fffff18c
fffff1ea
ffffea80
fffffe6d
00001834
ffffed8a
fffff5b9
ffffd7cd
ffffece7
ffffd9af
ffffce82
ffffd8fc
00001354
ffffe3f9
fffffbab
ffffee51
fffffa79
0000057f
00000338
ffffffe4
ffffeb8f
ffffe657
fffffc84
ffffe9ea
fffffd85
ffffe0fd
ffffee11
fffff1aa
000004ef
ffffedf6
ffffed14
fffffdd8
ffffe6fb
fffffd96
fffff8d6
00000b57
fffff07e
fffff47f
ffffe7ca
ffffec1d
0000028d
ffffee18
ffffe94d
0000024f
ffffe104
ffffead5
ffffc1db
ffffe6a8
ffffe32f
ffffe56c
fffff590
ffffe515
ffffeb7d
fffffb55
fffffebc
ffffea0d
ffffde1f
ffffdcd6
ffffca37
ffffebd5
0000124e
ffffe074
fffff9da
00000514
fffffed5
fffffd90
fffff0a4
fffff465
0000051d
ffffe596
fffff350
ffffb103
ffffe429
fffffea9
ffffebbc
fffffa35
0000023e
000004e2
ffffe4f4
ffffecde
ffffcf16
ffffe74d
fffffcd3
ffffdd95
fffff5ea
ffffeb0e
ffffce45
00000116
fffff870
00000126
ffffddc0
fffffe69
ffffeb44
fffffa53
ffffe531
ffffedaf
fffff81b
ffffe58e
ffffe344
ffffe0e8
ffffe71c
00000059
ffffec2f
ffffd950
ffffd681
fffff4ee
ffffbd68
fffffa3d
ffffe1e0
ffffcb5c
fffff2c2
ffffb7fb
fffff049
00001298
fffff44b
fffffcb2
fffff3e6
fffff16c
00000aca
ffffca82
ffffc905
fffffbd5
ffffe71c
ffffe610
00001677
fffffbdf
ffffe24a
ffffe37e
00001096
fffff5d2
ffffdea3
00000566
ffffecd5
ffffe65f
ffffd601
00000a2e
ffffdacd
fffffbd4
fffff32f
fffffefe
00002277
fffff29c
fffff17e
fffffad0
ffffeb08
fffff74e
ffffe45d
fffff1a5
fffff70e
fffffb89
fffffe5e
ffffecda
fffffcba
ffffe09b
00001d7c
00000127
ffffce0e
ffffd3df
fffff220
ffffe7ce
0000039a
ffffd604
ffffec48
fffff0e7
0000256e
ffffdd14
ffffcf68
ffffd9e0
00001759
00000280
fffffce1
ffffe102
ffffe8a6
ffffe4a6
ffffdd95
fffff5fd
fffffe7a
ffffd6ed
ffffdce9
ffffffdf
0000149c
ffffec26
00000e07
ffffe51b
ffffc90e
000001b0
fffff2d9
fffff262
fffffdee
ffffd354
ffffdfb2
000000f4
00000470
ffffd9c4
fffff79d
fffff299
ffffc350
ffffedf6
ffffe3df
fffff99b
fffff6af
ffffdce1
ffffe361
000009bd
ffffd3bf
ffffdae6
ffffdf9d
fffff5b2
ffffed1d
ffffe931
ffffeab1
fffff758
00001356
00000f1f
ffffd1b8
fffff11a
ffffe1a1
fffff531
0000013c
000004d6
00001597
fffffac2
fffff0d1
ffffcccb
00000b09
fffffdb2
000015ba
00000d7c
ffffefd6
ffffde5a
ffffd802
00000caa
ffffe253
ffffe764
ffffd96a
00001f1c
fffffce3
fffff654
fffffb23
ffffdff6
00000aff
fffff63f
000028bd
00004c91
ffffe12a
fffff806
00001f0a
ffffe984
ffffe36b
ffffefe2
ffffddd6
0000172c
fffff3e7
fffffe76
fffff3a2
fffff34e
ffffe417
000021c2
fffff25c
ffffd58c
fffff2fe
fffffda0
fffff10f
00002c67
ffffb4ed
ffffd2de
ffffea12
ffffda64
00000a6d
fffff610
ffffdb8f
0000089f
000009fd
fffff709
ffffd8b8
ffffe02e
ffffd99d
fffff5f9
ffffffaa
fffff8d8
ffffe45c
000017d1
fffff52f
ffffdeb9
ffffdfc6
00000256
fffff965
ffffea7c
00000073
fffff7e6
ffffe42d
ffffda43
ffffebcd
ffffe8a5
ffffe81c
ffffc847
fffff789
0000007d
ffffea2c
0000123b
ffffe812
00000166
fffff2dd
ffffd7b4
ffffdcea
ffffdc71
ffffe6be
fffffb7f
ffffd1c8
0000092e
fffffb98
fffff6aa
ffffc389
00001265
00000aa4
ffffda16
00001228
ffffef35
ffffff6b
ffffd6f1
fffff45a
ffffd6d2
fffffadf
ffffd4f7
0000057b
000005c3
0000045d
ffffe49d
ffffee89
ffffeb14
fffff07e
ffffd9a9
ffffe25c
00000aac
000010ec
ffffe9e1
0000018c
ffffe6e0
00000e88
ffffffce
ffffc639
ffffdfe3
0000009d
fffffce5
fffffe6b
0000078e
00000b70
ffffd0fe
fffff4db
ffffdcb7
fffff58b
ffffdb60
ffffed1a
00000441
ffffd6ca
fffffb3b
fffffcaf
fffff5b6
000001f0
ffffdfc7
ffffd90f
000000b4
fffffac2
ffffed35
000001b2
ffffd957
00000f41
ffffdc7a
ffffd7d0
ffffef6e
ffffbe7a
ffffde07
ffffecae
ffffcb5b
ffffef4b
ffffe8f4
00001721
00000454
fffffeaf
ffffd482
ffffe30a
00000c8a
fffff5df
fffff56b
fffff52e
ffffe40c
fffff6df
fffff286
ffffd55f
ffffe9f1
ffffd9c6
ffffe888
0000285e
ffffeb6c
00001936
ffffd91f
ffffd998
ffffcb69
ffffebd5
fffff9a4
ffffe26e
ffffd542
ffffe7ab
fffff1e1
00001ca4
ffffc7f7
ffffda99
ffffeb06
ffffe5b9
ffffee84
fffff897
ffffdb8a
ffffddbd
ffffc987
ffffd84e
ffffcc42
ffffb180
000009b2
00000fd8
fffff1f0
00000df7
ffffd7b4
fffffadd
ffffe9c9
ffffd9ce
ffffe2c0
ffffe0fa
ffffdd11
ffffce71
000006c8
ffffe333
fffff3c8
fffffde8
ffffe879
fffff85c
ffffdd90
ffffecd6
fffff855
fffff801
ffffeb7c
fffffdff
ffffe76b
ffffeb8d
ffffe6cf
0000011e
ffffbec8
ffffecc4
fffffb71
ffffd5d1
00000730
ffffff7e
ffffef4e
00002999
ffffd267
fffffb29
fffff3aa
ffffe1ba
ffffe8f6
00002477
ffffe444
ffffeab2
ffffddf7
fffff616
ffffe3e7
ffffdbb9
ffffe72b
000007a0
ffffcfce
fffff664
ffffcdca
ffffcc02
ffffe2c2
ffffe4a1
00001391
ffffd49a
fffffc40
ffffff84
ffffec75
00000c93
fffff3a3
fffff881
ffffe28b
ffffe35f
00001f6c
000012ec
00000538
000004f0
00000464
ffffda36
ffffefdb
00001da6
0000015a
ffffd488
fffffaac
000001d2
ffffe4aa
ffffea61
ffffdb28
fffff1b3
ffffddd9
fffff7fe
ffffdf8a
ffffee8f
fffffec1
ffffdac9
00001e76
ffffdc33
ffffc753
fffff52b
00001621
ffffcba9
ffffe06f
ffffda2b
ffffc6d7
fffff392
00002904
fffffb7c
ffffe0cb
fffffd11
ffffe70e
ffffd4e8
0000003f
00002143
00000774
fffff464
ffffe4a7
ffffefdf
fffff754
000004fc
fffff220
fffffa2a
ffffd5af
00000a92
ffffeba4
00000317
fffff40a
ffffd0cd
ffffde51
00000b14
ffffe2e9
ffffe455
000017de
ffffcfca
000000c2
fffff9fd
ffffddc3
ffffe013
0000053d
fffff3fb
000008df
ffffe99f
ffffdf50
fffff6d1
fffffa67
fffff55d
fffff8a9
0000077f
fffff2c7
ffffea5e
fffff529
ffffdec6
ffffc260
ffffe11b
000012fe
fffffe6d
00000f03
ffffeb80
000009e3
ffffdfe4
ffffd5a0
ffffdb97
ffffe11d
ffffff4b
00000b2c
ffffe64d
ffffe526
ffffff47
0000044b
fffff375
fffff0d9
ffffe69f
fffff7fc
ffffd586
00000049
ffffe32d
ffffe0dc
fffff203
fffff0e0
0000144e
00000b19
ffffcd80
ffffe8c7
ffffe53d
00000400
000009c7
ffffea0f
ffffcc9e
fffff814
ffffd6c8
ffffd227
ffffec96
ffffe6a2
ffffe666
fffff43d
ffffe203
ffffe436
ffffd214
ffffde64
fffffee8
ffffeec5
0000090a
ffffda1f
ffffdac4
ffffbc67
000003d0
ffffe70a
ffffedec
ffffd948
ffffcd81
ffffe56a
ffffe74e
0000054b
ffffcfb5
ffffec10
00000755
ffffd74e
ffffdcb8
ffffee2c
fffffee9
fffff4e0
fffffc65
ffffdc64
fffff3cb
fffffe21
ffffd269
00001814
ffffe9cb
ffffc9dc
fffff78a
ffffef70
fffffc74
ffffff94
fffff747
00000aa2
ffffdd2c
0000116d
ffffc8a0
000001d1
fffff57a
00000956
ffffd7f8
fffff0a2
0000374a
ffffdc84
ffffdf75
000012d2
00001784
fffff030
ffffc435
ffffdd90
ffffd50c
00001ac2
ffffecc1
ffffdf94
fffff46d
ffffd9db
ffffe5f3
fffff0a5
ffffdac3
ffffb4c2
fffff359
00000907
ffffd740
00000a72
ffffdca9
fffff46d
fffff4d5
ffffd032
ffffd9b8
ffffe192
ffffe7be
0000004c
0000047e
ffffdc8b
000017ad
ffffd202
ffffe65e
ffffe657
00001750
ffffe73e
ffffc5ec
ffffe716
000003f1
0000018d
ffffde91
ffffe54f
0000001c
fffff912
fffff36c
ffffc3e6
ffffe890
ffffef53
fffffa67
ffffe4a3
ffffd279
fffff809
00000156
ffffe2bb
ffffd500
ffffcfeb
ffffcbcd
ffffe2aa
ffffec11
ffffe4b5
00001b06
fffff35d
ffffedfe
ffffeec9
00000462
00000b54
00000231
000023a3
fffff574
fffffa7e
00000763
ffffee71
ffffde94
ffffea9e
ffffff9d
000007c8
fffff92f
00000385
00000231
00000221
ffffffaf
ffffd66d
ffffec04
fffffbdd
ffffdfb6
ffffec51
ffffc7da
ffffe926
fffffd2e
00002813
ffffe161
ffffe7b1
00001d76
00001cac
0000187a
ffffd64b
00000a39
fffffe15
00001247
ffffef34
0000294d
fffffe26
00000519
ffffe3a6
0000152e
fffff799
ffffd8c0
fffff451
ffffba99
fffff205
fffff66c
fffff23c
00001797
ffffeb59
fffff7dd
00001d8e
00000776
000001ee
ffffe2a8
00001777
ffffe622
00000b46
000003fe
00000652
0000031e
fffff668
0000012e
ffffeaff
fffff8e5
ffffe3f2
fffff39d
ffffd685
fffff45e
fffff41b
ffffe92b
ffffd234
ffffee12
ffffe0cf
fffffa22
fffff46f
ffffe759
ffffe3dc
ffffcea3
0000021b
fffff488
fffff846
ffffdd0b
00000457
ffffdbf7
ffffd855
ffffe0e2
ffffdb56
ffffdb3a
ffffd1ec
ffffc20d
fffff8a4
ffffe5e8
ffffeb51
00002042
00000a42
ffffed27
00000285
ffffe8c1
fffff8d6
ffffd354
ffffdcc1
ffffd88a
ffffef25
00001846
fffff957
ffffc65d
fffff292
fffffc4d
ffffdb30
ffffdc25
fffff794
0000213c
fffff766
ffffe648
fffffa8d
000016f8
fffff98a
fffff29d
ffffe73f
fffffac0
ffffce76
fffff6cc
ffffb503
0000092b
fffffcb3
fffffd75
00002873
ffffe5e0
000001e2
fffffce4
ffffded7
ffffde4b
0000004a
00000658
ffffe579
ffffeb67
ffffee6b
00001516
fffff69e
ffffe07a
ffffeedc
ffffe3e1
fffff1b3
ffffe322
ffffc58c
00000355
fffff6d8
ffffae99
ffffffb5
ffffeb32
fffff356
00000f17
ffffe9d6
fffff5ae
fffff67d
fffff65e
fffff4bb
ffffe9f7
ffffda62
ffffdbb4
fffff437
000006f3
ffffdec2
ffffee24
ffffdedd
fffffa05
000003af
00000687
ffffee82
00000fc6
ffffe552
000003da
ffffdb97
fffff0f4
00001253
ffffd9b3
ffffef03
fffff512
ffffec75
fffffc6f
ffffe95c
fffff1d4
fffff507
00000bc2
00000395
fffff20e
fffff923
ffffd6df
00001bc1
fffff3c8
0000014b
fffff6f9
000005f7
ffffdbd1
fffff20b
ffffeb47
00001046
fffff054
ffffe733
ffffd70b
fffff209
ffffdfe7
ffffde2a
ffffef71
ffffd9b4
ffffcc94
ffffd754
00001378
000004f1
ffffe622
fffff979
00000375
00000a69
ffffd665
fffff9d5
ffffed2c
0000025f
ffffdf44
ffffe94c
ffffeaf0
ffffd272
fffff158
ffffe771
ffffe32f
ffffde96
ffffd05e
fffff4d4
fffff6db
ffffe1a4
ffffe136
ffffedeb
fffffc19
fffffc6a
ffffea94
ffffe773
fffffdbe
fffffd0b
ffffdd4e
000002b0
ffffcfb3
fffffdff
fffff339
ffffef49
ffffffa1
fffff4c7
ffffe791
0000108e
00001c96
ffffc756
fffff25d
ffffeedc
ffffe0af
000035d3
fffff1d7
ffffd959
fffff197
00001815
000018a0
00002f6a
00000083
ffffcbe8
ffffdd27
ffffe8b3
fffff0cf
ffffd7be
ffffd3ce
ffffe41f
fffff555
00001898
00000c66
fffffcaa
ffffe95a
fffff22a
00000864
ffffd686
ffffd34e
ffffe5d8
ffffeb47
ffffdd56
fffff2b8
ffffebfc
ffffdc53
ffffdecb
00001333
00000606
ffffe475
ffffe6c1
00000546
00000004
ffffd26d
ffffda85
ffffd8c7
fffff1f6
ffffe6c5
0000079a
00000263
ffffc911
00000e40
000004df
0000086c
fffff84e
fffffac5
fffff2ca
000011bb
fffffa31
ffffe579
000002ab
ffffe960
ffffd945
ffffe7a7
ffffc527
0000009f
00000cae
ffffd23b
ffffe85c
ffffd014
ffffe580
ffffd2d2
fffff6f8
fffff07c
ffffe321
ffffcf2f
ffffd41d
ffffe7d3
fffff2a3
fffff759
000005cd
fffff517
fffffa4c
ffffff47
ffffcd3a
000010ee
fffff72d
ffffeb38
00000784
00000ff2
0000262a
ffffbdbd
0000056d
fffff370
00001e02
ffffd61d
ffffc67f
ffffecaf
ffffcd21
fffffe8a
ffffb3a1
fffff557
ffffec67
0000021c
fffff33f
ffffed9c
ffffd550
fffffae1
ffffe341
00001b29
ffffef85
00000699
ffffe9f2
000009a8
fffff3cb
ffffe4a9
ffffe70a
ffffefe0
fffff235
ffffde6c
00000137
ffffdfeb
ffffc7d0
ffffeef4
fffff272
00001a71
ffffe99e
00002072
ffffd35b
00001538
ffffd10c
0000104c
fffff068
ffffc8ba
ffffd32d
ffffec2c
fffff3ee
ffffe5dc
ffffe777
ffffb1f7
fffff04e
ffffff45
ffffefd6
000005dd
0000120e
ffffcb0a
ffffef04
ffffdad4
fffffb96
fffffe30
000003e8
fffffd57
fffff074
00000fd5
ffffe345
ffffe69d
ffffe186
ffffec56
ffffe12b
000018c6
000021af
fffff4ae
ffffcba1
fffff649
fffffa8c
fffff755
ffffcf0d
fffffae5
000006f3
fffff4be
00001aaf
ffffc153
fffff6a8
ffffe03d
ffffef29
fffffc71
ffffe81a
fffff9d8
fffff8ce
ffffeea7
fffff104
00000461
ffffed4d
ffffd2a9
ffffed1c
ffffe75b
ffffff6b
000003f9
fffff765
fffff75f
000012a0
ffffeeb7
fffff810
fffffd96
ffffdc99
ffffe4a8
00000ba0
0000015b
000006cd
ffffd55c
ffffd4b9
00000b89
ffffd2de
fffff64e
ffffed8a
00001a3d
fffff797
ffffe697
0000080b
fffffa11
fffff6c4
fffff9a2
ffffeef6
ffffdff9
ffffee77
000006ee
000057de
ffffee64
ffffc09c
ffffd96b
fffff2d0
fffffeb2
fffffc3f
ffffe9f1
0000476b
fffff108
ffffe35b
ffffdb60
ffffff85
ffffee71
fffffe8c
ffffef16
ffffeb08
ffffbd8b
ffffebfa
ffffedad
00001018
ffffff8a
0000062a
00000220
ffffd4ba
ffffe850
ffffefd3
0000045d
ffffdf78
ffffef49
ffffd78b
ffffde8a
fffffff6
ffffded4
0000044c
ffffc83c
ffffe7ef
fffff9a8
0000129f
ffffeeed
000008db
fffff2f2
000007fa
ffffe2d8
000019e2
fffff003
ffffecb8
000007dd
ffffed81
000000c6
ffffe48f
fffff22e
ffffe81e
fffff0e5
fffff2a3
fffff1a4
ffffe1c0
fffff455
fffff39b
ffffe9af
000000ce
ffffec2d
00002488
ffffe577
000016fa
ffffcb13
0000009c
ffffd2e1
00002776
ffffcbe2
ffffd561
fffff7ff
ffffd61e
ffffe887
fffff4dc
fffffcdc
ffffcdc9
ffffe255
ffffed11
000009ca
00001339
ffffea87
fffff18d
00000eb6
fffff62f
ffffd0ff
ffffcd24
fffff5bd
ffffedfa
ffffdd89
ffffeae7
ffffeb56
ffffe447
ffffff0a
ffffe66c
fffff5d2
ffffd750
00000bf2
0000002a
fffffd15
ffffd2c7
ffffe37e
fffff0f5
ffffa573
00000460
ffffd7e2
0000063c
ffffd11e
fffff432
00001bbf
ffffe703
0000216b
ffffec88
ffffdfd1
fffff115
ffffe094
ffffc902
00001228
ffffe54c
000008c3
00000871
fffff4b9
fffff76a
ffffe0b6
0000118b
000003a6
00001571
ffffd545
000017ff
000002fa
000027f5
fffff856
ffffedcb
00000439
fffff4e8
ffffd006
000001ad
ffffc8a7
fffff632
00000d63
ffffdefd
ffffff3d
fffff67a
fffffd1f
ffffea32
0000056f
fffff624
0000144b
00001750
ffffe84d
ffffeb8e
00000287
fffff6f3
fffff60e
ffffc938
ffffc1a7
000014ce
00001288
ffffef65
000021af
ffffeb18
ffffea0a
ffffe2a6
ffffe7c2
ffffe958
ffffc979
ffffcb7d
ffffd90e
000002c2
fffff85a
00001271
ffffdbe0
00000321
fffff031
ffffe728
ffffedd9
ffffe74e
ffffdb21
0000009c
ffffd222
ffffdae1
ffffeaf7
fffff10f
ffffe0a0
fffff3d7
ffffea94
ffffd6c5
fffff2f3
000027ba
ffffdfcc
fffffb9b
fffff939
ffffe1cc
ffffe370
ffffec3d
fffff742
ffffec00
fffff14e
ffffdde4
ffffd315
fffff5c6
fffff5d1
00000597
00001139
00000ec2
ffffdc01
fffffe47
ffffe5f7
fffff406
00000119
fffff3fc
fffffe9c
000000f8
00001924
ffffd683
ffffdbc3
000004f3
ffffd76e
fffff79d
fffff086
000006eb
fffff125
ffffe430
00000402
ffffee1c
ffffec0e
ffffe28f
0000026d
ffffdb10
ffffff94
fffffac3
fffff0f6
ffffc40b
fffff7fc
fffffddf
00000a31
000006b6
ffffdc03
ffffd0eb
ffffd8ee
00000037
000006b5
ffffe863
ffffe0cc
ffffe5f2
ffffd71e
ffffe580
fffff157
ffffd588
ffffee67
fffffd45
ffffe1ab
fffff225
ffffef06
fffff8e1
ffffe12c
fffff3bb
ffffd405
00000c41
00001912
fffff690
ffffffdc
ffffe26d
00000cf8
ffffe039
ffffeab7
0000138c
fffff617
000001d5
ffffec20
fffff8ed
00000608
00000125
ffffeecf
ffffe312
ffffde77
fffff025
fffff9ea
00001d57
0000080c
fffffec9
ffffe68a
000004c3
ffffe4ab
0000011f
ffffee5e
ffffe46e
00000132
ffffe947
00000ccc
ffffeb45
00000945
ffffe9be
ffffd2e7
ffffe5ae
ffffea83
ffffe3c9
0000192b
ffffe3e2
000001fc
ffffdba3
ffffdb4b
ffffea62
00000db1
ffffd6f4
fffff792
fffffcb7
fffff471
ffffed2f
ffffbc26
fffff62a
fffffffc
00000d4b
ffffcc1d
00001c4f
00000d63
ffffe6c7
000006e6
00000377
ffffeab0
00000476
ffffdf63
fffff3bb
ffffa76c
00000a17
ffffe478
ffffe084
fffff4d6
ffffeaa2
ffffe3eb
ffffdcd6
ffffec21
ffffedc3
fffff1a0
ffffe0e8
ffffe9cd
fffff062
00001348
ffffcc63
ffffc98e
00000622
00002354
00000d4f
fffff9e3
000004d7
fffff588
fffff527
fffff08a
ffffea0f
fffff8c8
00001834
ffffc80e
ffffefb1
fffffa92
fffff76c
ffffe49d
ffffe85d
fffff8c3
ffffe940
000009a7
fffffea0
ffffd5cd
ffffd673
ffffdfda
fffff61d
000002d7
fffff462
00000b5a
00001259
ffffe028
fffff647
ffffe500
ffffeb56
ffffcf56
ffffef92
00000326
ffffff66
ffffee0a
000014b0
ffffe0dc
ffffe552
ffffd3f8
00000824
ffffda9d
000000b5
ffffb38d
ffffebf5
ffffcaeb
fffff62f
000012b3
ffffe19f
ffffe1ba
ffffdb47
00000528
ffffda9c
fffff5f4
ffffd93f
000005e9
00000df9
fffff2da
fffffbfa
ffffe45a
fffff373
fffff3b5
000007cd
ffffebcd
fffff7d1
ffffd105
ffffd6da
fffff745
fffff0a9
ffffe987
ffffeb5e
fffff0cf
ffffecbe
00002333
ffffe411
fffff2cd
000002ea
fffff001
fffffa9a
00000060
fffffbb0
ffffcb4a
ffffd650
00000a80
fffff6a2
00001669
fffff339
fffffd1a
fffff7ac
fffffc21
0000092a
fffff09e
ffffe49e
ffffe4b1
fffff334
ffffe3c0
fffff1f0
ffffdfd4
ffffe108
00001ab7
000004cc
ffffc103
fffffce4
ffffe551
fffff7b7
ffffd95b
ffffd2bf
fffff6d5
fffff4ed
fffffd05
ffffd6e1
ffffeff8
ffffcfe5
ffffe0f8
ffffd1e8
ffffe09b
000010cb
ffffde6a
fffff2e8
ffffcf49
ffffd882
ffffe980
ffffde41
ffffceb2
0000080a
ffffe432
ffffc3a6
ffffd61c
fffff8af
00000a36
00000ec7
ffffeab0
fffffbc4
fffff916
ffffe71d
ffffef91
ffffc695
ffffd85d
fffff9ac
0000147a
fffffac1
ffffffc7
ffffe401
fffffd48
ffffdc92
00000650
ffffeb6c
ffffdc09
000010c3
fffff06f
ffffd550
fffffb24
0000080a
00000eb3
ffffe788
ffffe260
ffffe776
00001bc8
ffffe8b0
ffffdbb2
fffff546
ffffe90e
ffffd855
ffffe0ca
ffffe4c0
ffffbe45
00001841
00001848
fffffc72
ffffdbd2
fffff8a1
00000ee1
ffffe7e3
0000223e
000014d1
ffffe14e
ffffe8f7
00000506
fffff4da
fffff20a
00000c0f
fffff2d6
ffffe6ee
fffff076
fffffe0a
ffffe490
ffffe1be
00000a2b
ffffc29f
fffff2b8
ffffec6b
000003c5
fffff3d3
000006bf
ffffd526
ffffeccc
ffffe639
00001994
ffffc504
ffffea36
ffffe729
fffff856
00000f94
fffffa76
ffffeeae
ffffc8e6
00000bf5
fffff2ed
ffffe890
ffffd834
00000398
00000351
fffff8ff
ffffe9cd
fffff8e5
fffff40b
ffffff50
ffffd6a8
000004a8
00000720
fffffcd0
ffffe830
fffff2e9
00001aef
0000217f
ffffd534
ffffe890
fffffd42
ffffebbc
ffffeb69
fffffdb2
fffffd91
ffffffa7
00000261
ffffe8b1
ffffdc66
fffffb4f
ffffdd43
00000342
fffff395
00000649
ffffeabf
ffffe51f
00000349
fffffb11
fffff687
000010b9
fffff14a
ffffe9fc
ffffe728
ffffe847
00000c2e
ffffdfde
fffffe6b
0000099c
ffffeb61
00000b05
ffffd272
fffff969
ffffd936
fffff09d
00000119
ffffdd56
000002af
00001980
ffffd657
ffffcfb3
ffffd24b
ffffecfd
000003a8
fffffaed
ffffc546
ffffebba
ffffe1c1
ffffd288
ffffe106
ffffeaa0
ffffe1a5
ffffe4d3
ffffdbd7
fffffbd9
ffffdc62
ffffe418
00000400
fffffca0
ffffc523
ffffeb4f
0000003c
00000192
ffffdf98
ffffe745
fffff9fe
ffffe12e
ffffe3ee
fffff794
000007b0
fffffa55
fffff785
fffff017
ffffc641
ffffe1f7
ffffe855
ffffd18b
fffff549
ffffe68f
ffffb7ed
ffffefbc
ffffff75
00000100
ffffe79f
ffffee12
ffffd39e
ffffd291
fffff99e
ffffe50d
000009e2
ffffe0b1
00000882
ffffd5b8
ffffeb8b
ffffee53
fffff7b1
fffff782
fffff1a2
ffffcb22
00001656
fffff7b5
ffffe4b8
ffffe440
ffffe758
000023b5
ffffc921
ffffe525
ffffef53
ffffb75d
ffffdeca
fffffb2d
fffff87c
fffff319
ffffef8b
00000c54
000005bf
ffffc8e6
ffffd9a5
fffffb3f
0000188a
00000cfe
fffff1fc
ffffd868
000013b9
ffffe067
fffffb8c
ffffe4cb
fffff31d
000000e6
ffffe915
ffffe6e3
fffff3d2
fffff12d
fffff365
ffffd5cb
ffffd996
0000051a
ffffe929
fffff6c6
fffffb4e
ffffdc34
ffffe961
fffff702
ffffc9df
ffffeb4b
ffffea2a
ffffefa5
ffffd8ce
00000856
fffffe4c
00000972
fffff45f
ffffeab8
ffffde25
ffffe769
ffffd770
fffff504
ffffd6fa
ffffe808
ffffbcfd
ffffae69
fffffd6d
ffffcd7a
ffffe0f0
fffff1bd
ffffffbe
fffffa00
fffffb40
ffffe811
ffffe4a5
fffff20f
0000037c
ffffe3eb
ffffc0e3
ffffe62e
00001799
ffffcc51
00000642
ffffb255
ffffd57c
000000e2
ffffdefe
fffff16d
ffffe30c
00001551
ffffdefe
00001189
ffffe229
fffff191
ffffe3e3
fffff41b
ffffdb38
ffffea6a
ffffe941
000010e1
ffffcf9d
ffffcdef
ffffdeea
ffffebe2
ffffec6c
ffffcf9c
ffffdc88
fffff17f
ffffe74a
fffffac6
ffffebb3
ffffdaed
ffffbb0f
000001be
ffffe742
000009d6
ffffd60d
ffffd4b1
fffff763
ffffeeb2
ffffe521
ffffefe9
ffffea29
fffff7db
000004c5
ffffe2a2
ffffed7b
00001939
0000007c
fffff805
fffff0e9
00001612
ffffe27d
fffff24e
fffff908
ffffd293
ffffded2
00002c70
fffff3d7
fffff550
fffff156
ffffc761
ffffe975
fffff4cc
ffffe2ce
000001d8
ffffd54b
fffff719
00000d60
ffffe48e
ffffd7b6
ffffe62e
ffffdd19
ffffccae
00001168
ffffd5ee
0000153c
000005bb
00000b90
ffffe8e0
ffffde63
ffffdc89
fffff798
ffffe7fc
ffffe21f
0000064d
fffff585
00001e42
ffffe0cc
ffffde17
ffffd421
fffff0a8
000012e6
0000024c
000018a8
00000a56
ffffea96
fffff989
00000648
ffffe1df
ffffdceb
fffff818
ffffeb94
fffffb7e
ffffddd8
fffff452
ffffe983
ffffe6cc
ffffefb2
ffffc3c9
ffffd8d2
ffffdfa1
fffff48d
ffffdcab
fffff3e3
ffffd2a7
ffffe9a8
ffffbc20
fffffe08
ffffc863
ffffe21b
ffffe84e
fffff84e
fffff1a8
ffffee6e
00000517
ffffd984
fffff39d
ffffdc7c
ffffac51
00001023
ffffd925
ffffda83
ffffea9a
ffffd11d
ffffcdb7
ffffcdfc
ffffe3d7
ffffcc98
00000043
ffffd933
fffff08e
fffff740
0000001c
ffffeb6a
fffff093
ffffd36c
000008a2
ffffef83
ffffe016
00002636
fffffe7a
0000068e
ffffdba9
00000163
ffffecff
ffffc795
ffffe71e
ffffe0f6
ffffeae1
ffffe85c
ffffe1c3
ffffc932
fffffac9
ffffef45
00000235
ffffc99d
00000555
00000426
ffffd6e5
fffff504
fffffa94
ffffef31
00000246
00001978
fffff9c5
ffffe1a4
ffffefe0
0000045c
ffffedf8
ffffe8c2
ffffe2c6
fffff185
00001593
ffffe964
000002ab
ffffdda8
00001b8c
ffffec78
fffffb94
0000023d
ffffe57e
000029cb
ffffe919
fffff065
ffffd2cd
fffffb78
ffffeca0
ffffe3a5
fffffd96
00000b82
ffffd453
ffffe194
ffffda94
ffffccd7
0000217a
ffffff6d
ffffc756
fffff9d0
ffffc7c2
ffffd83b
ffffef1e
ffffffe2
000002fb
fffffacb
fffffdf3
fffffc1a
000004b3
ffffe884
ffffde6f
fffffae5
000017d8
ffffe6cf
ffffeeca
fffffed0
000009ab
00000aff
ffffe4a3
00000a6d
00000a18
ffffe321
ffffe39b
00001c26
00000be5
ffffe274
ffffe7dd
ffffdbdc
ffffcac2
ffffdf0a
fffff639
00000b9f
ffffb5c8
ffffeaee
fffff2bc
fffff733
0000009a
00000327
ffffd600
00000f34
00000bab
ffffebd3
ffffde60
ffffbfb6
fffff4e4
ffffda0c
ffffe56b
ffffe77b
ffffdf85
ffffe1f5
ffffcba1
fffffe05
ffffe709
ffffed7f
000013bd
ffffc85c
ffffe5db
fffff64d
fffffb46
ffffe7c2
fffff415
ffffb42c
ffffd6ac
fffffb41
ffffe3c8
ffffebcf
fffff5c5
fffff81a
ffffe03b
ffffe7b3
ffffdad6
fffff3c4
ffffbdc8
fffffba8
ffffe3b3
ffffef89
fffff0a8
000005c2
fffffbe7
ffffe746
fffff0f1
ffffdade
ffffd3a1
0000111b
ffffe1d5
ffffef4e
fffff1dd
00000b53
000013cb
ffffeb28
ffffe3e0
ffffd15d
ffffdf7a
fffff21c
ffffd670
000000bd
fffffb9b
ffffd89c
ffffec6d
ffffeb90
ffffe2ee
00000406
00000c07
fffff06a
fffffa76
ffffe15f
000014d9
fffff00d
0000222c
ffffe25d
fffffa5c
ffffe70c
ffffe348
00000050
ffffecd4
00000927
fffff484
ffffec8e
000001ee
ffffe74a
fffff586
ffffe0c3
0000085d
ffffff31
fffff0b4
ffffe6c9
000001e7
ffffde95
ffffeb65
ffffe88d
ffffdefd
fffffb16
fffff4d2
00000d76
fffff6e0
ffffe879
ffffed5e
fffff0c5
ffffed20
00000aca
ffffdb5f
0000126c
ffffd4b4
000005d4
ffffd641
fffffb19
fffff7d8
ffffe72d
fffffc1b
ffffe7ce
00000342
ffffe916
ffffea0f
fffff910
ffffecf8
ffffcce7
ffffc211
ffffede8
00000aed
0000036d
ffffe14e
ffffe404
ffffe96e
fffff72e
000017fe
fffff1c1
ffffdb19
00000013
00001097
ffffe6da
00000752
ffffc336
ffffffce
ffffccaa
ffffeaec
fffff158
00000fe4
ffffe6d4
ffffe753
ffffeda3
ffffc733
000003cf
fffffe5c
ffffee65
fffffbfa
fffff371
fffffd5f
ffffead9
fffff46f
fffff7aa
fffffd59
ffffc8fc
ffffe548
ffffff63
ffffec67
fffff2a6
ffffed34
fffff953
ffffdce9
00000302
ffffe380
fffff213
ffffd4cc
ffffeac2
00000a68
fffff9b6
ffffeda9
00001a3f
ffffe347
fffff64d
0000067f
ffffdc3c
ffffdf01
fffff995
fffffba7
00000745
ffffeb90
ffffd3f0
ffffd834
fffffae4
00000fc0
fffffb26
fffffbe5
ffffe69c
ffffdea8
ffffeda4
fffff17c
ffffdf13
fffff72f
00000a00
fffff01b
00000c9d
ffffe6db
ffffdf73
00001219
00000c8b
000019aa
ffffc61f
ffffef3f
fffff97a
ffffde1e
ffffcd4b
00001762
ffffdb8f
ffffee83
ffffccee
ffffe012
ffffb7bc
00000c98
fffffe84
00000cb7
ffffff8b
00000446
fffff2d5
ffffd341
00002a39
ffffe403
ffffcd6c
00000c1a
00001d08
ffffee37
fffff139
0000115d
ffffe71a
ffffd756
0000045d
fffff355
00000f2e
ffffff6a
ffffe8e1
fffff0ef
ffffdc74
ffffe0bb
ffffff06
fffffc02
0000002a
ffffd926
fffffadf
fffff569
ffffcccb
00000414
fffff2da
00000f3e
ffffe6ad
ffffe07c
ffffe12d
ffffed9a
000002ff
000017f3
ffffddbb
ffffd788
0000011b
fffffde0
ffffe894
ffffed44
00000a99
fffff5f7
ffffe21d
ffffe505
ffffdee8
fffff266
ffffcaa2
ffffe5e3
fffff29b
fffff439
ffffefcd
fffffe9e
00000826
ffffbc4b
ffffd179
ffffeaff
00001a90
fffff06a
ffffc58d
ffffeff2
fffff2ba
fffff15d
fffffee7
ffffd8ac
ffffed3f
00000610
ffffe346
fffff22a
fffffe0a
fffff7f0
ffffe64e
fffff9c4
ffffe22d
00001ce3
0000164b
000006ad
fffff9ed
ffffd710
00000901
00000c10
ffffef62
fffff21f
fffff6b7
fffffc5b
fffff8be
fffffd59
ffffe7a7
ffffbd0d
ffffe83e
fffff380
fffff638
fffffa3b
ffffe6cd
ffffcef9
ffffdf9e
ffffdfac
ffffe3e7
ffffda5a
ffffe3e5
ffffceab
fffff04c
ffffe117
ffffdc15
000003a4
fffffa15
ffffdd10
fffffc17
ffffd8c4
fffff8bd
ffffe368
ffffd84b
ffffe379
fffff909
00000ad9
fffff086
fffff814
ffffe175
00001538
0000087c
00001121
ffffc92f
ffffe2cd
ffffe07a
00000685
fffff74b
000005c9
ffffcbf6
000001c2
000007c5
00001f7a
ffffeb94
ffffe7a4
fffff98a
00000286
ffffdece
fffffc90
ffffe3fb
ffffdf70
fffff348
ffffe147
ffffc7c1
fffff0ad
ffffe4a5
ffffc2fc
fffff1aa
ffffc81b
ffffeb39
fffff54f
ffffcf8a
00001b07
ffffed2a
fffff46e
ffffd527
ffffd91f
fffffcf6
000017d3
00000b65
ffffeae6
ffffe6a1
ffffed62
fffff26e
fffff7ee
ffffe068
fffff676
fffff2df
ffffcfb4
ffffe0ba
ffffbab0
0000026d
ffffcc52
ffffdaac
ffffd946
ffffafb1
000002c6
ffffe799
ffffd4c0
ffffe2c0
00001684
fffff372
ffffccb7
fffffee1
00000d3c
0000171a
ffffd3bf
ffffd82f
ffffccc0
00000e76
fffff638
ffffec8e
00002e9c
ffffc2cb
ffffca70
ffffbb05
fffff937
ffffe597
00001775
ffffe599
fffff180
0000081f
ffffec0b
0000019f
fffff055
ffffcc80
ffffeb9f
ffffe54c
00000c49
ffffdc6b
000000cc
00000f39
ffffdbcd
00001f5a
ffffd49b
0000041b
0000064e
ffffd52a
ffffd509
ffffec61
ffffc955
fffff84d
ffffeeef
ffffea0f
00001e2c
ffffd938
fffff9f9
fffff417
fffff583
ffffe38b
ffffbf24
ffffd8f5
ffffef6f
000000a2
ffffdb1f
00002876
ffffe5a0
ffffeec0
fffff1a6
ffffec12
ffffd8d9
000010c6
00000bc2
fffff1e5
00000de9
ffffe6f2
ffffe44f
fffff55a
fffff323
fffffa85
ffffdbf8
ffffe32e
ffffcbaa
00001945
ffffedec
fffff0d9
00000210
ffffe47b
ffffdab4
ffffbf9f
fffffdfd
ffffe5ed
fffff84a
ffffc8ae
ffffeb77
ffffcdfb
ffffca22
ffffe160
ffffe505
0000043f
0000002f
fffffb4e
ffffe46a
ffffeb3f
ffffe86f
ffffe738
ffffed21
00001a74
ffffeb76
ffffea7e
ffffe989
fffff05c
fffffdf0
ffffce36
ffffe404
ffffedce
000003a1
ffffe3ee
ffffe426
ffffe840
000001e9
000019ec
ffffcd26
fffff6fb
fffff6c8
ffffe126
ffffd2cb
ffffd091
ffffe8be
fffff38f
ffffe17e
fffff902
fffff861
ffffe57e
ffffdb93
00001480
ffffee8f
ffffe7ba
ffffff65
000012ca
fffff0db
fffff0e9
ffffe3cb
ffffda46
fffffb90
ffffe85a
ffffddfa
ffffff3d
fffff73e
ffffc639
000004b0
ffffff85
ffffd88f
fffffcf0
fffff76c
ffffe933
ffffede8
ffffd293
ffffe4e9
ffffce7e
ffffec5e
ffffeb25
ffffdb40
ffffea7d
ffffe005
ffffec64
00001b1f
ffffbf3d
ffffeb7a
fffff055
ffffecf5
ffffd854
000014ba
ffffb792
00000551
fffff3de
000007ad
ffffdab2
ffffee3a
fffffa56
ffffe4b7
fffffbe8
ffffef4b
ffffd72f
ffffd44c
fffff2ca
fffff6eb
ffffd0b4
ffffc7e0
0000182d
0000008c
ffffe591
000006fa
00003937
fffffb95
ffffee91
fffff668
00000457
fffff629
ffffea58
ffffd302
ffffffb7
ffffec91
ffffe657
fffff300
ffffe427
00000446
ffffe41c
ffffd492
fffff2b5
ffffef63
ffffe66c
fffffcfd
00000ca1
0000020c
00000cad
ffffc837
ffffcaac
fffff55f
ffffe477
fffffb17
000013c0
fffff095
fffffdb6
ffffce10
fffffca6
ffffdf0c
000003ca
000009bc
000005f9
fffff856
000007bb
ffffeb90
0000005f
fffff2f0
000011a2
ffffce57
fffff2ce
ffffed1b
fffffb7b
fffffceb
ffffdbcd
ffffe20c
0000000b
00000f8a
ffffdc26
ffffdca6
000052f9
00000a41
ffffe5ad
ffffe0ec
0000007b
ffffea20
ffffee0a
00003028
fffff592
ffffcf69
fffff18b
00000915
ffffe976
00001080
ffffd68c
00002343
00000168
000016f8
fffff56c
ffffdec7
ffffc828
ffffe694
ffffc2ce
ffffee51
ffffefec
000017e4
fffff795
0000031b
ffffdd2d
00000e03
ffffee73
ffffe43a
ffffd2da
ffffe512
ffffc634
ffffd6e9
fffff879
ffffeaec
ffffef4b
ffffe534
fffffe91
ffffdb95
ffffea68
ffffdcf0
ffffe0e0
ffffe549
ffffec15
fffffba8
ffffe26d
fffff52a
fffff23e
ffffd711
00000092
fffff9d5
fffffaf0
ffffea1c
000001a0
000004c0
ffffc459
000006b6
ffffe37e
ffffc40d
0000068b
ffffd2ba
ffffe568
ffffee5f
ffffd4fe
000002cf
ffffef4c
000005d7
ffffd1f4
fffff01d
ffffda96
ffffdcfe
ffffc889
00000e82
ffffea81
ffffd7f3
ffffe80f
00000bb3
ffffea88
00000288
ffffea63
000000eb
ffffe7f9
ffffe414
ffffdbb9
ffffff72
000005da
ffffd7d1
fffffdcc
ffffd065
ffffe7ae
fffff47f
ffffd25c
fffffebb
fffff00e
ffffeaad
ffffd732
ffffcf8c
fffff55a
ffffe8f7
ffffd29d
ffffe383
fffffed8
ffffe61b
ffffef9b
ffffddf7
000000b2
ffffd471
ffffef24
ffffe530
fffff5f6
ffffe947
ffffeeff
ffffeb8b
ffffbbd8
fffffd07
ffffee18
fffffcd9
ffffc809
ffffeae8
ffffde2a
000017db
ffffdc67
ffffd76b
fffff276
ffffe5e0
ffffccb5
ffffdeba
fffff9d8
ffffea4f
fffff519
fffff330
fffff47a
ffffe81b
00000415
ffffd817
ffffecbf
fffff0e3
fffffd6d
ffffc5d8
000006f9
ffffc4c3
ffffe45e
ffffe441
00001ef9
00000d17
ffffef53
fffffe4b
ffffc06c
ffffe92a
ffffddc7
ffffdeb6
00001183
ffffbdb7
fffffb97
fffffed7
00001291
fffffae0
ffffd7d1
fffffaa3
ffffe347
ffffe9f1
ffffeebd
00000238
00001043
00000f47
fffffb35
fffff018
ffffe5ce
00003c8a
fffff49c
ffffe935
0000121f
00001dac
ffffcdc6
000020a6
00000988
ffffd0b6
000000dd
ffffe258
ffffeefa
ffffd445
00001bf3
ffffc8fc
ffffc998
ffffef0e
fffff4f6
ffffff26
ffffcaaa
ffffd376
000000c1
ffffca08
ffffdb93
fffff650
ffffee54
0000131b
ffffd7a2
00000b4c
0000025a
00000083
ffffe592
00000957
0000007b
00000270
fffff822
000000f7
ffffdaba
ffffed50
ffffd39e
fffff283
ffffed04
ffffdd2f
00000add
00001a63
fffff097
000023c1
00001908
ffffd75c
ffffc281
fffffd56
ffffd41a
ffffc2a0
0000133c
00000957
ffffec7f
ffffda89
ffffe32c
ffffeb83
fffff003
00002188
ffffe490
00000531
fffff200
ffffd7ef
000006c9
ffffd9eb
ffffd5c8
ffffe4e7
000001b7
ffffc903
fffffae1
ffffab46
00001b23
000011d5
ffffd92a
fffff666
000001e2
ffffde0a
ffffb8c0
0000096d
fffff8e4
ffffecd7
fffffc24
00000d9a
ffffe775
fffff9cd
ffffd86e
ffffe200
000006ce
00000da5
ffffd7b9
000028e3
ffffe984
ffffe50b
00000e83
fffff2a7
ffffda05
ffffdac0
ffffff17
ffffe178
ffffd865
fffff332
ffffda3e
ffffd3ba
ffffd432
fffffbe4
fffff6f7
ffffe621
ffffd5cc
ffffc6ea
ffffe09c
fffffabb
ffffdd50
ffffe5c3
00000925
fffff399
fffff146
000003f0
00001702
ffffe232
fffff34c
fffffc1b
ffffdbd0
00000422
ffffee87
ffffddbf
ffffe9c8
ffffdc0e
00001d6c
00000cb2
fffff3ba
ffffe640
ffffd934
fffffe04
0000060d
fffffab3
ffffd9fa
ffffcf97
ffffd57e
ffffe685
ffffcd82
00000555
fffff397
ffffd6aa
fffffb1b
ffffefae
000021d6
ffffe19c
ffffe451
ffffeeba
fffff39f
0000022f
ffffe494
0000007d
ffffdf93
fffffb9a
00002224
ffffdeeb
ffffcefa
ffffd1d4
ffffc693
ffffd55c
fffffca0
ffffee20
ffffe1ac
000000f5
ffffbeae
000009e9
ffffe999
ffffe894
00000544
ffffe3b7
ffffede9
fffff18b
fffffe3b
00003238
ffffed3d
000018fb
ffffe257
ffffdad6
00002296
ffffe784
fffff962
ffffef99
ffffea0d
ffffe5fd
ffffd513
ffffe555
00000560
ffffe99e
ffffe6d2
00000d70
ffffe95a
000008a2
ffffe620
ffffe565
fffff601
fffff871
ffffe47b
0000109e
ffffe0a4
fffff482
fffffac5
fffffb6b
ffffe84e
ffffddfa
0000037d
ffffe0fb
0000002a
ffffd90e
ffffe58c
ffffd98d
ffffdf5c
ffffd2d0
fffff9f5
ffffda38
ffffff63
ffffea29
ffffea30
fffff51c
fffffb03
00000632
000004ef
ffffc8ae
fffff238
ffffd008
ffffda0e
00000561
ffffdc7a
ffffeda9
fffff93d
ffffd9eb
ffffd2c5
fffff299
ffffdf6d
ffffd276
fffff7b1
000016e6
ffffc356
ffffe978
ffffcd9e
fffff111
ffffd936
ffffdb1d
ffffdc4a
ffffd914
ffffe1a5
fffff2cb
ffffdac4
ffffed81
fffffff1
ffffe841
ffffc9c8
000008ce
fffff9c6
fffffee8
ffffe289
ffffed28
ffffe291
00000920
ffffe8a3
ffffe36d
fffff9fb
fffff40b
fffff6d3
ffffee33
ffffe1dd
ffffdfd9
00000c90
fffff8fb
0000130e
fffff3ca
ffffeb9c
ffffe72a
fffff21f
ffffe787
0000122a
ffffe9e0
ffffc6a9
ffffb14b
fffff84a
fffffc6b
ffffe614
ffffd988
ffffe9a7
fffff8ac
ffffd875
ffffe026
ffffe817
ffffdf8e
fffff242
ffffee8a
ffffb51e
0000334b
fffff889
00000f82
fffff702
ffffeeec
fffff33e
00000b1a
fffff181
ffffc95e
fffff10e
fffff607
fffff93a
fffff8c7
00000ea7
00000f6c
fffff1fc
ffffd5ce
fffff1f2
ffffd33f
ffffb010
fffff7e5
ffffd60c
ffffeeb6
ffffcb6f
fffffe54
ffffd099
0000182e
fffff671
ffffee7b
00002a9d
ffffde53
00000843
ffffea92
fffff813
ffffff7b
ffffc8c9
ffffdf2a
fffff308
ffffd890
ffffff06
ffffddfb
ffffe28c
ffffeef2
000008f4
000017ea
ffffdfb8
000000b0
ffffeb20
ffffed52
ffffea1c
ffffdb7d
fffffdb9
ffffcc03
ffffd1ff
ffffa97c
ffffebac
ffffd0f2
fffff22b
ffffe50e
ffffeb6c
fffff810
ffffff4c
ffffd7b1
fffff25a
ffffef3e
fffff12c
ffffe882
fffffa48
00001d6c
00001039
00000404
ffffdc86
000044de
ffffc5d5
fffffa50
fffff4aa
000008ee
ffffcdeb
00002618
ffffe724
ffffe5c5
00000249
ffffd83b
ffffe46b
fffff179
000001ea
ffffdeb9
00001baa
000005b1
ffffeb2c
fffff6bb
ffffeee5
ffffdfca
0000116d
00000fac
fffffa83
ffffecc6
fffff5a2
ffffdb97
fffff527
000002b5
fffffea9
ffffcfce
000003c5
ffffd062
00001ff2
fffff3e5
ffffe5ad
ffffe805
fffffce3
fffff857
ffffbc92
00001416
fffffc8c
ffffddcd
ffffc044
00001528
ffffe8bf
fffff42e
ffffe08d
ffffd780
00000935
fffffa17
ffffe8fd
000008c4
ffffed74
ffffd3d3
ffffce7d
ffffdd59
ffffe9da
fffff7ff
ffffea8a
000010a1
fffff0d5
0000032b
ffffee1b
fffff7a0
fffff73d
fffff16b
0000019f
ffffcb5f
ffffe83b
ffffe461
ffffe928
ffffe513
ffffdf04
ffffd72c
ffffcd9d
ffffdf33
00000962
fffff879
0000083e
ffffe4de
00000646
fffffc48
ffffe839
0000024e
fffff81a
ffffef5b
fffffcf1
fffff86f
ffffc935
fffff2a6
fffff116
fffff05b
00000307
00000a7c
fffff27f
fffff706
00000e82
fffff867
00000cdd
fffffa4d
ffffd52c
fffff53a
ffffe723
00000167
fffff007
ffffbf49
fffff691
fffff851
ffffed86
000010b4
ffffe85a
ffffeb05
fffff98b
ffffd491
ffffe1fa
fffff85c
ffffd849
fffff5f9
ffffc9d3
00000cc1
ffffd429
ffffdf28
ffffe59f
0000036c
ffffd9b9
fffff75c
fffff075
0000024d
fffff306
fffff639
000007a0
ffffe090
fffff900
fffff74a
00000e1d
ffffdee2
fffffe78
ffffe272
ffffe923
ffffe88b
ffffdae5
ffffe5c0
ffffce0c
fffff235
ffffe2ac
ffffb361
fffff0f5
fffff0ae
ffffe7fb
ffffc86f
ffffd440
0000003e
fffff459
ffffc23b
fffffd4d
fffff24e
000013eb
ffffe47a
ffffe32a
00000bcb
00000a4a
00000a0a
ffffeacf
00000bec
fffff827
ffffdb98
fffffd58
ffffe606
ffffc6a2
ffffef15
fffff67e
ffffee9d
ffffddf4
ffffe8b7
ffffc182
ffffe3ba
00000f00
fffff8ec
fffff8b0
fffff7a2
ffffe242
ffffef2e
ffffd6ae
ffffcfc1
fffffe89
00000109
ffffdd93
fffff7af
ffffd3eb
ffffd5d7
000008dd
fffffbc9
ffffb169
ffffe12b
00000595
00000098
ffffef8a
000011dd
ffffd223
ffffed06
00000e17
ffffe2a3
ffffdc77
ffffd8d5
fffff84a
fffff3db
0000008f
ffffe2ac
ffffec75
ffffeae3
ffffd53f
ffffdb8e
00000e75
ffffd7ce
fffff9a1
ffffe172
ffffe22e
ffffea65
fffff938
fffff712
ffffe26a
ffffdd86
ffffda6d
fffffd95
fffff24a
fffff12b
ffffe33b
00001039
fffff51d
ffffe9a9
ffffff64
fffffb03
ffffec01
ffffe383
fffff60a
ffffdb78
fffff236
00000141
ffffe99b
ffffda07
fffff9e2
ffffea6b
ffffd1d2
0000206a
ffffdbb2
ffffd918
ffffc5f1
000001bc
ffffc17d
ffffdea6
fffffc1d
0000012b
00000553
ffffe7fd
00000453
ffffefa0
ffffda13
fffff4fd
fffffc45
fffffb64
000015ef
00000941
fffffa92
ffffe1f9
ffffe0e5
000003b2
ffffffee
fffffe5c
0000003c
ffffdd55
0000082f
000001c0
ffffeabe
00002764
fffff576
ffffec0f
fffff9a6
fffff409
00000a2f
ffffd87d
fffff49d
ffffd21b
ffffeda0
ffffe2f6
00001583
fffff353
0000124d
ffffe810
ffffea26
ffffc792
00001ab2
ffffe9cf
00000f94
fffff6b8
fffffae7
000008da
ffffcd57
ffffe271
00000e45
ffffe04c
ffffd64d
ffffe361
000005f9
ffffda19
ffffe400
ffffeba0
ffffdd55
fffff75a
ffffd62a
fffff3e5
ffffcf81
ffffcb94
ffffff2f
fffff568
fffffe84
ffffc7c7
fffff185
fffff605
ffffe145
ffffe0a4
0000080c
fffffbd1
ffffecd1
ffffde05
ffffdb6f
ffffe6cc
000022bc
ffffc298
ffffdde7
ffffc6ff
00002139
ffffefed
000007b7
ffffea25
ffffebc5
00000adc
00000575
ffffe3cf
000015b0
00000b3e
fffff010
ffffd264
ffffced0
ffffe0e0
fffff513
fffffc3a
fffff0ba
00000ae1
ffffe386
ffffc572
00000bef
00002d0a
ffffddba
00001fdc
ffffef32
ffffff7e
fffff3b1
ffffe0e3
00001565
00000b13
00000914
ffffd8e1
ffffea3e
fffff385
fffff327
fffffebc
ffffe8b6
000014ee
ffffdc7b
fffffc9f
fffff733
ffffdbcf
ffffe17c
fffffd71
fffff00f
ffffffa9
000000dc
ffffe607
ffffe87b
fffff37f
00000a4c
fffff9dc
ffffde0a
ffffe1a4
ffffe13d
0000041a
ffffea51
fffffa72
ffffd2ef
fffff989
ffffe435
ffffdc06
ffffe489
00000d2f
0000065c
fffffd16
ffffe559
fffff5af
fffff09d
00001ac0
ffffdd3f
ffffea18
ffffffb3
ffffda26
ffffd398
ffffe859
ffffec3a
00000f31
fffff42d
fffffa6c
0000094a
ffffddca
ffffdb3b
ffffbef3
00000c43
fffffc77
ffffe292
fffff02b
ffffd082
fffffbd8
ffffca5a
ffffead7
fffff284
00000cb0
fffff213
fffff929
000016ff
ffffeb6c
ffffee33
000007dc
ffffe5c1
ffffd2a3
ffffd998
ffffe95d
fffff899
fffff463
fffff723
ffffc81b
ffffdbfd
ffffe914
ffffd84f
ffffd978
ffffe58e
fffff19a
ffffe9c3
fffff578
00000da9
ffffd73e
fffff3b0
ffffe04c
ffffc925
ffffe430
ffffea84
ffffd870
ffffe9f6
ffffd52f
ffffdd84
fffff9bf
fffffa75
000000cc
00001878
ffffdeea
ffffd884
0000075e
fffff71d
ffffe871
ffffce9c
ffffd82d
ffffea1b
fffffc4d
fffff6c6
00001616
fffff003
ffffe69a
ffffc179
ffffdaa2
ffffed50
000001df
ffffe072
fffff5cf
000008ff
00000415
000010ef
ffffcb14
fffff4a1
ffffe2ad
ffffcc35
ffffe994
fffffe4b
fffff604
ffffd009
000010f5
fffffe54
ffffd4a6
ffffdf7c
fffffc1e
fffff9ee
fffffde3
ffffee84
ffffe7c3
ffffff71
fffffc5b
ffffd869
ffffe5b8
ffffde2d
ffffddbe
ffffea75
ffffd792
ffffdb23
fffff089
ffffd747
fffff892
ffffe7e0
00000824
0000101d
00000110
00002145
fffff669
ffffffa7
00000294
ffffef2d
ffffe575
ffffed48
ffffec57
00000f04
00001388
00000a10
fffff85d
ffffe63d
ffffd8fe
ffffee0a
ffffcd57
fffff4ed
fffffa56
00000dc3
ffffb941
ffffd60e
ffffd435
fffff8f5
000012c2
ffffea55
ffffdd69
fffff803
fffffdd7
ffffbd5e
ffffc853
0000080f
ffffe956
ffffdf53
ffffe876
ffffcda0
ffffdcca
ffffe7d8
ffffc373
fffff252
fffff09e
ffffe568
000007da
fffff897
00000719
fffff174
fffff634
ffffe002
fffff587
fffff7bc
0000067b
00000b37
fffff693
00000cd2
ffffc7a8
ffffe24f
ffffc17d
ffffd212
fffffc9f
ffffdd0f
fffff387
00000803
ffffe298
fffff15a
000001a1
ffffeeb6
fffff1d1
ffffc7e0
ffffef79
fffff4f5
ffffe57a
ffffe1c6
ffffcf2f
ffffe44e
0000002f
ffffee49
ffffff6f
00001a3a
fffff1b6
00001124
fffff654
fffff337
ffffef9d
ffffb819
ffffe0aa
ffffeee6
ffffefe6
ffffcf22
ffffe3be
000008bf
000003f4
fffffcb4
000028ac
0000084b
00000c15
fffffcaf
00000e9a
fffffa9b
00000a3e
ffffd1b4
00000024
fffffd6c
fffff21c
000018ad
00000117
ffffeeed
fffff2cb
ffffe612
ffffd23b
ffffdb76
ffffc38c
ffffd296
fffffe52
fffff8bf
ffffed27
ffffd330
00001714
ffffa31c
fffff2c1
00003283
0000016a
ffffdf6c
fffffe00
fffff7ee
fffff966
00004ce9
00000237
fffff5df
ffffff2d
ffffebf6
ffffe261
ffffe009
0000027f
fffff9b9
ffffe28f
00000bbd
fffff1e0
00000923
ffffe34e
fffff34f
fffff098
ffffeb12
ffffd846
fffff8ad
ffffee61
ffffed0d
ffffc0b9
fffff8bb
fffff318
ffffdcc3
ffffe9ee
ffffcf45
ffffedff
fffff29d
ffffdcae
ffffd6a6
ffffe11b
000016a7
fffff042
ffffe8c2
ffffd4d8
ffffd375
ffffe31e
ffffeb7e
ffffe9f8
ffffd220
fffff15e
ffffc0e4
fffff4a0
ffffd3fe
ffffe1eb
ffffe54f
000017a1
ffffd644
00000acc
fffff62d
fffff39d
ffffd425
fffff01c
fffff2fa
ffffd985
ffffebf6
ffffcfbb
ffffed45
000002ba
ffffd659
ffffeab0
ffffd71c
ffffdf12
ffffe18b
ffffd20a
00000974
ffffe960
fffff681
ffffdcfc
00000afb
ffffe8ef
ffffddf7
ffffec90
ffffec1b
fffff9ad
fffff189
00000602
ffffccb8
ffffeaf6
fffffa4c
ffffe7f4
ffffeb1c
00001f87
ffffb7ed
00000b6d
ffffd5f7
ffffd8d2
fffff6e1
ffffce99
ffffd58f
fffff2e7
fffffbff
ffffce8f
00001bba
ffffbd26
fffff241
fffff2b0
0000077d
00002844
0000098a
fffff48d
fffff6bd
0000131d
fffff121
fffff9cf
ffffe805
ffffdb91
ffffe1b1
ffffe20b
000015e5
000001bf
fffff87f
ffffda3b
fffffec6
ffffe030
ffffdeff
ffffda1c
ffffeda3
ffffef75
fffffa0f
fffff561
000011ef
fffffbba
ffffed8b
fffff944
00001579
ffffed0d
ffffee5c
ffffdf8f
fffff946
ffffec8d
000003ae
ffffd8d0
fffff561
ffffe816
fffff8e9
0000111e
ffffe4ed
ffffd70f
fffffa84
fffffc24
00000d66
ffffdf7e
ffffe1aa
fffff43f
ffffd758
ffffdbfd
fffff80b
00000363
ffffd8e1
ffffdaf1
ffffa91a
000002ca
00000c36
fffff1c7
ffffc59c
00000001
0000095b
ffffd4b2
00000267
ffffd488
fffffdb8
ffffd84b
ffffedfd
ffffea52
ffffe7b5
ffffdd35
fffff338
00000540
0000143c
fffffa05
fffff295
ffffd3e1
fffff0cf
ffffd4e9
ffffe4a2
ffffc3e6
ffffdece
ffffe550
00000632
ffffec78
ffffea02
fffffa65
ffffe532
00000248
ffffe3c5
ffffe08a
fffffb4e
fffff1da
000001a7
00000318
fffffa08
ffffec0e
fffff9c7
fffff545
ffffe787
ffffd6e8
fffff78f
fffff380
fffff315
0000084c
fffff5f9
ffffe156
00001b60
ffffed18
000001d0
ffffffe3
00000698
00002756
fffff214
ffffe1e5
00000702
00000785
ffffe23e
fffff4f5
fffffcc4
ffffef98
00001a1a
000004a1
ffffdc52
fffff002
ffffdab6
ffffce77
ffffd901
00000a25
fffff9c8
ffffe51e
ffffd2f6
ffffdf23
000007a8
000007ed
00000e3f
ffffef10
ffffdf07
fffff1b4
000008f0
00001f56
fffffafd
ffffffa1
00000359
fffff836
fffff2a9
ffffd5b7
0000085a
ffffff25
ffffee65
fffff270
ffffd965
ffffe229
00000c66
00000645
fffff7c7
ffffe2ce
ffffda0c
ffffd7d8
000005e7
ffffedb1
ffffeec8
ffffed23
ffffec53
ffffe494
00000f66
ffffe140
ffffe549
fffff705
ffffe4b8
ffffd6e8
000004df
ffffddd8
fffff259
ffffd765
ffffd2fb
00003a11
ffffeee7
ffffab2f
000010b4
ffffd50d
ffffda94
ffffff87
fffff1e0
00000dcc
ffffddd1
fffffc38
00000538
00000a6d
fffff0a6
ffffd366
ffffc2aa
00001394
fffff2b5
ffffeacb
fffff72b
ffffe557
fffff687
00000a1f
ffffe6c1
ffffd0b3
ffffeccb
fffff2c0
ffffe83a
000005e9
fffff628
fffff8eb
00000d86
00000725
fffffa7f
0000064c
ffffc8ec
ffffd029
ffffdfa8
ffffea21
ffffe32f
000019b6
fffff5dc
ffffe092
ffffc5fd
fffff8cb
000018bf
000031cc
fffffbf2
fffff15f
000004a7
ffffec5d
ffffdd46
ffffe163
ffffe104
fffffea4
fffff116
fffff01b
000018f0
fffffa98
ffffe695
ffffd0b9
fffff82d
ffffe996
ffffe950
ffffccdc
ffffd6a5
0000145a
000003b3
ffffe8a0
ffffe055
ffffe4a4
000001e6
ffffd8c2
fffff891
000003cd
ffffee4a
ffffdd2b
0000051c
ffffe6e9
ffffeb3c
ffffee42
ffffeb89
fffff593
ffffda62
ffffde93
ffffdb64
00002f05
ffffbdaf
ffffe37c
ffffdd57
ffffeb42
ffffdd14
000007e8
ffffedb6
000005a5
ffffbfed
ffffd4dd
ffffde75
00000c03
00000c43
ffffe89b
fffffdf3
ffffca5c
000001bd
ffffee9f
fffff9a9
ffffef14
fffffac1
fffff39d
ffffea9b
ffffed1d
ffffe11d
ffffe82c
ffffdc87
fffffdde
00000aa7
ffffe2a4
ffffd6ee
ffffdb5b
ffffc821
fffff753
ffffd5fe
fffff4c1
ffffeede
ffffedac
ffffe31e
ffffeecb
000004a6
000007ff
ffffd7bc
fffff1a7
ffffda72
fffff255
ffff99a0
ffffd96e
00000bc6
ffffab4b
000018bb
000008ee
fffff592
00001284
ffffd34e
ffffda85
fffff3ea
ffffe150
ffffd0e7
00000f06
fffff32d
ffffe621
fffff89a
ffffec1a
fffffd7b
fffff571
ffffca7e
fffffc33
fffff174
ffffe62c
fffff67c
ffffe3d9
ffffc2ce
fffffbfb
fffffc66
ffffd191
ffffd352
ffffda69
fffffda5
ffffdee2
fffff372
00001367
fffff3ca
ffffedd9
ffffe505
00000945
fffff79c
ffffe833
ffffd820
ffffd084
000005dd
ffffe8d5
000001dc
ffffd7c9
0000172f
ffffe171
ffffdf14
000001bf
0000059f
ffffd4a7
ffffccf3
ffffeec8
fffff105
fffff660
000008b3
00000606
ffffdf0f
00000d38
ffffe775
ffffe26c
fffff974
000001b3
fffff4cc
0000039c
ffffeb06
000028b9
ffffe0f2
fffff77d
fffff1c1
fffff2ba
ffffdcfc
fffff2b5
000014f2
ffffc87e
fffff90f
ffffe992
00000bc8
00001154
ffffefa8
ffffef92
0000166a
00001cb7
00002135
ffffe3d9
ffffe13f
00000431
0000035e
fffff232
00000889
ffffdac8
ffffdd0b
ffffeb55
fffffb87
000009e6
fffff580
ffffd682
00000159
fffff7df
fffff273
ffffd854
ffffdfff
ffffe126
000016c2
0000091c
ffffd9f4
000006cf
fffffa02
ffffdc00
fffffb0f
00000c2e
ffffd3b1
fffff1d5
ffffd924
fffffe74
ffffd38c
ffffe6ab
ffffe4cc
ffffed56
ffffe573
00000892
ffffd7e0
fffffcdb
fffff710
ffffff11
ffffc828
fffff4b0
00000f33
fffff80a
fffff174
fffff33d
fffff788
ffffd5f6
ffffdf30
ffffcf9c
ffffb9d4
fffff2bd
ffffeaaf
fffff004
fffff2ce
ffffd7e9
ffffc6f1
ffffe5f8
ffffe31a
00000ba9
ffffda6f
fffffefd
ffffda4b
ffffe32b
ffffdf29
ffffd188
ffffd48f
fffffaf0
fffffa14
fffff638
ffffeeb2
fffffd0d
ffffedd7
ffffe917
ffffea68
ffffb1c5
ffffe441
ffffe5bc
ffffe2a3
ffffe015
fffff488
ffffd063
ffffea7a
fffff4c9
ffffd0a1
ffffd4f4
ffffee60
ffffdbef
ffffcc72
ffffed36
ffffeb66
ffffedf1
000005c2
ffffffd1
ffffddac
ffffdc72
ffffd99f
fffffc51
fffff8ec
fffff6e3
fffff894
fffff8ea
ffffe20b
00001496
ffffe3df
ffffdc7b
ffffca5f
ffffe9df
ffffe365
ffffffbc
ffffd713
000004a3
fffff084
ffffd967
fffffbde
00000c38
ffffd855
000008f6
fffff5b0
00000534
ffffe626
ffffe438
fffff9b8
ffffd97e
fffff3c2
ffffe8a1
ffffdbdf
ffffc6f4
ffffd68e
ffffdff0
fffffc2d
ffffd750
ffffe184
ffffbeed
ffffe3a3
ffffc2c0
0000028e
ffffe875
fffff583
ffffe2b2
00000823
ffffc0f3
000002a1
ffffeeb2
ffffef5e
ffffdc7b
ffffee93
00000587
ffffd49c
ffffd18b
00000a5d
fffff325
ffffc6f5
ffffdbfe
ffffdd8b
ffffef09
ffffd582
fffff61a
fffffd7e
fffff7aa
fffff1a1
fffffcb3
ffffe631
fffff050
ffffdf7b
ffffc3b5
ffffe951
fffff639
fffff96c
fffffc41
ffffd0c2
fffffb20
00000efa
ffffdd86
ffffdfe3
00000e1b
fffff72f
0000088a
ffffe65d
00000f67
ffffedd6
ffffdc4b
ffffcc0d
ffffc25c
000007f5
ffffdf4a
fffffeeb
000009f5
000002fb
ffffe2d2
ffffc638
fffffc54
fffffe5f
00000d08
ffffc29b
fffffac7
00001414
ffffe570
0000135c
fffff1de
ffffef4f
ffffc9f6
fffffc3f
ffffeebe
00000849
00000243
fffff3de
000000c4
ffffc86b
ffffeb0a
ffffca58
000005fa
ffffe579
fffff4e8
00001117
fffff5a4
fffffe1a
ffffcfcc
fffffa5d
ffffe179
ffffb566
ffffdd4f
ffffff5f
ffffc4f7
fffffbd4
fffffab0
0000088d
000005e8
ffffe5e2
ffffea69
ffffe595
000003e4
fffff123
ffffef1d
ffffffe5
ffffc0b4
fffff91e
fffffbee
ffffd1d5
000006f2
ffffe820
ffffe145
ffffff7b
ffffe986
000019d2
0000259d
0000229a
ffffdacd
00000111
00000c4d
ffffd230
ffffc134
fffff694
ffffd4d5
00001921
fffff276
fffff187
fffff544
ffffe8b7
ffffde81
ffffd47b
ffffe818
ffffef09
fffff027
0000101c
fffffaf3
ffffdfec
ffffed29
ffffd3db
ffffd260
00001618
ffffd51d
fffff0d6
fffffe31
ffffd70f
ffffe9f3
fffff807
fffff8f2
0000030a
ffffe09a
ffffe759
00000005
ffffbe1a
00001336
00002b98
00001461
ffffe979
ffffefd1
ffffe7de
ffffe9b6
ffffed5c
ffffdd1d
ffffd210
ffffe21a
000001fa
000013d2
ffffd049
ffffee72
ffffda77
ffffd435
ffffe596
ffffef88
00000e21
ffffca3b
ffffe9a1
ffffd091
fffff6ca
fffffed9
fffff252
ffffedaf
fffffba4
fffff64d
ffffea47
ffffd8ba
ffffe222
ffffede8
fffffade
00000ee9
fffff50c
00001958
ffffe446
000017b7
fffff0ca
ffffef84
ffffe6a4
fffff5e7
ffffe48e
ffffd05c
ffffd547
00000bb9
fffffaeb
fffff45c
ffffe903
00000e2e
ffffe745
ffffef79
fffff80d
00001915
ffffdce2
0000028a
000003df
00001687
00000f4b
ffffd7e0
000015b3
ffffda14
ffffd0c6
fffff080
ffffc41c
ffffef2b
ffffd5c5
fffff457
ffffe602
ffffca7a
fffff6c4
fffff637
ffffdccf
ffffe76e
ffffd3b6
ffffdda3
00001591
fffff536
0000222a
ffffebd3
fffff710
ffffead3
ffffe15e
00000b9f
000004d7
ffffe4ee
fffffd6b
ffffcd9c
ffffe4f5
fffffbe1
00000ce5
00001840
ffffce4a
fffff72c
fffffdb1
ffffe6cd
ffffeaf4
ffffd2f8
ffffe0f1
ffffe20d
ffffed0f
ffffe0fc
fffff7b4
ffffd375
ffffe892
ffffda74
00001022
ffffdc1c
ffffd57b
ffffdc1f
ffffe529
fffff3e4
ffffe4dd
00001c41
fffff92a
00000867
000007e9
ffffd2d0
ffffe777
ffffdd5b
ffffec2b
ffffe16c
00000fe1
00000fa3
ffffdd98
fffffd7d
ffffe7a2
fffff3d3
fffff269
fffff674
ffffea5a
fffff247
ffffe5cd
00000157
ffffdd6d
fffff1a8
000018ef
00002696
ffffe5f5
ffffd689
ffffd814
00000176
ffffeb6e
ffffff35
fffff11d
fffff3c1
0000088f
fffff014
ffffdcb4
000005a5
00000775
ffffcd1f
ffffeace
fffff665
000008fa
00000010
ffffd9c5
ffffd7c7
fffff4ac
fffffe28
ffffde26
ffffe1f6
00003243
ffffec0e
ffffdd91
00001419
ffffc4cc
ffffdbc8
ffffe99f
fffff824
ffffe7ba
fffff8ce
ffffc717
00000547
00000693
ffffa2d4
ffffce8f
ffffe3d9
ffffd58b
ffffde23
fffffe07
ffffeaa3
ffffd868
fffff2a3
fffff2af
fffff07a
00001a2a
ffffca50
fffff501
ffffb20b
ffffe174
fffffbf7
fffffdec
ffffe5fa
ffffedf2
ffffe652
ffffe783
ffffe34c
000003e3
ffffcb7d
fffff772
ffffc572
fffff480
fffff15b
ffffed1e
00002bbc
000004b1
00001cdf
ffffe3fb
ffffb5c4
ffffe376
fffff600
ffffe763
000006e2
fffffde2
fffff2a0
fffff6a6
ffffe617
ffffdf40
ffffcc54
fffffae6
ffffe00d
00001c56
ffffcc1e
ffffc251
00000b90
fffffbd3
ffffdd05
ffffdc70
ffffd289
fffffa34
ffffef65
00000662
ffffef27
ffffdf91
ffffdc50
fffff15e
ffffd5e3
0000064c
ffffd9a2
fffffe9b
ffffed1b
fffff54b
fffff22b
ffffdd6d
ffffece6
ffffd1c4
0000015e
ffffebc1
fffff4d8
00000701
fffffbbe
ffffe3a2
ffffe3a7
0000107b
0000003a
0000298a
fffffebe
00000aa6
ffffdcae
fffffb69
ffffe939
ffffc444
ffffc181
fffffd5e
00000b29
ffffedcc
000017eb
fffff382
ffffdf64
ffffe34c
0000117c
fffff4c6
fffff15a
ffffeb87
0000146d
fffff3f8
ffffe6aa
ffffde2e
ffffede6
ffffe70f
fffffe88
ffffcf8a
ffffe3cc
ffffd4bc
ffffda54
00000ebc
ffffe70c
ffffdc58
ffffc9d6
fffff334
ffffe5a9
00000999
00000671
fffff266
ffffe068
00000102
fffff07f
fffff242
fffff086
ffffeaae
ffffd7e7
000001d7
fffffc60
000003c8
ffffcdc4
000002c3
ffffe59c
fffff0a6
ffffea52
ffffe70a
0000164f
ffffde38
ffffd0a9
ffffd610
ffffe306
ffffd55f
0000020c
ffffccf6
ffffbf22
fffff9fc
fffff699
ffffe4c4
ffffec2a
ffffd1ce
ffffe5d4
ffffe696
ffffdc67
00001819
ffffffe3
fffffaaa
ffffe933
ffffed76
ffffff3a
ffffea7f
00000ea7
ffffd704
fffff62b
ffffef50
ffffc8a4
ffffed5f
ffffe88b
ffffe371
ffffbae7
000002ff
fffff2f4
fffff69a
ffffe04f
ffffe83a
ffffd601
ffffd835
ffffc85c
ffffe766
ffffcddc
ffffe31d
ffffc936
ffffbe0d
ffffcb30
fffff8ae
ffffe5ac
fffffb7b
ffffdef3
ffffde7f
fffff97a
fffffd8d
ffffffea
fffff9da
ffffea88
00000520
ffffe4f0
ffffdef3
ffffec82
ffffdb6c
fffff523
00002699
ffffeeaa
ffffe2f4
00000497
ffffe5ba
ffffd8cc
0000048b
fffffb16
fffff097
ffffee2a
ffffd8b9
fffff257
ffffe0aa
00000181
fffffdb0
ffffe3e0
fffff746
ffffe9d3
ffffcdbd
0000066b
ffffe7e2
ffffce1a
ffffcbc2
000003f9
fffff52b
ffffcfa0
ffffdd3c
ffffdf90
ffffc14a
000001e9
fffff323
ffffec0a
ffffe4b2
ffffe35b
ffffdda5
00000530
fffff6c5
ffffdd9f
fffff7dc
ffffcb8b
ffffe155
ffffefb5
ffffaa6e
00000369
ffffdc87
00000132
ffffd25e
fffffbe2
ffffdba2
00000553
000009f1
ffffe479
000000cd
ffffd29d
fffffe61
ffffe52b
ffffe797
fffff588
ffffddde
ffffeb05
fffff707
ffffeb07
ffffcbae
ffffe669
ffffe956
00000f9b
fffff680
00000397
ffffcd50
ffffd611
ffffe26c
ffffe5af
ffffe63a
fffff328
00001195
ffffe2d3
ffffed37
00000532
fffff5d2
ffffe230
ffffdad1
ffffe872
00000817
00000166
ffffe63b
ffffee08
000002e0
00000b9e
00001c19
fffffd6c
ffffdf48
ffffe3b3
fffffe8b
00000883
ffffbacf
ffffef41
000000c5
ffffec1b
000009db
ffffd767
ffffd127
00000f6f
00000844
fffff549
ffffdfc0
ffffda20
fffff384
00000a6a
fffff001
fffffd2f
ffffeb1c
ffffd767
ffffcdd6
ffffffa4
fffff1f5
fffff7e8
fffffbbb
ffffc42f
ffffd89c
fffff8fa
000019bb
ffffeb8f
ffffe2c8
ffffe22b
ffffe9b7
000005d7
ffffffb5
ffffd8ab
000010bc
fffff9e9
000019ac
ffffeb24
fffffae8
ffffd0be
000002a5
ffffeb2f
fffffb00
fffff800
00000046
fffff507
00000456
000012f8
00000d60
ffffddc3
ffffff31
fffffe4a
fffff9af
fffff0a7
ffffe799
ffffecb3
ffffdea2
fffff470
0000170c
ffffe8fe
000009c6
fffffe7a
fffff177
fffffc76
00000924
ffffeede
ffffda06
ffffcf59
ffffe56d
ffffef75
fffffad5
fffffbc2
ffffe1a2
ffffee4f
0000126b
00001e4f
00001d8a
ffffffac
ffffeadf
0000068d
ffffeed5
00001988
fffff1b2
fffff962
ffffbf4d
ffffcc84
00000af2
fffff46d
ffffd003
ffffffc3
00000b79
ffffcc37
00000f5a
fffffda6
ffffe18f
ffffdfdb
000009da
fffffa57
fffff01a
ffffda03
0000009a
ffffd39a
00002753
00002469
0000133d
fffff6fb
ffffe781
ffffdf74
fffff2ef
ffffd744
00001aba
fffffc28
fffff3a9
fffff2ce
ffffe93c
ffffff1d
000014d7
fffff29b
ffffdd57
ffffe207
ffffee13
fffff078
ffffb7e5
fffff787
ffffd744
fffffd2d
ffffcc6e
fffffe94
000002f2
ffffd98d
000002a0
ffffcd31
00000b47
ffffe515
fffffb38
ffffef6d
fffff678
00000624
ffffe60a
fffffba7
ffffefdb
00000f9d
ffffe229
00000784
ffffe7ee
fffff610
ffffe3c4
ffffcf86
ffffe780
ffffe077
fffffa91
ffffe0a5
ffffd7b9
00001898
fffff07a
fffffd14
000011bf
ffffd420
ffffdb90
00001b75
ffffe8c2
fffffdea
ffffea28
fffff76f
fffff43d
00000053
ffffd64e
fffffe43
ffffe0f4
00000424
ffffc886
ffffee31
0000015e
ffffe173
00000afb
ffffde92
ffffe066
00000528
ffffee1d
00000c98
fffff58f
ffffdc89
00000f83
fffff9ab
ffffed91
ffffe9f8
ffffee4c
fffff100
ffffe317
000007f9
00000bc0
fffff6e8
ffffec10
fffff241
ffffe43f
fffff423
fffffbd6
fffffcae
fffff023
ffffe566
ffffd767
ffffc940
00000aa5
000007f7
ffffeef3
fffff136
ffffc705
00001ec1
ffffffc6
ffffee9a
000003f6
ffffc559
ffffe7a7
ffffef8b
ffffe0d0
00002488
ffffde3b
fffff09c
00001d91
00000fd7
ffffe283
ffffde8d
ffffd655
000015a4
ffffef8f
ffffd246
ffffda4e
ffffcd91
ffffce68
00000143
ffffdd49
ffffc9ce
fffff79e
ffffe1cc
ffffee18
ffffe69d
ffffe800
fffff54a
00000663
00000c92
ffffe4ef
ffffea6f
fffff239
000004c0
fffff51a
ffffe2e4
ffffee78
00000a7f
ffffe8a4
fffff18e
fffff015
ffffcea9
fffff4d4
ffffee21
0000104e
fffff9a5
ffffce26
0000123d
fffffb29
ffffc30f
fffff096
ffffdc7d
ffffd6a3
00000150
ffffd921
ffffdea9
fffffe22
ffffea0a
ffffe03d
ffffe116
fffff3ba
fffffb49
ffffe495
ffffe9e6
fffff974
fffff59d
ffffbf4b
fffffd22
fffffe4b
ffffce48
fffff066
00000159
ffffd5a9
000002db
fffff50b
ffffe503
fffffed7
fffffbac
ffffc468
ffffdf56
ffffe558
000008e1
ffffff8f
fffffd54
00000b93
fffffcc9
ffffda7d
ffffcafc
ffffcfef
ffffe186
00000161
ffffeb92
0000076d
ffffe07c
ffffe83c
00000784
fffff746
ffffff3f
fffff168
fffff4bf
ffffbd81
ffffde3d
00000381
ffffed2a
fffff9c1
ffffd894
ffffefd1
fffff2f5
fffffbbf
ffffe32f
fffffdc7
fffffd4a
ffffb428
00001bc7
00001343
fffff44a
ffffde6e
000004dd
00000601
fffffd02
00000197
00000a79
fffff9f9
00000801
0000088b
ffffee66
fffff181
ffffebed
ffffcd55
fffffca2
0000013a
ffffd9bb
ffffeea5
ffffd84d
fffffd51
ffffe7ae
ffffb3a9
0000064f
ffffe612
ffffe2f2
ffffee7e
00000837
ffffe19d
fffff73d
ffffb926
000009e9
fffff2f2
ffffeba7
ffffd396
ffffd12b
ffffe883
00000ee3
ffffe180
ffffe83b
ffffe535
ffffe57d
ffffd816
ffffded7
ffffda11
00001477
ffffe0f1
ffffc757
ffffe5ae
fffff95a
00001b7a
ffffd9da
fffff218
fffffcc5
fffffcf8
ffffcd77
00000d7a
ffffdcb4
000001de
00001289
ffffe422
000009a6
fffff861
ffffe0d2
ffffba3f
fffff743
ffffdf98
ffffe7df
ffffe548
ffffe817
ffffdee5
fffff2e1
ffffb298
00000ff9
0000001f
00000d99
ffffe12f
00000453
000012ab
ffffefef
00000811
00001b2e
fffff82f
fffff3ae
00000680
fffff773
ffffcf0b
fffff2a6
fffff6ce
fffffc0f
000002e3
fffff1de
ffffe89a
fffff847
ffffe806
ffffef50
000003fa
000005eb
fffff012
fffffaf1
ffffde24
ffffe354
ffffdecc
fffffdb8
ffffe185
ffffeca8
ffffea91
ffffe442
ffffa601
ffffff39
fffff8c9
fffff127
ffffc96a
ffffe81e
fffff5bb
ffffe4c6
ffffed8d
ffffe96f
00000567
ffffdf1d
ffffe33b
ffffe893
fffff36c
ffffd2af
00001289
000022f1
00000095
00000d26
ffffcc90
00000641
ffffc661
ffffe84f
000002ae
fffffdba
fffffc76
ffffc5ce
fffffcec
fffffd07
ffffc8ee
ffffeb6b
ffffd043
ffffe77c
ffffd83c
ffffd0e8
fffff8eb
ffffed70
00000b5f
ffffeba5
ffffdc27
ffffda99
000003d0
fffff668
fffffe6c
00000710
fffff485
0000012c
ffffeaa2
fffffe36
ffffe50e
ffffcd8a
ffffc3d9
fffff7fc
00000042
fffff877
ffffd47e
fffff96f
ffffc79f
ffffce15
ffffcde9
ffffe9cd
00001d8d
ffffd9da
000010a5
000003bc
fffffa5a
00000140
00000664
0000151f
ffffd234
ffffe6dd
ffffffee
ffffe585
ffffffe0
ffffeb38
ffffec50
0000135e
ffffe3e9
000002f8
fffff015
ffffd904
ffffda92
0000139d
000017bc
ffffed50
ffffd81e
ffffeca7
000004a7
000014e4
ffffd02a
00001257
fffffd6b
ffffe7f9
fffff28f
00000d89
ffffedac
fffff2e2
ffffd2bb
ffffed5a
ffffec95
fffffcd6
ffffeb01
ffffef8d
ffffeb51
ffffefff
ffffe30d
ffffe1f3
000002b8
000002f6
00001d52
fffff0c3
fffff385
fffffedf
ffffc2ef
ffffe78f
ffffdf3d
ffffea0d
00000277
ffffd47a
fffffc05
fffffdba
ffffccd6
ffffde1e
000009b5
00001647
ffffe9ad
ffffeff2
ffffe26b
ffffcec8
00001d0d
ffffde22
fffff198
ffffdeef
ffffc5a5
fffffe99
ffffde99
fffffc3a
fffff9aa
000003c7
0000081a
fffff1e6
fffff9da
fffff920
ffffe4ef
ffffece1
00000860
ffffe3ea
ffffddf0
fffff232
ffffdd5e
ffffdd85
ffffdfc9
ffffecce
00000807
ffffec46
0000078b
000015b8
ffffed8c
00000b5c
00000449
ffffe118
ffffd5b0
00000d4e
fffff481
000001d3
00001313
ffffec78
fffff1d4
ffffcec1
fffff63b
00000291
fffffb4e
ffffde9a
fffff32e
ffffeda8
fffff647
00001338
ffffe780
ffffe50d
fffff98e
000010f1
00001aae
fffffad0
ffffe532
ffffdeec
ffffdd7c
000014a9
00000d91
ffffd569
00000121
ffffe704
00000550
fffff3f4
ffffde8d
00000cb3
ffffeee4
00000722
ffffd701
ffffec17
ffffc31a
ffffd85d
ffffe4e3
ffffc898
00001b67
fffff3ae
ffffee15
ffffecbc
fffff872
fffffce5
0000160f
fffffebf
fffff37f
ffffed15
00000343
ffffe70e
ffffd50b
ffffea40
00000946
ffffe3b7
00000228
ffffd99c
ffffcc92
000018b2
ffffdddd
00000bc0
00000140
000016d2
ffffce64
ffffd6d2
ffffeadd
ffffc002
ffffe5d9
000007b5
000003f5
ffffe63c
ffffd745
ffffbf5e
ffffe6db
fffffe7e
fffff53f
fffffa00
00001656
ffffeabf
ffffe764
fffff824
0000056e
ffffc872
ffffeab9
fffff2b3
ffffd4fc
00000aa5
ffffe9b3
ffffd490
fffff67c
ffffed97
ffffdb5a
fffffc78
ffffcd52
ffffeb79
ffffec12
ffffeb29
00000caa
00000e11
00001738
ffffd6b0
ffffdc63
ffffd862
ffffef13
ffffd4a5
fffff2f4
ffffcc2a
ffffcecf
ffffe9ea
fffff058
ffffc845
fffff54f
00001663
000027e0
fffff1b1
ffffe6c5
fffff4ec
00000545
00000135
00001791
ffffe663
ffffe330
fffff124
ffffc20f
ffffe2a0
fffff4d0
ffffe3dd
fffff6c9
0000071f
000016ab
ffffdcb6
fffff2b9
ffffe911
fffff35b
ffffe8c3
ffffe824
ffffe786
ffffe209
fffff867
fffff8fb
ffffca4c
ffffd99a
ffffef67
ffffdbb9
ffffdddb
0000043f
fffff40f
ffffffce
ffffdae0
00000f1c
ffffdd75
ffffc31a
fffff216
ffffee5a
ffffd72f
fffff266
ffffe2fe
0000058c
ffffe33a
ffffebb9
ffffcb00
0000016d
00000007
ffffea3f
ffffdbf9
ffffdd97
ffffeccc
ffffe16e
ffffed75
fffff7d9
000003d4
ffffe19b
ffffdac0
ffffed0a
fffff416
ffffcf25
ffffd888
fffff92f
ffffd45b
00000260
000016ba
fffff058
ffffebd9
00000ba5
ffffea95
fffff51c
ffffe6f6
0000270a
ffffd6c4
fffff059
ffffd3d5
ffffec6e
fffffe2a
ffffdcf5
ffffd55b
ffffd514
fffff3d2
fffffb40
fffff68d
fffff408
fffff28d
fffffe78
fffff7ec
ffffe773
ffffedf9
fffff81c
ffffdeb9
ffffe3e8
ffffd278
ffffe9cf
ffffec68
ffffef85
ffffd37a
ffffd6ab
000004c2
00000671
ffffd87a
ffffe982
ffffd4b7
000005cf
fffff992
ffffef26
ffffcdc1
000006d5
fffffa16
00000c4a
ffffff89
ffffeab1
ffffcc60
ffffed77
fffff5bf
ffffea03
ffffe204
fffff380
fffff8bd
ffffd7b3
ffffe256
ffffdaf5
ffffdbe0
00001100
ffffed07
ffffcf65
000005b9
ffffddb0
ffffec36
000002a7
fffff52c
00000783
ffffc73c
fffff6cb
ffffff2b
fffff6d7
ffffc9ee
fffff395
ffffcbd3
00000254
fffff851
0000223c
ffffd3f5
ffffb921
ffffc0bf
0000076d
ffffbc3a
ffffe51e
ffffe09b
00000a32
ffffe829
fffffee5
ffffe73b
ffffec74
ffffeab6
fffff7a2
ffffe4b5
000003bc
ffffecfa
ffffe567
fffff1a9
fffff711
fffffc27
ffffdbd8
00000099
ffffe98b
000016b3
fffff158
ffffe577
ffffec0b
0000096c
000006d4
0000057d
ffffb8fd
ffffe3d6
ffffe6d5
00000663
ffffd648
ffffedd4
ffffd250
fffff056
fffff55e
000001d5
0000064f
ffffe940
ffffc73c
ffffdf35
ffffd44e
000004db
000003b4
fffff8d7
00004285
ffffebbd
00001c98
ffffd4fa
00000019
ffffefdc
fffff2aa
ffffebf2
ffffd187
0000027f
ffffdd03
0000152c
ffffe819
fffff898
00000569
000024cb
ffffecbf
ffffcda5
ffffe1f2
fffffcd3
fffff133
ffffffc8
ffffed72
fffff48a
000001d0
fffff934
ffffdd7c
fffff11d
fffff78e
ffffddbe
ffffd0b7
ffffd057
ffffdde2
00000748
ffffdf6c
ffffda5a
ffffeefb
ffffe344
ffffe7cd
000014aa
0000047e
ffffe118
000028c3
ffffe982
00001938
ffffb627
fffff3d5
fffff6b7
fffff0d9
ffffa93e
ffffe77b
ffffc94b
00000503
fffff8f3
ffffed2c
ffffff34
fffff3e4
ffffe1e9
ffffeffe
fffff52a
000000dd
ffffd1cd
ffffe173
ffffd0e5
fffffc1e
fffffa79
fffff5c6
ffffe47f
ffffce31
fffff285
fffffdde
fffff5f5
ffffaddc
ffffff99
000031aa
fffffd7a
ffffbcac
ffffe758
fffffe5c
ffffd743
ffffd6ce
ffffff6c
ffffc72c
fffff2f1
fffffffe
ffffee05
fffff8bc
fffff43a
fffff09a
ffffdf1d
fffff4fd
fffffb99
00000336
000003da
0000024d
00000cc7
fffff19e
ffffe327
000006bd
ffffc934
ffffde69
ffffc466
ffffe6b8
fffff13c
ffffea6b
ffffdbb1
ffffe225
ffffee98
00001319
ffffd517
ffffe274
00000fdc
fffff7fc
ffffed70
00000e47
fffff3e5
ffffe555
00001a20
00000485
ffffe493
fffff663
0000089e
ffffedd7
ffffc48d
fffff946
0000151b
fffff702
fffffa68
ffffe3a6
fffff341
ffffca78
00000b32
fffff5a6
ffffe0ba
fffff2da
fffffa78
fffff92e
fffff512
00001591
000016fb
000038a6
fffffe3d
ffffcf44
ffffede0
ffffedf5
fffff5f0
ffffda88
ffffcdef
ffffefa0
fffffbfa
fffff20f
fffff6ce
000004c6
00001165
ffffef20
fffff087
fffffb9c
ffffe4f6
ffffe768
00000e55
ffffed94
ffffe91d
fffff7ce
ffffec82
ffffeb70
ffffe7c7
ffffd879
ffffd6a0
fffffff4
fffffb56
00000bc7
ffffc11b
fffff541
fffff718
ffffec8f
ffffbb95
fffffe4c
ffffeeeb
ffffe627
ffffda42
fffff969
ffffe6f8
00002592
ffffefaf
00000526
fffff4c3
ffffdf42
000002e9
ffffd497
ffffdf78
ffffeb38
fffff652
ffffcf13
fffff5ec
ffffe431
fffff31a
fffff7c6
ffffde70
ffffe7cd
ffffdb35
00000025
ffffe8a2
fffff2bf
ffffb9fd
fffff26e
0000157e
fffffdc5
ffffea12
fffff010
fffff97a
00000284
ffffe226
fffffb7e
ffffcd38
ffffca5a
ffffdfaa
00002004
ffffd668
fffffc41
000021c4
ffffe706
ffffffe0
fffff108
ffffde27
fffff741
fffff034
ffffee3b
ffffbba4
ffffd6f2
ffffe0e0
fffffbe3
fffff4f8
fffff8f9
ffffe8a8
fffffeac
000011b2
0000081d
ffffe2e3
ffffe333
000006cb
fffff40e
ffffd939
ffffe7c9
ffffd5a8
ffffe731
fffff89e
ffffe118
fffff8a2
fffff799
0000008a
fffff9af
fffffda6
ffffdbf0
ffffebac
fffff78e
00001515
00001de2
ffffe856
ffffe6c8
fffffcf5
ffffefe7
fffff122
ffffe47d
ffffe37d
ffffde29
0000070c
fffff5f9
ffffe18d
fffff334
ffffe989
ffffed6c
fffff00e
ffffeb7e
ffffe9eb
fffff8bc
000012a5
ffffdf1a
ffffbe88
ffffe4bd
fffff90d
fffff2c4
fffffe90
ffffd8d0
000009e4
fffffeb1
ffffc71e
ffffcaeb
fffff8fb
fffff519
00000a96
00000ade
ffffcaca
fffff768
fffff3b7
ffffe8f8
ffffd2a4
ffffb9a7
fffffd0f
ffffe0f2
ffffed2e
00000ccd
fffff286
ffffcf9f
fffffe1b
fffffb38
00000950
00000446
ffffea91
00000256
ffffda46
ffffe6c8
fffff396
ffffdc31
ffffe4a6
ffffcbcd
fffff0ea
fffff758
ffffad54
ffffdc45
fffff8f3
000009d2
00000727
ffffe53d
ffffe9f4
ffffdb57
ffffd744
00000bbd
ffffe613
ffffd749
00001497
ffffba77
ffffe676
0000129c
00000a81
fffffb62
000005f4
ffffdfdf
ffffe1cd
00000126
000009ec
00001114
fffff6a8
ffffea56
fffffaf2
ffffd34b
ffffe5bc
ffffdb2c
ffffe34a
fffffa1e
ffffed40
0000328f
0000014e
ffffff80
000005d3
ffffd8b5
ffffe513
fffff3c2
ffffde3f
ffffe85c
00000e0b
ffffdde2
ffffe773
00002594
00000e51
00000e64
ffffeebe
ffffcbb4
fffffd4c
00000efb
ffffe4f1
ffffd319
fffff0d6
0000002c
ffffeef4
0000188e
ffffe345
ffffe042
fffff971
fffff5f8
00000cb6
ffffe939
00000db6
0000187f
ffffe9a7
000007db
00001ab7
00001337
ffffd54c
ffffe947
ffffec93
ffffe6c0
ffffe08e
ffffd7e7
fffffcd3
ffffe47a
ffffe869
000006b2
000000e0
000006b1
fffffbe2
fffff021
ffffd7bc
ffffcdb0
fffff0ff
ffffd708
0000379b
000005dc
fffff7ae
ffffeecf
0000128c
00000aac
ffffdace
00001093
ffffd92d
ffffd337
fffff846
ffffb88c
00001542
fffff3dd
00000f0f
ffffd393
fffffb6f
fffff82a
ffffdb16
fffff9c4
ffffeddd
ffffdc9c
ffffe3c9
ffffd6b9
ffffe796
ffffe969
fffff321
ffffd996
ffffe9ad
fffffaa9
ffffe989
ffffefae
ffffd7a7
fffff136
00001280
ffffd4be
ffffef2a
ffffe5ab
00000618
00000653
fffffd1c
ffffe11c
ffffe60e
00000f2d
fffff6ba
ffffda39
0000052d
ffffe9b6
ffffdde3
ffffdb16
ffffed2b
ffffec6a
ffffe73d
000002bb
ffffd9fd
ffffce01
0000102a
ffffe444
ffffd0fd
ffffe820
ffffd7a9
00001c32
ffffc4b2
fffff809
ffffef92
fffff9ed
ffffd690
fffff94d
ffffeb03
ffffe4ff
ffffe552
fffff89f
fffffb40
ffffe8de
fffff748
0000039b
ffffe385
ffffdb35
ffffbebb
ffffea00
000000c0
0000024d
fffffa8a
ffffd5e0
fffffdbf
ffffe727
00000aa5
fffff221
ffffed2a
fffff19a
00000817
000005fc
0000009b
fffff313
ffffeb1d
ffffeeb5
ffffbef7
ffffd78e
ffffe4d9
000007af
fffff70e
00001cca
fffff2b5
ffffd71d
00000a0f
00000a11
00000301
ffffe556
00002063
000005ce
ffffc3dc
000014f3
fffffc3d
ffffb1c3
00000dd8
00000a19
fffff019
ffffe72e
fffffc56
fffff10b
00002138
fffff54a
ffffd745
ffffe67f
ffffd8e1
ffffe9be
000015f0
ffffec09
ffffecb4
ffffeb60
00000722
ffffc7e1
00000b8c
00000872
00000c97
ffffe523
000002d1
fffff73f
fffff713
ffffee6b
fffff4a5
fffff283
ffffc541
ffffe248
fffff3c9
ffffdfce
00001bf3
ffffec91
00001602
00001262
fffff2be
fffff8fa
ffffe564
ffffe256
ffffe83c
0000022d
ffffe68d
ffffd460
00000e2d
fffff492
ffffdaf7
ffffd638
00000029
fffff029
fffffd76
ffffe803
ffffdbdb
ffffe144
0000087e
fffff0b2
ffffde28
fffff812
ffffcb06
ffffe790
ffffdf61
000012ba
ffffe4dc
00004248
fffff558
00000e7f
ffffd4ad
00000726
fffff7a3
fffff7d4
fffff5bc
ffffde41
fffff441
ffffdfd6
fffff493
ffffff86
ffffddc5
ffffdfcf
00001e76
fffffaa8
fffffbb1
ffffda37
ffffe5df
00000d0b
fffffc66
0000111d
ffffe0a5
00001669
ffffcc57
ffffb614
ffffe495
fffffa63
fffffaa9
0000250b
ffffee4d
ffffd626
ffffffdb
ffffcc64
ffffe23c
ffffcae6
ffffeb3f
00001552
ffffecc3
ffffefc3
ffffd9a5
fffff0d6
ffffeddf
ffffdfe9
ffffc91f
ffffedc5
00000cf1
00001a12
000015dd
ffffe972
ffffdab1
fffff661
ffffe3d9
fffffce4
00000491
ffffdbf4
000003da
ffffedef
ffffef7c
ffffd7be
00000c97
ffffc594
fffff10a
ffffef9c
ffffe35b
ffffeecb
ffffcc75
ffffd2f5
ffffe9eb
ffffe002
ffffd9b4
00000502
000007d8
ffffd928
ffffd445
ffffb520
ffffe9bb
fffffea2
ffffdd43
fffff2a6
fffff651
00000379
ffffef09
00000211
ffffe6e0
fffff0a1
ffffcc70
ffffe965
ffffdfe4
000004db
000024cf
000011c7
fffffc4e
ffffec22
ffffedc6
ffffef64
ffffe1c8
00000039
fffff536
ffffc83d
00000d97
ffffeb06
ffffc8bc
000010ae
ffffe1b1
00000f39
ffffd9a9
ffffe9eb
ffffde0f
ffffea07
ffffff68
fffff7ef
ffffd4d0
ffffd956
fffff2bc
ffffe192
ffffd97d
ffffe821
ffffe520
ffffcd37
ffffe3f5
00000ac0
ffffcbd4
ffffef2c
ffffe7c5
ffffffc0
00001239
00000dee
ffffc9cd
ffffdf70
ffffe78a
00001ba9
ffffb8cc
fffff09c
000008f5
ffffdc1c
00001547
ffffe2a6
fffffb3a
00001193
fffffbef
ffffdec4
00000ffd
00000f32
00000061
fffff92d
ffffe9ec
000004f0
ffffc75f
ffffec44
00000556
ffffef63
fffff40d
ffffdc2a
fffffca7
fffffa69
ffffe27c
00000544
00000855
ffffe341
00000087
ffffd763
ffffed4c
ffffe2c5
ffffd08d
ffffe9b0
ffffc3b8
ffffd4ff
fffff739
fffffe0e
fffff753
ffffdb6f
fffff66d
ffffed26
ffffeefb
ffffd71f
fffff07d
ffffea37
ffffe1d2
ffffed37
00001084
fffff9c2
ffffd490
00000e69
000014cd
fffff833
000014ac
ffffd0fd
ffffebd7
ffffe0ac
fffff87d
fffff133
ffffcf61
00001b64
00000711
00000822
000001b8
fffff6d1
ffffe62f
00000852
fffff032
fffffb3a
ffffcff5
ffffe61a
fffffd61
ffffeb20
ffffc31c
ffffee2a
ffffbaff
000019a2
fffffafb
ffffebcd
ffffede4
ffffd22a
00002413
ffffea57
ffffec0c
ffffe9ae
000002f4
fffff7b5
fffff5ea
fffff801
ffffe94e
00000f0c
00001832
fffff52b
ffffbd53
000016b6
fffff6cf
0000143e
fffffa20
fffff36c
ffffec4d
ffffe0d3
fffff2f8
000009c9
ffffe58d
fffff219
0000214e
ffffdd90
ffffef19
ffffc8f3
00000877
fffffcf9
ffffdc37
ffffdbe9
00000360
0000010a
fffff0f7
00000726
00000457
ffffeef4
000006ec
000008ef
fffff325
ffffdf19
0000062d
fffff2f6
ffffe55b
ffffc25e
ffffcd81
fffff8dd
ffffffbb
ffffd61c
fffff00c
ffffdf06
ffffd664
00000103
ffffe927
ffffdd06
000018b6
ffffee04
ffffc662
fffffe7e
00000229
000006e9
ffffdc5d
fffff1ce
ffffeec5
fffff1c6
ffffe141
ffffdbf7
fffffb19
fffff0ff
ffffeb96
fffff8c0
ffffe325
00000090
fffff98b
fffffb5c
fffff0fb
ffffe7ba
fffff2b7
fffff4ec
ffffeb27
ffffeb84
fffff7c2
fffff674
00001512
ffffdefb
00000f4e
00001de7
00000f15
00001fa0
ffffd5c6
fffff729
fffff433
ffffee48
ffffe8f7
ffffecc9
ffffeb04
ffffede9
ffffd5af
ffffecb4
000005d3
0000078e
000000e5
ffffe400
ffffd219
ffffd545
ffffc798
ffffc96b
fffffed6
0000095e
ffffd841
ffffca3f
ffffdb4f
ffffce31
ffffe865
fffff262
ffffe08b
00000991
ffffeea9
ffffbbc9
00000e9a
fffffebf
00001362
ffffe74e
ffffff5b
ffffc7b8
ffffe8c4
fffff8eb
fffff02d
fffff6b6
ffffe90e
00000e6d
ffffe169
ffffe8e3
ffffdf36
ffff9516
ffffeb4f
fffffad4
ffffde5c
ffffe545
00001bd9
ffffd9cd
00000eae
00001f3e
00001201
fffff6fd
00000d7a
ffffe942
ffffe6ad
ffffe55c
fffff45e
fffff871
00000be6
ffffdf74
fffff70b
ffffd13a
000006ef
000001de
fffffd9b
fffff731
ffffcf0e
ffffe68a
fffff6da
000020a4
fffff734
ffffddff
ffffec0e
ffffec98
fffff02b
ffffcd11
ffffe775
fffff6bd
ffffe7d6
ffffde7b
fffffe88
fffff773
fffff34c
ffffebda
ffffed07
fffffed0
00000b29
ffffde7b
00001e08
000001d1
000000bd
ffffe638
ffffb812
ffffd6fd
ffffd9bd
0000100e
fffff902
fffff63a
ffffda26
ffffe7f7
fffffae7
ffffe9de
fffffb0b
fffff94c
ffffdd17
ffffe182
000000d5
fffff27a
ffffde54
000007d0
00000905
ffffcdc6
fffff2f2
fffff385
fffffd9c
0000441c
ffffde1d
ffffd714
000007a7
0000013f
ffffbfac
ffffffc4
ffffc54c
fffff9f2
00001d9a
ffffe586
ffffe45d
00000309
000008a8
fffff6d1
00000752
ffffe6b9
fffffbb4
ffffe3bc
ffffcbef
ffffffe9
ffffe8b5
ffffeea4
fffff360
fffff134
fffffcb9
fffffc65
ffffe589
00000320
000001a4
ffffeb62
ffffe7c1
000002e6
ffffe32b
ffffe942
0000061c
00000070
ffffe0bf
fffffe11
00001acc
00001df8
00000448
fffff42e
ffffe3e1
00000b92
ffffbe1a
00000422
fffff27c
fffff8d9
ffffdc4f
fffff3d6
ffffd788
ffffd2f6
ffffe598
00000005
fffff638
000011ff
ffffe642
00000fea
fffff2b3
fffff339
00001091
fffff406
ffffe998
ffffffd5
ffffe0aa
00000723
000005f2
ffffee87
fffff38c
ffffee4b
00000a2d
ffffe21a
0000015e
ffffbd78
ffffe775
ffffe90e
ffffdf13
000008d9
fffff822
ffffd10b
ffffd32e
fffff113
00000412
fffff098
000007f8
fffffc64
ffffe87c
ffffc9ad
fffffece
ffffe944
ffffe595
00000378
fffffd3a
fffff8b9
ffffd42b
ffffde56
ffffde18
00000bfa
fffff8c5
000000e1
fffffc50
fffff93e
fffffab7
fffff9c9
ffffd9bd
00000a2d
00002a45
ffffd65d
ffffec2e
ffffd9be
00001ee9
fffff2a8
ffffb515
fffff796
ffffe032
fffffca9
fffffe7c
fffff72b
fffff81f
0000148f
fffff2de
fffff75a
fffffbf7
ffffd42b
ffffdbbc
ffffff52
00000e20
ffffe1db
00000432
ffffd4f8
0000158a
ffffe410
fffff688
ffffdd3c
fffffaec
ffffe8fb
ffffe016
ffffea0d
ffffe3cb
ffffdb69
ffffd395
fffff06b
